{
  "version": "1.0",
  "truncation": null,
  "padding": null,
  "added_tokens": [
    {
      "id": 0,
      "content": "[PAD]",
      "single_word": false,
      "lstrip": false,
      "rstrip": false,
      "normalized": false,
      "special": true
    },
    {
      "id": 100,
      "content": "[UNK]",
      "single_word": false,
      "lstrip": false,
      "rstrip": false,
      "normalized": false,
      "special": true
    },
    {
      "id": 101,
      "content": "[CLS]",
      "single_word": false,
      "lstrip": false,
      "rstrip": false,
      "normalized": false,
      "special": true
    },
    {
      "id": 102,
      "content": "[SEP]",
      "single_word": false,
      "lstrip": false,
      "rstrip": false,
      "normalized": false,
      "special": true
    },
    {
      "id": 103,
      "content": "[MASK]",
      "single_word": false,
      "lstrip": false,
      "rstrip": false,
      "normalized": false,
      "special": true
    }
  ],
  "normalizer": {
    "type": "BertNormalizer",
    "clean_text": true,
    "handle_chinese_chars": true,
    "strip_accents": null,
    "lowercase": true
  },
  "pre_tokenizer": {
    "type": "BertPreTokenizer"
  },
  "post_processor": {
    "type": "TemplateProcessing",
    "single": [
      {
        "SpecialToken": {
          "id": "[CLS]",
          "type_id": 0
        }
      },
      {
        "Sequence": {
          "id": "A",
          "type_id": 0
        }
      },
      {
        "SpecialToken": {
          "id": "[SEP]",
          "type_id": 0
        }
      }
    ],
    "pair": [
      {
        "SpecialToken": {
          "id": "[CLS]",
          "type_id": 0
        }
      },
      {
        "Sequence": {
          "id": "A",
          "type_id": 0
        }
      },
      {
        "SpecialToken": {
          "id": "[SEP]",
          "type_id": 0
        }
      },
      {
        "Sequence": {
          "id": "B",
          "type_id": 1
        }
      },
      {
        "SpecialToken": {
          "id": "[SEP]",
          "type_id": 1
        }
      }
    ],
    "special_tokens": {
      "[CLS]": {
        "id": "[CLS]",
        "ids": [
          101
        ],
        "tokens": [
          "[CLS]"
        ]
      },
      "[SEP]": {
        "id": "[SEP]",
        "ids": [
          102
        ],
        "tokens": [
          "[SEP]"
        ]
      }
    }
  },
  "decoder": {
    "type": "WordPiece",
    "prefix": "##",
    "cleanup": true
  },
  "model": {
    "type": "WordPiece",
    "unk_token": "[UNK]",
    "continuing_subword_prefix": "##",
    "max_input_chars_per_word": 100,
    "vocab": {
      "[PAD]": 0,
      "[unused0]": 1,
      "[unused1]": 2,
      "[unused2]": 3,
      "[unused3]": 4,
      "[unused4]": 5,
      "[unused5]": 6,
      "[unused6]": 7,
      "[unused7]": 8,
      "[unused8]": 9,
      "[unused9]": 10,
      "[unused10]": 11,
      "[unused11]": 12,
      "[unused12]": 13,
      "[unused13]": 14,
      "[unused14]": 15,
      "[unused15]": 16,
      "[unused16]": 17,
      "[unused17]": 18,
      "[unused18]": 19,
      "[unused19]": 20,
      "[unused20]": 21,
      "[unused21]": 22,
      "[unused22]": 23,
      "[unused23]": 24,
      "[unused24]": 25,
      "[unused25]": 26,
      "[unused26]": 27,
      "[unused27]": 28,
      "[unused28]": 29,
      "[unused29]": 30,
      "[unused30]": 31,
      "[unused31]": 32,
      "[unused32]": 33,
      "[unused33]": 34,
      "[unused34]": 35,
      "[unused35]": 36,
      "[unused36]": 37,
      "[unused37]": 38,
      "[unused38]": 39,
      "[unused39]": 40,
      "[unused40]": 41,
      "[unused41]": 42,
      "[unused42]": 43,
      "[unused43]": 44,
      "[unused44]": 45,
      "[unused45]": 46,
      "[unused46]": 47,
      "[unused47]": 48,
      "[unused48]": 49,
      "[unused49]": 50,
      "[unused50]": 51,
      "[unused51]": 52,
      "[unused52]": 53,
      "[unused53]": 54,
      "[unused54]": 55,
      "[unused55]": 56,
      "[unused56]": 57,
      "[unused57]": 58,
      "[unused58]": 59,
      "[unused59]": 60,
      "[unused60]": 61,
      "[unused61]": 62,
      "[unused62]": 63,
      "[unused63]": 64,
      "[unused64]": 65,
      "[unused65]": 66,
      "[unused66]": 67,
      "[unused67]": 68,
      "[unused68]": 69,
      "[unused69]": 70,
      "[unused70]": 71,
      "[unused71]": 72,
      "[unused72]": 73,
      "[unused73]": 74,
      "[unused74]": 75,
      "[unused75]": 76,
      "[unused76]": 77,
      "[unused77]": 78,
      "[unused78]": 79,
      "[unused79]": 80,
      "[unused80]": 81,
      "[unused81]": 82,
      "[unused82]": 83,
      "[unused83]": 84,
      "[unused84]": 85,
      "[unused85]": 86,
      "[unused86]": 87,
      "[unused87]": 88,
      "[unused88]": 89,
      "[unused89]": 90,
      "[unused90]": 91,
      "[unused91]": 92,
      "[unused92]": 93,
      "[unused93]": 94,
      "[unused94]": 95,
      "[unused95]": 96,
      "[unused96]": 97,
      "[unused97]": 98,
      "[unused98]": 99,
      "[UNK]": 100,
      "[CLS]": 101,
      "[SEP]": 102,
      "[MASK]": 103,
      "!": 104,
      "\"": 105,
      "#": 106,
      "$": 107,
      "%": 108,
      "&": 109,
      "'": 110,
      "(": 111,
      ")": 112,
      "*": 113,
      "+": 114,
      ",": 115,
      "-": 116,
      ".": 117,
      "/": 118,
      ":": 119,
      ";": 120,
      "<": 121,
      "=": 122,
      ">": 123,
      "?": 124,
      "@": 125,
      "[": 126,
      "\\": 127,
      "]": 128,
      "^": 129,
      "_": 130,
      "`": 131,
      "{": 132,
      "|": 133,
      "}": 134,
      "~": 135,
      "¡": 136,
      "¢": 137,
      "£": 138,
      "¤": 139,
      "¥": 140,
      "¦": 141,
      "§": 142,
      "¨": 143,
      "´": 144,
      "a": 145,
      "b": 146,
      "c": 147,
      "d": 148,
      "e": 149,
      "f": 150,
      "g": 151,
      "h": 152,
      "i": 153,
      "j": 154,
      "k": 155,
      "l": 156,
      "m": 157,
      "n": 158,
      "o": 159,
      "p": 160,
      "q": 161,
      "r": 162,
      "s": 163,
      "t": 164,
      "u": 165,
      "v": 166,
      "w": 167,
      "x": 168,
      "y": 169,
      "z": 170,
      "##a": 171,
      "##b": 172,
      "##c": 173,
      "##d": 174,
      "##e": 175,
      "##f": 176,
      "##g": 177,
      "##h": 178,
      "##i": 179,
      "##j": 180,
      "##k": 181,
      "##l": 182,
      "##m": 183,
      "##n": 184,
      "##o": 185,
      "##p": 186,
      "##q": 187,
      "##r": 188,
      "##s": 189,
      "##t": 190,
      "##u": 191,
      "##v": 192,
      "##w": 193,
      "##x": 194,
      "##y": 195,
      "##z": 196,
      "0": 197,
      "1": 198,
      "2": 199,
      "3": 200,
      "4": 201,
      "5": 202,
      "6": 203,
      "7": 204,
      "8": 205,
      "9": 206,
      "the": 207,
      "": 208,
      "newline": 209,
      "of": 210,
      "to": 211,
      "and": 212,
      "in": 213,
      "##(": 214,
      "or": 215,
      "that": 216,
      "for": 217,
      "by": 218,
      "be": 219,
      "any": 220,
      "as": 221,
      "on": 222,
      "is": 223,
      "shall": 224,
      "with": 225,
      "this": 226,
      "not": 227,
      "such": 228,
      "which": 229,
      "no": 230,
      "other": 231,
      "agreement": 232,
      "it": 233,
      "article": 234,
      "##ing": 235,
      "at": 236,
      "an": 237,
      "from": 238,
      "its": 239,
      "court": 240,
      "all": 241,
      "under": 242,
      "company": 243,
      "are": 244,
      "may": 245,
      "was": 246,
      "have": 247,
      "section": 248,
      "has": 249,
      "commission": 250,
      "regulation": 251,
      "##ed": 252,
      "if": 253,
      "date": 254,
      "been": 255,
      "case": 256,
      "party": 257,
      "10": 258,
      "time": 259,
      "each": 260,
      "will": 261,
      "member": 262,
      "had": 263,
      "state": 264,
      "states": 265,
      "law": 266,
      "respect": 267,
      "than": 268,
      "##`": 269,
      "their": 270,
      "provided": 271,
      "applicant": 272,
      "decision": 273,
      "european": 274,
      "his": 275,
      "parties": 276,
      "rights": 277,
      "applicable": 278,
      "12": 279,
      "made": 280,
      "within": 281,
      "11": 282,
      "including": 283,
      "set": 284,
      "ec": 285,
      "information": 286,
      "period": 287,
      "into": 288,
      "one": 289,
      "ii": 290,
      "amount": 291,
      "were": 292,
      "after": 293,
      "pursuant": 294,
      "accordance": 295,
      "first": 296,
      "would": 297,
      "following": 298,
      "community": 299,
      "he": 300,
      "##ly": 301,
      "interest": 302,
      "out": 303,
      "000": 304,
      "should": 305,
      "upon": 306,
      "only": 307,
      "order": 308,
      "subject": 309,
      "but": 310,
      "must": 311,
      "council": 312,
      "agent": 313,
      "without": 314,
      "shares": 315,
      "business": 316,
      "between": 317,
      "provisions": 318,
      "right": 319,
      "stock": 320,
      "see": 321,
      "person": 322,
      "also": 323,
      "those": 324,
      "act": 325,
      "notice": 326,
      "market": 327,
      "paragraph": 328,
      "required": 329,
      "there": 330,
      "whether": 331,
      "part": 332,
      "terms": 333,
      "securities": 334,
      "they": 335,
      "general": 336,
      "13": 337,
      "products": 338,
      "20": 339,
      "so": 340,
      "SS": 341,
      "15": 342,
      "where": 343,
      "payment": 344,
      "30": 345,
      "common": 346,
      "action": 347,
      "above": 348,
      "##eec": 349,
      "new": 350,
      "against": 351,
      "application": 352,
      "more": 353,
      "united": 354,
      "use": 355,
      "can": 356,
      "obligations": 357,
      "means": 358,
      "property": 359,
      "directive": 360,
      "having": 361,
      "00": 362,
      "effect": 363,
      "conditions": 364,
      "financial": 365,
      "account": 366,
      "prior": 367,
      "14": 368,
      "necessary": 369,
      "non": 370,
      "judgment": 371,
      "when": 372,
      "before": 373,
      "regard": 374,
      "thereof": 375,
      "same": 376,
      "event": 377,
      "otherwise": 378,
      "annex": 379,
      "national": 380,
      "oj": 381,
      "particular": 382,
      "##on": 383,
      "legal": 384,
      "referred": 385,
      "does": 386,
      "forth": 387,
      "claim": 388,
      "government": 389,
      "however": 390,
      "during": 391,
      "these": 392,
      "third": 393,
      "number": 394,
      "##es": 395,
      "amended": 396,
      "material": 397,
      "year": 398,
      "plan": 399,
      "whereas": 400,
      "tax": 401,
      "documents": 402,
      "union": 403,
      "16": 404,
      "price": 405,
      "de": 406,
      "used": 407,
      "public": 408,
      "rules": 409,
      "services": 410,
      "certain": 411,
      "measures": 412,
      "loan": 413,
      "day": 414,
      "31": 415,
      "17": 416,
      "proceedings": 417,
      "costs": 418,
      "except": 419,
      "therefore": 420,
      "basis": 421,
      "18": 422,
      "security": 423,
      "product": 424,
      "term": 425,
      "iii": 426,
      "purchase": 427,
      "two": 428,
      "bank": 429,
      "seller": 430,
      "convention": 431,
      "form": 432,
      "19": 433,
      "authority": 434,
      "further": 435,
      "written": 436,
      "days": 437,
      "contract": 438,
      "transfer": 439,
      "effective": 440,
      "21": 441,
      "25": 442,
      "who": 443,
      "relevant": 444,
      "connection": 445,
      "service": 446,
      "id": 447,
      "executive": 448,
      "rate": 449,
      "second": 450,
      "authorities": 451,
      "##able": 452,
      "value": 453,
      "provision": 454,
      "borrower": 455,
      "90": 456,
      "hereby": 457,
      "eur": 458,
      "up": 459,
      "evidence": 460,
      "question": 461,
      "provide": 462,
      "december": 463,
      "extent": 464,
      "do": 465,
      "due": 466,
      "given": 467,
      "make": 468,
      "corporation": 469,
      "claims": 470,
      "notes": 471,
      "being": 472,
      "code": 473,
      "termination": 474,
      "##th": 475,
      "down": 476,
      "exchange": 477,
      "22": 478,
      "credit": 479,
      "reasonable": 480,
      "could": 481,
      "fact": 482,
      "district": 483,
      "taken": 484,
      "request": 485,
      "trustee": 486,
      "based": 487,
      "limited": 488,
      "appropriate": 489,
      "pay": 490,
      "relating": 491,
      "procedure": 492,
      "paid": 493,
      "control": 494,
      "administrative": 495,
      "sale": 496,
      "related": 497,
      "24": 498,
      "note": 499,
      "take": 500,
      "eu": 501,
      "her": 502,
      "did": 503,
      "purposes": 504,
      "name": 505,
      "requirements": 506,
      "meaning": 507,
      "28": 508,
      "29": 509,
      "treaty": 510,
      "title": 511,
      "defined": 512,
      "statement": 513,
      "closing": 514,
      "board": 515,
      "23": 516,
      "assets": 517,
      "purchaser": 518,
      "result": 519,
      "aid": 520,
      "inc": 521,
      "federal": 522,
      "lender": 523,
      "official": 524,
      "rule": 525,
      "committee": 526,
      "01": 527,
      "opinion": 528,
      "system": 529,
      "present": 530,
      "herein": 531,
      "we": 532,
      "employee": 533,
      "laws": 534,
      "co": 535,
      "additional": 536,
      "available": 537,
      "reference": 538,
      "force": 539,
      "group": 540,
      "50": 541,
      "exercise": 542,
      "amendment": 543,
      "holder": 544,
      "held": 545,
      "certificate": 546,
      "##ies": 547,
      "liability": 548,
      "apply": 549,
      "issue": 550,
      "employment": 551,
      "because": 552,
      "mr": 553,
      "27": 554,
      "through": 555,
      "26": 556,
      "june": 557,
      "per": 558,
      "trust": 559,
      "concerned": 560,
      "issued": 561,
      "expenses": 562,
      "total": 563,
      "point": 564,
      "concerning": 565,
      "hereof": 566,
      "management": 567,
      "benefit": 568,
      "over": 569,
      "registration": 570,
      "received": 571,
      "hereunder": 572,
      "import": 573,
      "2006": 574,
      "entitled": 575,
      "full": 576,
      "##er": 577,
      "similar": 578,
      "performance": 579,
      "capital": 580,
      "change": 581,
      "consent": 582,
      "collateral": 583,
      "three": 584,
      "jurisdiction": 585,
      "data": 586,
      "follows": 587,
      "defendant": 588,
      "july": 589,
      "obligation": 590,
      "either": 591,
      "purpose": 592,
      "payments": 593,
      "report": 594,
      "plaintiff": 595,
      "deemed": 596,
      "less": 597,
      "until": 598,
      "specific": 599,
      "principal": 600,
      "adopted": 601,
      "cause": 602,
      "them": 603,
      "insurance": 604,
      "2007": 605,
      "both": 606,
      "default": 607,
      "agreements": 608,
      "january": 609,
      "schedule": 610,
      "2004": 611,
      "specified": 612,
      "100": 613,
      "granted": 614,
      "appeal": 615,
      "trade": 616,
      "share": 617,
      "delivered": 618,
      "transaction": 619,
      "circumstances": 620,
      "unless": 621,
      "hereto": 622,
      "according": 623,
      "march": 624,
      "reasonably": 625,
      "since": 626,
      "final": 627,
      "iv": 628,
      "special": 629,
      "work": 630,
      "view": 631,
      "established": 632,
      "considered": 633,
      "2002": 634,
      "support": 635,
      "economic": 636,
      "years": 637,
      "2005": 638,
      "own": 639,
      "buyer": 640,
      "2003": 641,
      "submitted": 642,
      "power": 643,
      "protection": 644,
      "development": 645,
      "amounts": 646,
      "october": 647,
      "office": 648,
      "cases": 649,
      "failure": 650,
      "document": 651,
      "persons": 652,
      "undertaking": 653,
      "2008": 654,
      "2009": 655,
      "directly": 656,
      "determined": 657,
      "##ity": 658,
      "partnership": 659,
      "delivery": 660,
      "counsel": 661,
      "02": 662,
      "policy": 663,
      "production": 664,
      "re": 665,
      "option": 666,
      "good": 667,
      "un": 668,
      "place": 669,
      "export": 670,
      "letter": 671,
      "approval": 672,
      "40": 673,
      "equal": 674,
      "exhibit": 675,
      "ex": 676,
      "free": 677,
      "filed": 678,
      "contained": 679,
      "level": 680,
      "breach": 681,
      "cir": 682,
      "violation": 683,
      "least": 684,
      "subsidiaries": 685,
      "fees": 686,
      "class": 687,
      "below": 688,
      "2001": 689,
      "ensure": 690,
      "matter": 691,
      "april": 692,
      "transactions": 693,
      "agrees": 694,
      "interests": 695,
      "nor": 696,
      "regulations": 697,
      "include": 698,
      "writing": 699,
      "him": 700,
      "series": 701,
      "permitted": 702,
      "mortgage": 703,
      "activities": 704,
      "well": 705,
      "owner": 706,
      "president": 707,
      "distribution": 708,
      "review": 709,
      "way": 710,
      "end": 711,
      "entity": 712,
      "november": 713,
      "officer": 714,
      "##en": 715,
      "last": 716,
      "cash": 717,
      "journal": 718,
      "st": 719,
      "months": 720,
      "investment": 721,
      "2000": 722,
      "treatment": 723,
      "investigation": 724,
      "constitute": 725,
      "project": 726,
      "articles": 727,
      "even": 728,
      "trial": 729,
      "republic": 730,
      "consideration": 731,
      "september": 732,
      "payable": 733,
      "subsidiary": 734,
      "described": 735,
      "process": 736,
      "goods": 737,
      "2013": 738,
      "compliance": 739,
      "applied": 740,
      "she": 741,
      "applicants": 742,
      "60": 743,
      "reason": 744,
      "executed": 745,
      "chapter": 746,
      "assessment": 747,
      "compensation": 748,
      "members": 749,
      "individual": 750,
      "1999": 751,
      "intended": 752,
      "agree": 753,
      "parliament": 754,
      "authorized": 755,
      "ct": 756,
      "##al": 757,
      "immediately": 758,
      "complaint": 759,
      "february": 760,
      "net": 761,
      "2010": 762,
      "stated": 763,
      "laid": 764,
      "found": 765,
      "outstanding": 766,
      "behalf": 767,
      "statements": 768,
      "en": 769,
      "duties": 770,
      "benefits": 771,
      "thereto": 772,
      "2011": 773,
      "35": 774,
      "addition": 775,
      "parent": 776,
      "dated": 777,
      "directors": 778,
      "countries": 779,
      "health": 780,
      "warrant": 781,
      "binding": 782,
      "provides": 783,
      "agency": 784,
      "address": 785,
      "said": 786,
      "requested": 787,
      "foregoing": 788,
      "another": 789,
      "domestic": 790,
      "competent": 791,
      "units": 792,
      "international": 793,
      "country": 794,
      "employees": 795,
      "incurred": 796,
      "criminal": 797,
      "possible": 798,
      "you": 799,
      "equity": 800,
      "income": 801,
      "about": 802,
      "risk": 803,
      "sales": 804,
      "some": 805,
      "receipt": 806,
      "limitation": 807,
      "access": 808,
      "thus": 809,
      "existing": 810,
      "position": 811,
      "manner": 812,
      "2012": 813,
      "proceeding": 814,
      "release": 815,
      "type": 816,
      "nature": 817,
      "conduct": 818,
      "mean": 819,
      "plaintiffs": 820,
      "operation": 821,
      "investor": 822,
      "funds": 823,
      "enter": 824,
      "##line": 825,
      "loss": 826,
      "condition": 827,
      "cost": 828,
      "confidential": 829,
      "direct": 830,
      "fund": 831,
      "alleged": 832,
      "taxes": 833,
      "05": 834,
      "entered": 835,
      "together": 836,
      "2014": 837,
      "duty": 838,
      "area": 839,
      "materials": 840,
      "respective": 841,
      "execution": 842,
      "aggregate": 843,
      "grant": 844,
      "contemplated": 845,
      "32": 846,
      "standard": 847,
      "registered": 848,
      "clause": 849,
      "portion": 850,
      "give": 851,
      "covered": 852,
      "reasons": 853,
      "damage": 854,
      "holders": 855,
      "original": 856,
      "joint": 857,
      "communities": 858,
      "establishing": 859,
      "##ation": 860,
      "arising": 861,
      "partner": 862,
      "become": 863,
      "##um": 864,
      "judge": 865,
      "##1": 866,
      "motion": 867,
      "producer": 868,
      "03": 869,
      "different": 870,
      "york": 871,
      "actions": 872,
      "table": 873,
      "deliver": 874,
      "33": 875,
      "return": 876,
      "equipment": 877,
      "agreed": 878,
      "record": 879,
      "merger": 880,
      "circuit": 881,
      "92": 882,
      "customs": 883,
      "llc": 884,
      "sufficient": 885,
      "hearing": 886,
      "capacity": 887,
      "internal": 888,
      "facts": 889,
      "##in": 890,
      "affiliates": 891,
      "loans": 892,
      "test": 893,
      "defendants": 894,
      "41": 895,
      "80": 896,
      "participant": 897,
      "page": 898,
      "45": 899,
      "representative": 900,
      "light": 901,
      "comply": 902,
      "duly": 903,
      "determination": 904,
      "##an": 905,
      "settlement": 906,
      "prices": 907,
      "award": 908,
      "39": 909,
      "36": 910,
      "notwithstanding": 911,
      "34": 912,
      "social": 913,
      "initial": 914,
      "long": 915,
      "list": 916,
      "91": 917,
      "companies": 918,
      "animal": 919,
      "procedures": 920,
      "director": 921,
      "99": 922,
      "month": 923,
      "85": 924,
      "42": 925,
      "kingdom": 926,
      "technical": 927,
      "officers": 928,
      "issuer": 929,
      "maximum": 930,
      "objective": 931,
      "indenture": 932,
      "waiver": 933,
      "while": 934,
      "receive": 935,
      "now": 936,
      "04": 937,
      "file": 938,
      "responsible": 939,
      "heading": 940,
      "certificates": 941,
      "bankruptcy": 942,
      "kg": 943,
      "need": 944,
      "whole": 945,
      "done": 946,
      "five": 947,
      "regarding": 948,
      "damages": 949,
      "included": 950,
      "93": 951,
      "contracts": 952,
      "vi": 953,
      "proposed": 954,
      "debt": 955,
      "annual": 956,
      "approved": 957,
      "local": 958,
      "assignment": 959,
      "require": 960,
      "pre": 961,
      "95": 962,
      "operations": 963,
      "balance": 964,
      "implementation": 965,
      "civil": 966,
      "among": 967,
      "principle": 968,
      "clear": 969,
      "expenditure": 970,
      "course": 971,
      "independent": 972,
      "##2": 973,
      "representations": 974,
      "fixed": 975,
      "detention": 976,
      "guarantor": 977,
      "situation": 978,
      "august": 979,
      "secured": 980,
      "unit": 981,
      "liabilities": 982,
      "later": 983,
      "37": 984,
      "listed": 985,
      "courts": 986,
      "cited": 987,
      "regards": 988,
      "reports": 989,
      "lease": 990,
      "taking": 991,
      "human": 992,
      "commercial": 993,
      "far": 994,
      "filing": 995,
      "sole": 996,
      "current": 997,
      "minimum": 998,
      "carried": 999,
      "matters": 1000,
      "94": 1001,
      "knowledge": 1002,
      "entry": 1003,
      "contrary": 1004,
      "staff": 1005,
      "restricted": 1006,
      "44": 1007,
      "measure": 1008,
      "advance": 1009,
      "supply": 1010,
      "conversion": 1011,
      "08": 1012,
      "obtained": 1013,
      "important": 1014,
      "accordingly": 1015,
      "competition": 1016,
      "making": 1017,
      "private": 1018,
      "disclosure": 1019,
      "1998": 1020,
      "guarantee": 1021,
      "instrument": 1022,
      "patent": 1023,
      "most": 1024,
      "determine": 1025,
      "high": 1026,
      "43": 1027,
      "contractor": 1028,
      "operating": 1029,
      "grounds": 1030,
      "sector": 1031,
      "manager": 1032,
      "75": 1033,
      "programme": 1034,
      "actual": 1035,
      "49": 1036,
      "ecr": 1037,
      "personal": 1038,
      "51": 1039,
      "governmental": 1040,
      "decisions": 1041,
      "limit": 1042,
      "38": 1043,
      "inter": 1044,
      "discretion": 1045,
      "revenue": 1046,
      "70": 1047,
      "48": 1048,
      "affect": 1049,
      "quality": 1050,
      "##ability": 1051,
      "instance": 1052,
      "legislation": 1053,
      "2015": 1054,
      "di": 1055,
      "owned": 1056,
      "96": 1057,
      "la": 1058,
      "dispute": 1059,
      "07": 1060,
      "added": 1061,
      "accounts": 1062,
      "sub": 1063,
      "scope": 1064,
      "therein": 1065,
      "medical": 1066,
      "what": 1067,
      "facility": 1068,
      "maintain": 1069,
      "affiliate": 1070,
      "real": 1071,
      "expressly": 1072,
      "neither": 1073,
      "87": 1074,
      "principles": 1075,
      "89": 1076,
      "1994": 1077,
      "already": 1078,
      "operator": 1079,
      "lien": 1080,
      "copy": 1081,
      "weight": 1082,
      "records": 1083,
      "justice": 1084,
      "meeting": 1085,
      "perform": 1086,
      "financing": 1087,
      "continue": 1088,
      "warranties": 1089,
      "single": 1090,
      "sentence": 1091,
      "itself": 1092,
      "foreign": 1093,
      "1997": 1094,
      "implementing": 1095,
      "failed": 1096,
      "fully": 1097,
      "tender": 1098,
      "1996": 1099,
      "46": 1100,
      "deposit": 1101,
      "association": 1102,
      "criteria": 1103,
      "industry": 1104,
      "million": 1105,
      "significant": 1106,
      "hand": 1107,
      "holding": 1108,
      "territory": 1109,
      "marketing": 1110,
      "life": 1111,
      "paragraphs": 1112,
      "conclusion": 1113,
      "increase": 1114,
      "offer": 1115,
      "land": 1116,
      "06": 1117,
      "points": 1118,
      "statute": 1119,
      "interpretation": 1120,
      "requirement": 1121,
      "senior": 1122,
      "59": 1123,
      "53": 1124,
      "brought": 1125,
      "remedies": 1126,
      "plant": 1127,
      "acquisition": 1128,
      "oil": 1129,
      "although": 1130,
      "se": 1131,
      "results": 1132,
      "52": 1133,
      "construction": 1134,
      "indebtedness": 1135,
      "charge": 1136,
      "acknowledge": 1137,
      "1995": 1138,
      "considers": 1139,
      "sum": 1140,
      "complete": 1141,
      "fee": 1142,
      "us": 1143,
      "55": 1144,
      "police": 1145,
      "imposed": 1146,
      "77": 1147,
      "city": 1148,
      "future": 1149,
      "obtain": 1150,
      "argument": 1151,
      "summary": 1152,
      "assistance": 1153,
      "1993": 1154,
      "preferred": 1155,
      "fair": 1156,
      "agents": 1157,
      "context": 1158,
      "promptly": 1159,
      "adverse": 1160,
      "##ic": 1161,
      "charges": 1162,
      "examination": 1163,
      "98": 1164,
      "sold": 1165,
      "regional": 1166,
      "1992": 1167,
      "terminate": 1168,
      "contested": 1169,
      "09": 1170,
      "2016": 1171,
      "escrow": 1172,
      "main": 1173,
      "88": 1174,
      "systems": 1175,
      "equivalent": 1176,
      "enforcement": 1177,
      "practice": 1178,
      "valid": 1179,
      "air": 1180,
      "##ry": 1181,
      "separate": 1182,
      "budget": 1183,
      "supplement": 1184,
      "56": 1185,
      "gas": 1186,
      "employer": 1187,
      "designated": 1188,
      "proceeds": 1189,
      "program": 1190,
      "97": 1191,
      "replaced": 1192,
      "transferred": 1193,
      "attorney": 1194,
      "47": 1195,
      "applications": 1196,
      "energy": 1197,
      "volume": 1198,
      "solely": 1199,
      "covenants": 1200,
      "transport": 1201,
      "contribution": 1202,
      "quota": 1203,
      "establish": 1204,
      "water": 1205,
      "put": 1206,
      "body": 1207,
      "servicer": 1208,
      "notified": 1209,
      "ownership": 1210,
      "signed": 1211,
      "exceed": 1212,
      "relation": 1213,
      "license": 1214,
      "corporate": 1215,
      "your": 1216,
      "refund": 1217,
      "safety": 1218,
      "might": 1219,
      "eligible": 1220,
      "germany": 1221,
      "demand": 1222,
      "issuance": 1223,
      "percentage": 1224,
      "acting": 1225,
      "environmental": 1226,
      "notify": 1227,
      "successor": 1228,
      "definition": 1229,
      "subsequent": 1230,
      "hold": 1231,
      "permit": 1232,
      "mark": 1233,
      "whose": 1234,
      "instruments": 1235,
      "arrangements": 1236,
      "65": 1237,
      "##russel": 1238,
      "warrants": 1239,
      "sell": 1240,
      "basic": 1241,
      "##or": 1242,
      "method": 1243,
      "84": 1244,
      "four": 1245,
      "assigned": 1246,
      "61": 1247,
      "description": 1248,
      "remedy": 1249,
      "attached": 1250,
      "regulatory": 1251,
      "reduction": 1252,
      "remain": 1253,
      "department": 1254,
      "cooperation": 1255,
      "tariff": 1256,
      "adjustment": 1257,
      "substance": 1258,
      "content": 1259,
      "using": 1260,
      "research": 1261,
      "consider": 1262,
      "judicial": 1263,
      "##us": 1264,
      "restrictions": 1265,
      "concluded": 1266,
      "base": 1267,
      "##ness": 1268,
      "administration": 1269,
      "faith": 1270,
      "expense": 1271,
      "500": 1272,
      "post": 1273,
      "framework": 1274,
      "acts": 1275,
      "representatives": 1276,
      "agricultural": 1277,
      "delaware": 1278,
      "publication": 1279,
      "specifically": 1280,
      "containing": 1281,
      "pending": 1282,
      "providing": 1283,
      "asset": 1284,
      "others": 1285,
      "scheme": 1286,
      "decided": 1287,
      "86": 1288,
      "79": 1289,
      "proposal": 1290,
      "54": 1291,
      "working": 1292,
      "81": 1293,
      "cover": 1294,
      "institution": 1295,
      "moreover": 1296,
      "signature": 1297,
      "several": 1298,
      "71": 1299,
      "ground": 1300,
      "1990": 1301,
      "policies": 1302,
      "##ce": 1303,
      "status": 1304,
      "substantially": 1305,
      "58": 1306,
      "giving": 1307,
      "licence": 1308,
      "generally": 1309,
      "six": 1310,
      "liable": 1311,
      "activity": 1312,
      "supreme": 1313,
      "text": 1314,
      "##is": 1315,
      "prospectus": 1316,
      "68": 1317,
      "resulting": 1318,
      "indicated": 1319,
      "accounting": 1320,
      "73": 1321,
      "relief": 1322,
      "57": 1323,
      "debtor": 1324,
      "involved": 1325,
      "central": 1326,
      "standards": 1327,
      "objection": 1328,
      "sent": 1329,
      "known": 1330,
      "kind": 1331,
      "represented": 1332,
      "suit": 1333,
      "indemnified": 1334,
      "france": 1335,
      "jury": 1336,
      "voting": 1337,
      "various": 1338,
      "average": 1339,
      "areas": 1340,
      "properties": 1341,
      "62": 1342,
      "vehicle": 1343,
      "1991": 1344,
      "absence": 1345,
      "##ment": 1346,
      "appropriations": 1347,
      "83": 1348,
      "protocol": 1349,
      "efforts": 1350,
      "caused": 1351,
      "notification": 1352,
      "SSSS": 1353,
      "infringement": 1354,
      "analysis": 1355,
      "target": 1356,
      "my": 1357,
      "audit": 1358,
      "excess": 1359,
      "food": 1360,
      "subparagraph": 1361,
      "meet": 1362,
      "example": 1363,
      "money": 1364,
      "institutions": 1365,
      "preliminary": 1366,
      "correct": 1367,
      "78": 1368,
      "detailed": 1369,
      "lenders": 1370,
      "82": 1371,
      "defense": 1372,
      "existence": 1373,
      "resolution": 1374,
      "majority": 1375,
      "amending": 1376,
      "true": 1377,
      "changes": 1378,
      "requires": 1379,
      "exceeding": 1380,
      "resources": 1381,
      "exclusive": 1382,
      "##ne": 1383,
      "processing": 1384,
      "outside": 1385,
      "##to": 1386,
      "expected": 1387,
      "reserve": 1388,
      "relationship": 1389,
      "customer": 1390,
      "69": 1391,
      "ltd": 1392,
      "very": 1393,
      "electronic": 1394,
      "anti": 1395,
      "omitted": 1396,
      "losses": 1397,
      "former": 1398,
      "submit": 1399,
      "72": 1400,
      "origin": 1401,
      "occurred": 1402,
      "prevent": 1403,
      "hereinafter": 1404,
      "acquired": 1405,
      "governing": 1406,
      "milk": 1407,
      "finding": 1408,
      "appeals": 1409,
      "network": 1410,
      "mentioned": 1411,
      "language": 1412,
      "commitments": 1413,
      "construed": 1414,
      "natural": 1415,
      "field": 1416,
      "offering": 1417,
      "finance": 1418,
      "indirectly": 1419,
      "vii": 1420,
      "appellant": 1421,
      "exemption": 1422,
      "affected": 1423,
      "ordinary": 1424,
      "every": 1425,
      "amendments": 1426,
      "entirety": 1427,
      "accepted": 1428,
      "calculated": 1429,
      "claimed": 1430,
      "66": 1431,
      "best": 1432,
      "63": 1433,
      "arbitration": 1434,
      "earlier": 1435,
      "substantial": 1436,
      "family": 1437,
      "here": 1438,
      "76": 1439,
      "plus": 1440,
      "french": 1441,
      "manufacture": 1442,
      "indemnification": 1443,
      "declaration": 1444,
      "organization": 1445,
      "exclud": 1446,
      "plans": 1447,
      "normal": 1448,
      "64": 1449,
      "administrator": 1450,
      "allow": 1451,
      "preceding": 1452,
      "modified": 1453,
      "terminated": 1454,
      "determining": 1455,
      "67": 1456,
      "trading": 1457,
      "entire": 1458,
      "how": 1459,
      "originat": 1460,
      "calendar": 1461,
      "collectively": 1462,
      "denied": 1463,
      "1989": 1464,
      "1986": 1465,
      "death": 1466,
      "participation": 1467,
      "noted": 1468,
      "notices": 1469,
      "possession": 1470,
      "estate": 1471,
      "markets": 1472,
      "delay": 1473,
      "1988": 1474,
      "performed": 1475,
      "maintenance": 1476,
      "difference": 1477,
      "mail": 1478,
      "technology": 1479,
      "witness": 1480,
      "pro": 1481,
      "powers": 1482,
      "parts": 1483,
      "county": 1484,
      "##ion": 1485,
      "like": 1486,
      "2017": 1487,
      "licensed": 1488,
      "furthermore": 1489,
      "shareholders": 1490,
      "questions": 1491,
      "bound": 1492,
      "declared": 1493,
      "quantities": 1494,
      "care": 1495,
      "communication": 1496,
      "petition": 1497,
      "potential": 1498,
      "entities": 1499,
      "##est": 1500,
      "validity": 1501,
      "informed": 1502,
      "items": 1503,
      "category": 1504,
      "open": 1505,
      "global": 1506,
      "thereafter": 1507,
      "sugar": 1508,
      "chief": 1509,
      "master": 1510,
      "remaining": 1511,
      "actually": 1512,
      "paper": 1513,
      "produced": 1514,
      "constitutional": 1515,
      "leave": 1516,
      "##co": 1517,
      "carry": 1518,
      "qualified": 1519,
      "organisation": 1520,
      "authorization": 1521,
      "##man": 1522,
      "partners": 1523,
      "limits": 1524,
      "74": 1525,
      "quantity": 1526,
      "calculation": 1527,
      "clearly": 1528,
      "##as": 1529,
      "training": 1530,
      "ruling": 1531,
      "reduced": 1532,
      "election": 1533,
      "events": 1534,
      "lex": 1535,
      "purchased": 1536,
      "conducted": 1537,
      "commitment": 1538,
      "constitutes": 1539,
      "issues": 1540,
      "identified": 1541,
      "preparation": 1542,
      "premises": 1543,
      "collection": 1544,
      "consistent": 1545,
      "lodged": 1546,
      "manufacturer": 1547,
      "redemption": 1548,
      "proper": 1549,
      "responsibility": 1550,
      "facilities": 1551,
      "length": 1552,
      "item": 1553,
      "holdings": 1554,
      "representation": 1555,
      "ten": 1556,
      "sections": 1557,
      "previous": 1558,
      "laying": 1559,
      "addressed": 1560,
      "me": 1561,
      "successors": 1562,
      "injury": 1563,
      "presented": 1564,
      "gross": 1565,
      "standing": 1566,
      "fourth": 1567,
      "still": 1568,
      "nothing": 1569,
      "##3": 1570,
      "previously": 1571,
      "1987": 1572,
      "execute": 1573,
      "euro": 1574,
      "beneficiary": 1575,
      "impact": 1576,
      "1983": 1577,
      "netherlands": 1578,
      "longer": 1579,
      "prosecutor": 1580,
      "fiscal": 1581,
      "shown": 1582,
      "published": 1583,
      "liens": 1584,
      "applies": 1585,
      "200": 1586,
      "assigns": 1587,
      "opportunity": 1588,
      "maintained": 1589,
      "our": 1590,
      "lack": 1591,
      "pension": 1592,
      "employed": 1593,
      "active": 1594,
      "next": 1595,
      "show": 1596,
      "discharge": 1597,
      "response": 1598,
      "accept": 1599,
      "german": 1600,
      "findings": 1601,
      "corresponding": 1602,
      "mm": 1603,
      "options": 1604,
      "back": 1605,
      "waste": 1606,
      "contain": 1607,
      "fishing": 1608,
      "consolidated": 1609,
      "corp": 1610,
      "shareholder": 1611,
      "prepared": 1612,
      "forward": 1613,
      "combination": 1614,
      "associated": 1615,
      "occurrence": 1616,
      "copies": 1617,
      "express": 1618,
      "intellectual": 1619,
      "ms": 1620,
      "fundamental": 1621,
      "allowed": 1622,
      "alternative": 1623,
      "met": 1624,
      "rather": 1625,
      "attention": 1626,
      "establishment": 1627,
      "dollar": 1628,
      "dismissed": 1629,
      "conflict": 1630,
      "west": 1631,
      "rates": 1632,
      "italian": 1633,
      "secretary": 1634,
      "satisfaction": 1635,
      "customers": 1636,
      "sought": 1637,
      "instructions": 1638,
      "sheet": 1639,
      "called": 1640,
      "litigation": 1641,
      "stockholder": 1642,
      "adopt": 1643,
      "register": 1644,
      "car": 1645,
      "incorporated": 1646,
      "substances": 1647,
      "contributions": 1648,
      "satisfied": 1649,
      "design": 1650,
      "guidelines": 1651,
      "beneficial": 1652,
      "rejected": 1653,
      "completion": 1654,
      "expiration": 1655,
      "##le": 1656,
      "italy": 1657,
      "1985": 1658,
      "##land": 1659,
      "funding": 1660,
      "offered": 1661,
      "##ers": 1662,
      "eea": 1663,
      "decree": 1664,
      "vehicles": 1665,
      "completed": 1666,
      "adequate": 1667,
      "##ary": 1668,
      "discrimination": 1669,
      "charged": 1670,
      "examined": 1671,
      "read": 1672,
      "latter": 1673,
      "factors": 1674,
      "error": 1675,
      "includes": 1676,
      "ordered": 1677,
      "prejudice": 1678,
      "extended": 1679,
      "partial": 1680,
      "reporting": 1681,
      "expressed": 1682,
      "proof": 1683,
      "serious": 1684,
      "firm": 1685,
      "close": 1686,
      "cross": 1687,
      "rise": 1688,
      "arguments": 1689,
      "located": 1690,
      "authorisation": 1691,
      "effects": 1692,
      "arrangement": 1693,
      "structure": 1694,
      "words": 1695,
      "none": 1696,
      "1980": 1697,
      "fruit": 1698,
      "primary": 1699,
      "finally": 1700,
      "statutory": 1701,
      "home": 1702,
      "increased": 1703,
      "dr": 1704,
      "hours": 1705,
      "greate": 1706,
      "intervention": 1707,
      "enable": 1708,
      "priority": 1709,
      "treated": 1710,
      "tenant": 1711,
      "steel": 1712,
      "chamber": 1713,
      "profit": 1714,
      "periods": 1715,
      "judges": 1716,
      "reimbursement": 1717,
      "monitoring": 1718,
      "licensee": 1719,
      "##orage": 1720,
      "dumping": 1721,
      "extension": 1722,
      "finds": 1723,
      "thereby": 1724,
      "allocation": 1725,
      "continuing": 1726,
      "world": 1727,
      "avis": 1728,
      "times": 1729,
      "orders": 1730,
      "governed": 1731,
      "species": 1732,
      "designed": 1733,
      "head": 1734,
      "specification": 1735,
      "turn": 1736,
      "juridique": 1737,
      "consult": 1738,
      "short": 1739,
      "workers": 1740,
      "tr": 1741,
      "al": 1742,
      "testimony": 1743,
      "oral": 1744,
      "represents": 1745,
      "road": 1746,
      "indemnitee": 1747,
      "practices": 1748,
      "likely": 1749,
      "particularly": 1750,
      "1984": 1751,
      "committed": 1752,
      "acceptance": 1753,
      "essential": 1754,
      "1981": 1755,
      "freedom": 1756,
      "spain": 1757,
      "properly": 1758,
      "appointed": 1759,
      "america": 1760,
      "lead": 1761,
      "recovery": 1762,
      "appears": 1763,
      "forms": 1764,
      "controlled": 1765,
      "coverage": 1766,
      "currency": 1767,
      "counterparts": 1768,
      "bear": 1769,
      "servicing": 1770,
      "vice": 1771,
      "supp": 1772,
      "allocated": 1773,
      "regarded": 1774,
      "ill": 1775,
      "1982": 1776,
      "##reunder": 1777,
      "thirty": 1778,
      "limitations": 1779,
      "draft": 1780,
      "methods": 1781,
      "consequently": 1782,
      "temporary": 1783,
      "whom": 1784,
      "argued": 1785,
      "sec": 1786,
      "protected": 1787,
      "facsimile": 1788,
      "took": 1789,
      "satisfy": 1790,
      "just": 1791,
      "pecuniary": 1792,
      "identification": 1793,
      "large": 1794,
      "continued": 1795,
      "percent": 1796,
      "##ally": 1797,
      "communications": 1798,
      "applying": 1799,
      "find": 1800,
      "building": 1801,
      "version": 1802,
      "wine": 1803,
      "answer": 1804,
      "region": 1805,
      "assign": 1806,
      "satisfactory": 1807,
      "people": 1808,
      "selling": 1809,
      "raised": 1810,
      "examine": 1811,
      "lower": 1812,
      "appendix": 1813,
      "possibility": 1814,
      "contracting": 1815,
      "age": 1816,
      "separately": 1817,
      "petitioner": 1818,
      "quarter": 1819,
      "bodies": 1820,
      "chemical": 1821,
      "refer": 1822,
      "merits": 1823,
      "am": 1824,
      "adoption": 1825,
      "mutual": 1826,
      "becomes": 1827,
      "modification": 1828,
      "inspection": 1829,
      "user": 1830,
      "once": 1831,
      "range": 1832,
      "accrued": 1833,
      "environment": 1834,
      "higher": 1835,
      "amend": 1836,
      "authorised": 1837,
      "europe": 1838,
      "protect": 1839,
      "complaints": 1840,
      "depositor": 1841,
      "call": 1842,
      "receiving": 1843,
      "monthly": 1844,
      "combined": 1845,
      "restated": 1846,
      "officials": 1847,
      "granting": 1848,
      "small": 1849,
      "retirement": 1850,
      "1979": 1851,
      "north": 1852,
      "certified": 1853,
      "creditors": 1854,
      "letters": 1855,
      "vote": 1856,
      "low": 1857,
      "inform": 1858,
      "avoid": 1859,
      "division": 1860,
      "stockholders": 1861,
      "acquire": 1862,
      "confirmed": 1863,
      "electric": 1864,
      "physical": 1865,
      "doubt": 1866,
      "requests": 1867,
      "appear": 1868,
      "placed": 1869,
      "intent": 1870,
      "com": 1871,
      "art": 1872,
      "street": 1873,
      "burden": 1874,
      "programmes": 1875,
      "check": 1876,
      "elements": 1877,
      "disclosed": 1878,
      "consumpti": 1879,
      "advisor": 1880,
      "excluded": 1881,
      "professional": 1882,
      "attorneys": 1883,
      "currently": 1884,
      "documentation": 1885,
      "beyond": 1886,
      "exception": 1887,
      "child": 1888,
      "released": 1889,
      "warranty": 1890,
      "guaranteed": 1891,
      "observations": 1892,
      "soon": 1893,
      "##ourg": 1894,
      "prison": 1895,
      "south": 1896,
      "political": 1897,
      "anything": 1898,
      "adjusted": 1899,
      "investments": 1900,
      "meat": 1901,
      "grantor": 1902,
      "designation": 1903,
      "distribute": 1904,
      "reported": 1905,
      "vessels": 1906,
      "makes": 1907,
      "subsequently": 1908,
      "expert": 1909,
      "man": 1910,
      "concentration": 1911,
      "location": 1912,
      "respectively": 1913,
      "definitions": 1914,
      "create": 1915,
      "removal": 1916,
      "though": 1917,
      "involving": 1918,
      "contact": 1919,
      "created": 1920,
      "books": 1921,
      "paying": 1922,
      "plea": 1923,
      "transmission": 1924,
      "stage": 1925,
      "premium": 1926,
      "submission": 1927,
      "transferee": 1928,
      "fifth": 1929,
      "aware": 1930,
      "holds": 1931,
      "margin": 1932,
      "appointment": 1933,
      "site": 1934,
      "affecting": 1935,
      "past": 1936,
      "etc": 1937,
      "enforceable": 1938,
      "residence": 1939,
      "evaluation": 1940,
      "values": 1941,
      "fresh": 1942,
      "regular": 1943,
      "maturity": 1944,
      "alia": 1945,
      "setting": 1946,
      "luxemb": 1947,
      "justified": 1948,
      "industrial": 1949,
      "interpreted": 1950,
      "yet": 1951,
      "qualification": 1952,
      "acid": 1953,
      "fed": 1954,
      "model": 1955,
      "left": 1956,
      "disposition": 1957,
      "incentive": 1958,
      "source": 1959,
      "enforce": 1960,
      "procedural": 1961,
      "ma": 1962,
      "replacement": 1963,
      "size": 1964,
      "drawn": 1965,
      "liquidation": 1966,
      "lay": 1967,
      "seek": 1968,
      "judgments": 1969,
      "many": 1970,
      "indication": 1971,
      "approach": 1972,
      "101": 1973,
      "overall": 1974,
      "illegal": 1975,
      "issuing": 1976,
      "indirect": 1977,
      "pledge": 1978,
      "bring": 1979,
      "confidentiality": 1980,
      "guaranty": 1981,
      "##ve": 1982,
      "provisional": 1983,
      "##tonnes": 1984,
      "american": 1985,
      "recipient": 1986,
      "deg": 1987,
      "decide": 1988,
      "participate": 1989,
      "##ate": 1990,
      "beginning": 1991,
      "respondent": 1992,
      "disability": 1993,
      "feed": 1994,
      "military": 1995,
      "know": 1996,
      "2018": 1997,
      "indemnifying": 1998,
      "covenant": 1999,
      "classification": 2000,
      "merely": 2001,
      "accession": 2002,
      "prohibited": 2003,
      "aircraft": 2004,
      "levels": 2005,
      "functioning": 2006,
      "sellers": 2007,
      "occur": 2008,
      "favor": 2009,
      "competitive": 2010,
      "vegetable": 2011,
      "early": 2012,
      "##ure": 2013,
      "viii": 2014,
      "california": 2015,
      "assumption": 2016,
      "asked": 2017,
      "complained": 2018,
      "du": 2019,
      "managing": 2020,
      "ireland": 2021,
      "relied": 2022,
      "marks": 2023,
      "capable": 2024,
      "factor": 2025,
      "echr": 2026,
      "par": 2027,
      "belgium": 2028,
      "##ecu": 2029,
      "degree": 2030,
      "exercised": 2031,
      "consummation": 2032,
      "timely": 2033,
      "external": 2034,
      "rating": 2035,
      "300": 2036,
      "centre": 2037,
      "patents": 2038,
      "duration": 2039,
      "supplier": 2040,
      "seeking": 2041,
      "argues": 2042,
      "refusal": 2043,
      "concerns": 2044,
      "interim": 2045,
      "vessel": 2046,
      "120": 2047,
      "fails": 2048,
      "keep": 2049,
      "individually": 2050,
      "reorganization": 2051,
      "personnel": 2052,
      "ability": 2053,
      "recorded": 2054,
      "imported": 2055,
      "recital": 2056,
      "fi": 2057,
      "acceptable": 2058,
      "reduce": 2059,
      "software": 2060,
      "bar": 2061,
      "dealer": 2062,
      "characteristics": 2063,
      "approximately": 2064,
      "metal": 2065,
      "children": 2066,
      "fraud": 2067,
      "falling": 2068,
      "subsection": 2069,
      "individuals": 2070,
      "unpaid": 2071,
      "reply": 2072,
      "meetings": 2073,
      "representing": 2074,
      "operate": 2075,
      "namely": 2076,
      "conformity": 2077,
      "consumer": 2078,
      "calls": 2079,
      "fixing": 2080,
      "never": 2081,
      "references": 2082,
      "convertible": 2083,
      "uk": 2084,
      "types": 2085,
      "exist": 2086,
      "insolvency": 2087,
      "taxable": 2088,
      "english": 2089,
      "undersigned": 2090,
      "agencies": 2091,
      "movement": 2092,
      "unlawful": 2093,
      "##ley": 2094,
      "character": 2095,
      "again": 2096,
      "disclose": 2097,
      "liquid": 2098,
      "assignee": 2099,
      "##over": 2100,
      "comments": 2101,
      "restriction": 2102,
      "adjustments": 2103,
      "engaged": 2104,
      "elect": 2105,
      "telephone": 2106,
      "go": 2107,
      "consents": 2108,
      "van": 2109,
      "major": 2110,
      "treasury": 2111,
      "bill": 2112,
      "##gen": 2113,
      "invoice": 2114,
      "selected": 2115,
      "exposure": 2116,
      "separation": 2117,
      "classified": 2118,
      "respects": 2119,
      "role": 2120,
      "ca": 2121,
      "certification": 2122,
      "works": 2123,
      "risks": 2124,
      "equitable": 2125,
      "provider": 2126,
      "contains": 2127,
      "affairs": 2128,
      "key": 2129,
      "guarantees": 2130,
      "hereafter": 2131,
      "russia": 2132,
      "1977": 2133,
      "consolidation": 2134,
      "registrar": 2135,
      "secure": 2136,
      "scientific": 2137,
      "##4": 2138,
      "bio": 2139,
      "arise": 2140,
      "definitive": 2141,
      "1978": 2142,
      "contractual": 2143,
      "indeed": 2144,
      "threatened": 2145,
      "materially": 2146,
      "indicate": 2147,
      "allegations": 2148,
      "themselves": 2149,
      "suffered": 2150,
      "invalid": 2151,
      "effectiveness": 2152,
      "app": 2153,
      "edition": 2154,
      "landlord": 2155,
      "##ide": 2156,
      "withholding": 2157,
      "waived": 2158,
      "unable": 2159,
      "checks": 2160,
      "concern": 2161,
      "na": 2162,
      "prescribed": 2163,
      "##atom": 2164,
      "withdrawal": 2165,
      "fr": 2166,
      "participating": 2167,
      "venture": 2168,
      "indemnify": 2169,
      "extend": 2170,
      "complied": 2171,
      "##ium": 2172,
      "derogation": 2173,
      "restructuring": 2174,
      "observed": 2175,
      "whatsoever": 2176,
      "categories": 2177,
      "fine": 2178,
      "defence": 2179,
      "compound": 2180,
      "##ol": 2181,
      "permits": 2182,
      "sea": 2183,
      "repurchase": 2184,
      "education": 2185,
      "multi": 2186,
      "lawyer": 2187,
      "turkey": 2188,
      "underlying": 2189,
      "inadmissible": 2190,
      "legislative": 2191,
      "permanent": 2192,
      "negative": 2193,
      "details": 2194,
      "supplied": 2195,
      "experience": 2196,
      "house": 2197,
      "manufacturing": 2198,
      "say": 2199,
      "hundred": 2200,
      "##ty": 2201,
      "##ec": 2202,
      "engine": 2203,
      "ratio": 2204,
      "regions": 2205,
      "104": 2206,
      "vested": 2207,
      "negligence": 2208,
      "assumed": 2209,
      "emission": 2210,
      "formal": 2211,
      "self": 2212,
      "lessee": 2213,
      "assume": 2214,
      "groups": 2215,
      "creditor": 2216,
      "conviction": 2217,
      "hospital": 2218,
      "deed": 2219,
      "106": 2220,
      "needs": 2221,
      "sixth": 2222,
      "great": 2223,
      "dividend": 2224,
      "awarded": 2225,
      "steps": 2226,
      "furnished": 2227,
      "packag": 2228,
      "witnesses": 2229,
      "sample": 2230,
      "memorandum": 2231,
      "##pp": 2232,
      "bond": 2233,
      "103": 2234,
      "xm": 2235,
      "defend": 2236,
      "advantage": 2237,
      "factual": 2238,
      "operational": 2239,
      "aim": 2240,
      "bonus": 2241,
      "uniform": 2242,
      "recent": 2243,
      "revolving": 2244,
      "409": 2245,
      "##no": 2246,
      "thereon": 2247,
      "regardless": 2248,
      "intention": 2249,
      "importance": 2250,
      "travel": 2251,
      "phase": 2252,
      "twenty": 2253,
      "san": 2254,
      "recognized": 2255,
      "consist": 2256,
      "labor": 2257,
      "jointly": 2258,
      "brief": 2259,
      "fall": 2260,
      "russian": 2261,
      "nevertheless": 2262,
      "grantee": 2263,
      "poland": 2264,
      "erisa": 2265,
      "choice": 2266,
      "compatible": 2267,
      "developed": 2268,
      "follow": 2269,
      "progress": 2270,
      "salary": 2271,
      "##at": 2272,
      "150": 2273,
      "testing": 2274,
      "seed": 2275,
      "china": 2276,
      "represent": 2277,
      "via": 2278,
      "obligor": 2279,
      "remainder": 2280,
      "estimated": 2281,
      "carrier": 2282,
      "conclude": 2283,
      "recitals": 2284,
      "function": 2285,
      "gc": 2286,
      "abuse": 2287,
      "indemnity": 2288,
      "station": 2289,
      "placement": 2290,
      "substitute": 2291,
      "controls": 2292,
      "levy": 2293,
      "acknowledged": 2294,
      "interference": 2295,
      "directed": 2296,
      "receivables": 2297,
      "components": 2298,
      "occurs": 2299,
      "cooperate": 2300,
      "book": 2301,
      "names": 2302,
      "white": 2303,
      "##ur": 2304,
      "fuel": 2305,
      "crime": 2306,
      "port": 2307,
      "assessed": 2308,
      "tribunal": 2309,
      "dismiss": 2310,
      "##0": 2311,
      "presence": 2312,
      "fish": 2313,
      "conclusions": 2314,
      "understood": 2315,
      "cereal": 2316,
      "direction": 2317,
      "reached": 2318,
      "suspension": 2319,
      "repair": 2320,
      "throughout": 2321,
      "consultant": 2322,
      "prohibition": 2323,
      "pa": 2324,
      "carrying": 2325,
      "come": 2326,
      "consequences": 2327,
      "prosecution": 2328,
      "refused": 2329,
      "bearing": 2330,
      "pressure": 2331,
      "legitimate": 2332,
      "supplemental": 2333,
      "space": 2334,
      "admissible": 2335,
      "side": 2336,
      "followed": 2337,
      "##deg": 2338,
      "penalt": 2339,
      "omission": 2340,
      "john": 2341,
      "##age": 2342,
      "arrest": 2343,
      "fax": 2344,
      "remains": 2345,
      "rent": 2346,
      "surrender": 2347,
      "texas": 2348,
      "##re": 2349,
      "claimant": 2350,
      "assess": 2351,
      "repayment": 2352,
      "congress": 2353,
      "severance": 2354,
      "absolute": 2355,
      "el": 2356,
      "rely": 2357,
      "legally": 2358,
      "tests": 2359,
      "##isation": 2360,
      "licenses": 2361,
      "vat": 2362,
      "covering": 2363,
      "250": 2364,
      "withheld": 2365,
      "discussion": 2366,
      "105": 2367,
      "remarks": 2368,
      "ip": 2369,
      "##ine": 2370,
      "textile": 2371,
      "adversely": 2372,
      "sign": 2373,
      "##ny": 2374,
      "##0100": 2375,
      "recommendation": 2376,
      "102": 2377,
      "advocate": 2378,
      "1976": 2379,
      "expiry": 2380,
      "competitor": 2381,
      "banks": 2382,
      "del": 2383,
      "virtue": 2384,
      "contribute": 2385,
      "1975": 2386,
      "##ized": 2387,
      "instead": 2388,
      "reflect": 2389,
      "motor": 2390,
      "seven": 2391,
      "society": 2392,
      "step": 2393,
      "produce": 2394,
      "supplemented": 2395,
      "400": 2396,
      "implement": 2397,
      "proportion": 2398,
      "negotiations": 2399,
      "fat": 2400,
      "delegate": 2401,
      "distributions": 2402,
      "grow": 2403,
      "wholly": 2404,
      "confirmation": 2405,
      "retain": 2406,
      "submissions": 2407,
      "penalty": 2408,
      "airport": 2409,
      "refers": 2410,
      "injunction": 2411,
      "object": 2412,
      "subscription": 2413,
      "cell": 2414,
      "obtaining": 2415,
      "void": 2416,
      "gain": 2417,
      "mass": 2418,
      "showing": 2419,
      "beneficiaries": 2420,
      "contends": 2421,
      "wire": 2422,
      "sufficiently": 2423,
      "requiring": 2424,
      "110": 2425,
      "transfers": 2426,
      "comparable": 2427,
      "leases": 2428,
      "takes": 2429,
      "##responsibilities": 2430,
      "exists": 2431,
      "converted": 2432,
      "serve": 2433,
      "relate": 2434,
      "prepayment": 2435,
      "awards": 2436,
      "importer": 2437,
      "owners": 2438,
      "installation": 2439,
      "fulfil": 2440,
      "admissibility": 2441,
      "pointed": 2442,
      "recover": 2443,
      "greece": 2444,
      "ministry": 2445,
      "disposal": 2446,
      "scheduled": 2447,
      "relates": 2448,
      "custodian": 2449,
      "##7": 2450,
      "figures": 2451,
      "introduced": 2452,
      "destination": 2453,
      "austria": 2454,
      "dividends": 2455,
      "subordinated": 2456,
      "retained": 2457,
      "retail": 2458,
      "cut": 2459,
      "zone": 2460,
      "practicable": 2461,
      "search": 2462,
      "vesting": 2463,
      "favour": 2464,
      "stating": 2465,
      "understanding": 2466,
      "copyright": 2467,
      "needed": 2468,
      "whereof": 2469,
      "grants": 2470,
      "144": 2471,
      "flow": 2472,
      "served": 2473,
      "##ar": 2474,
      "opening": 2475,
      "incorporation": 2476,
      "school": 2477,
      "verification": 2478,
      "poly": 2479,
      "survive": 2480,
      "count": 2481,
      "therefor": 2482,
      "supporting": 2483,
      "encumbrance": 2484,
      "registrable": 2485,
      "fire": 2486,
      "client": 2487,
      "violate": 2488,
      "commercially": 2489,
      "alone": 2490,
      "unenforceable": 2491,
      "ukraine": 2492,
      "along": 2493,
      "explained": 2494,
      "run": 2495,
      "portuga": 2496,
      "infrastructure": 2497,
      "insured": 2498,
      "broad": 2499,
      "introduction": 2500,
      "commencement": 2501,
      "des": 2502,
      "thousand": 2503,
      "##ca": 2504,
      "live": 2505,
      "creation": 2506,
      "drug": 2507,
      "facilitate": 2508,
      "##der": 2509,
      "irrevocably": 2510,
      "considerations": 2511,
      "half": 2512,
      "accompanied": 2513,
      "custody": 2514,
      "relative": 2515,
      "devices": 2516,
      "problems": 2517,
      "107": 2518,
      "coal": 2519,
      "excessive": 2520,
      "old": 2521,
      "testified": 2522,
      "border": 2523,
      "proprietary": 2524,
      "commerce": 2525,
      "estimate": 2526,
      "automatically": 2527,
      "obligated": 2528,
      "contingent": 2529,
      "element": 2530,
      "125": 2531,
      "improvements": 2532,
      "challenge": 2533,
      "implemented": 2534,
      "face": 2535,
      "supported": 2536,
      "pledged": 2537,
      "monetary": 2538,
      "disease": 2539,
      "positive": 2540,
      "selection": 2541,
      "lawful": 2542,
      "towards": 2543,
      "women": 2544,
      "harmless": 2545,
      "offence": 2546,
      "clauses": 2547,
      "study": 2548,
      "stay": 2549,
      "spanish": 2550,
      "device": 2551,
      "optionee": 2552,
      "sponsor": 2553,
      "wide": 2554,
      "voluntary": 2555,
      "112": 2556,
      "supervision": 2557,
      "assuming": 2558,
      "supra": 2559,
      "pledgor": 2560,
      "footnote": 2561,
      "component": 2562,
      "immediate": 2563,
      "waters": 2564,
      "island": 2565,
      "exclusively": 2566,
      "##5": 2567,
      "column": 2568,
      "cr": 2569,
      "functions": 2570,
      "structural": 2571,
      "men": 2572,
      "ending": 2573,
      "achieve": 2574,
      "necessarily": 2575,
      "depositary": 2576,
      "removed": 2577,
      "much": 2578,
      "appoint": 2579,
      "advice": 2580,
      "violations": 2581,
      "radio": 2582,
      "cease": 2583,
      "raw": 2584,
      "develop": 2585,
      "recognition": 2586,
      "prove": 2587,
      "draw": 2588,
      "##ous": 2589,
      "conform": 2590,
      "returned": 2591,
      "strong": 2592,
      "participants": 2593,
      "insurer": 2594,
      "east": 2595,
      "disputes": 2596,
      "drawing": 2597,
      "desire": 2598,
      "renewal": 2599,
      "identify": 2600,
      "ml": 2601,
      "da": 2602,
      "validly": 2603,
      "experts": 2604,
      "1933": 2605,
      "profits": 2606,
      "precedent": 2607,
      "computer": 2608,
      "transferor": 2609,
      "sp": 2610,
      "ix": 2611,
      "authorize": 2612,
      "inquiry": 2613,
      "lending": 2614,
      "named": 2615,
      "furnish": 2616,
      "proceed": 2617,
      "dec": 2618,
      "consisting": 2619,
      "clinical": 2620,
      "asserted": 2621,
      "receivable": 2622,
      "113": 2623,
      "settled": 2624,
      "modify": 2625,
      "measurement": 2626,
      "decrease": 2627,
      "108": 2628,
      "gave": 2629,
      "floor": 2630,
      "attributable": 2631,
      "discount": 2632,
      "banking": 2633,
      "interested": 2634,
      "observes": 2635,
      "justify": 2636,
      "green": 2637,
      "bonds": 2638,
      "tri": 2639,
      "mo": 2640,
      "simply": 2641,
      "despite": 2642,
      "trans": 2643,
      "media": 2644,
      "surface": 2645,
      "link": 2646,
      "initiative": 2647,
      "allowance": 2648,
      "mandatory": 2649,
      "waives": 2650,
      "ensuring": 2651,
      "constitution": 2652,
      "detail": 2653,
      "fisheries": 2654,
      "cancellation": 2655,
      "heat": 2656,
      "effected": 2657,
      "supplies": 2658,
      "waive": 2659,
      "enforceability": 2660,
      "insufficient": 2661,
      "royalty": 2662,
      "liberty": 2663,
      "reliance": 2664,
      "box": 2665,
      "implied": 2666,
      "owing": 2667,
      "annulment": 2668,
      "charter": 2669,
      "undertake": 2670,
      "processe": 2671,
      "promotion": 2672,
      "lines": 2673,
      "identity": 2674,
      "promote": 2675,
      "distributor": 2676,
      "founded": 2677,
      "grand": 2678,
      "arbitrator": 2679,
      "admitted": 2680,
      "controlling": 2681,
      "linked": 2682,
      "consultation": 2683,
      "index": 2684,
      "deduct": 2685,
      "115": 2686,
      "coordination": 2687,
      "specify": 2688,
      "better": 2689,
      "deleted": 2690,
      "sources": 2691,
      "organisations": 2692,
      "accused": 2693,
      "derivative": 2694,
      "threshold": 2695,
      "limiting": 2696,
      "po": 2697,
      "remand": 2698,
      "concept": 2699,
      "exempt": 2700,
      "operative": 2701,
      "joined": 2702,
      "farm": 2703,
      "add": 2704,
      "rendered": 2705,
      "1974": 2706,
      "deferred": 2707,
      "tele": 2708,
      "black": 2709,
      "hard": 2710,
      "package": 2711,
      "expression": 2712,
      "miscellaneous": 2713,
      "appropriation": 2714,
      "why": 2715,
      "##it": 2716,
      "mg": 2717,
      "relations": 2718,
      "collected": 2719,
      "109": 2720,
      "600": 2721,
      "offense": 2722,
      "therewith": 2723,
      "gives": 2724,
      "le": 2725,
      "constituted": 2726,
      "agricultur": 2727,
      "start": 2728,
      "denmark": 2729,
      "solution": 2730,
      "apparatus": 2731,
      "attempt": 2732,
      "word": 2733,
      "admission": 2734,
      "commissioner": 2735,
      "belgi": 2736,
      "vol": 2737,
      "requisite": 2738,
      "##968": 2739,
      "mrs": 2740,
      "recognised": 2741,
      "referring": 2742,
      "believe": 2743,
      "himself": 2744,
      "reach": 2745,
      "studie": 2746,
      "achieved": 2747,
      "surveillance": 2748,
      "aspects": 2749,
      "hazardous": 2750,
      "borrowing": 2751,
      "heard": 2752,
      "accident": 2753,
      "xi": 2754,
      "integrate": 2755,
      "derived": 2756,
      "broker": 2757,
      "##8": 2758,
      "##ng": 2759,
      "180": 2760,
      "outcome": 2761,
      "things": 2762,
      "sound": 2763,
      "cure": 2764,
      "consumers": 2765,
      "shar": 2766,
      "continuous": 2767,
      "impose": 2768,
      "determines": 2769,
      "speed": 2770,
      "prepare": 2771,
      "ag": 2772,
      "strategy": 2773,
      "prevail": 2774,
      "dealing": 2775,
      "chairman": 2776,
      "shows": 2777,
      "buy": 2778,
      "discovery": 2779,
      "composed": 2780,
      "ge": 2781,
      "flat": 2782,
      "store": 2783,
      "suitable": 2784,
      "became": 2785,
      "blue": 2786,
      "card": 2787,
      "consummate": 2788,
      "engage": 2789,
      "machines": 2790,
      "background": 2791,
      "minutes": 2792,
      "considering": 2793,
      "redeem": 2794,
      "canada": 2795,
      "advertising": 2796,
      "identical": 2797,
      "container": 2798,
      "assist": 2799,
      "receiver": 2800,
      "evidenced": 2801,
      "organize": 2802,
      "restrictive": 2803,
      "contents": 2804,
      "labour": 2805,
      "exceptions": 2806,
      "raise": 2807,
      "und": 2808,
      "deposited": 2809,
      "micro": 2810,
      "ta": 2811,
      "geographical": 2812,
      "offices": 2813,
      "laborator": 2814,
      "reserved": 2815,
      "deduction": 2816,
      "suspended": 2817,
      "changed": 2818,
      "exclusion": 2819,
      "subheading": 2820,
      "wood": 2821,
      "advisory": 2822,
      "propose": 2823,
      "veterinar": 2824,
      "opinions": 2825,
      "supervisory": 2826,
      "fail": 2827,
      "guilty": 2828,
      "daily": 2829,
      "seq": 2830,
      "reimburse": 2831,
      "guidance": 2832,
      "kept": 2833,
      "effectively": 2834,
      "difficult": 2835,
      "collective": 2836,
      "##6": 2837,
      "smith": 2838,
      "meanings": 2839,
      "sweden": 2840,
      "111": 2841,
      "transitional": 2842,
      "freedoms": 2843,
      "eight": 2844,
      "preamble": 2845,
      "presentation": 2846,
      "emergency": 2847,
      "130": 2848,
      "continuation": 2849,
      "recording": 2850,
      "hotel": 2851,
      "lost": 2852,
      "1972": 2853,
      "around": 2854,
      "block": 2855,
      "taxation": 2856,
      "misconduct": 2857,
      "imposition": 2858,
      "demonstrate": 2859,
      "disbursement": 2860,
      "subscriber": 2861,
      "attachment": 2862,
      "violated": 2863,
      "##ler": 2864,
      "substantive": 2865,
      "invitation": 2866,
      "improve": 2867,
      "owed": 2868,
      "debts": 2869,
      "##ch": 2870,
      "quotation": 2871,
      "especially": 2872,
      "medium": 2873,
      "exporter": 2874,
      "schemes": 2875,
      "restrict": 2876,
      "rice": 2877,
      "compared": 2878,
      "##son": 2879,
      "promulgated": 2880,
      "operated": 2881,
      "press": 2882,
      "cumulative": 2883,
      "scale": 2884,
      "118": 2885,
      "repeal": 2886,
      "conjunction": 2887,
      "fabric": 2888,
      "##ance": 2889,
      "##mentioned": 2890,
      "800": 2891,
      "foot": 2892,
      "composition": 2893,
      "designate": 2894,
      "relevance": 2895,
      "rata": 2896,
      "borrowers": 2897,
      "pass": 2898,
      "borne": 2899,
      "auditors": 2900,
      "economy": 2901,
      "entering": 2902,
      "performing": 2903,
      "led": 2904,
      "red": 2905,
      "problem": 2906,
      "help": 2907,
      "apparent": 2908,
      "victim": 2909,
      "twelve": 2910,
      "difficulties": 2911,
      "late": 2912,
      "seeks": 2913,
      "romania": 2914,
      "licensor": 2915,
      "allows": 2916,
      "citizens": 2917,
      "##bank": 2918,
      "avoidance": 2919,
      "manufactured": 2920,
      "mind": 2921,
      "shared": 2922,
      "disputed": 2923,
      "appellee": 2924,
      "119": 2925,
      "job": 2926,
      "valuation": 2927,
      "label": 2928,
      "budgetary": 2929,
      "euros": 2930,
      "##ised": 2931,
      "associate": 2932,
      "suppliers": 2933,
      "traffic": 2934,
      "connected": 2935,
      "sitting": 2936,
      "emphasis": 2937,
      "114": 2938,
      "lieu": 2939,
      "##less": 2940,
      "preference": 2941,
      "qualify": 2942,
      "reiterates": 2943,
      "tasks": 2944,
      "pl": 2945,
      "practical": 2946,
      "failing": 2947,
      "similarly": 2948,
      "quarterly": 2949,
      "reviewed": 2950,
      "ask": 2951,
      "cap": 2952,
      "preclude": 2953,
      "always": 2954,
      "grade": 2955,
      "debenture": 2956,
      "dismissal": 2957,
      "yes": 2958,
      "simple": 2959,
      "pric": 2960,
      "improvement": 2961,
      "pursue": 2962,
      "center": 2963,
      "importation": 2964,
      "allegedly": 2965,
      "membership": 2966,
      "##10": 2967,
      "requesting": 2968,
      "multiple": 2969,
      "##lin": 2970,
      "incompatible": 2971,
      "statistical": 2972,
      "successful": 2973,
      "automatic": 2974,
      "feet": 2975,
      "manual": 2976,
      "usa": 2977,
      "minister": 2978,
      "noteholder": 2979,
      "panel": 2980,
      "avenue": 2981,
      "receives": 2982,
      "para": 2983,
      "harm": 2984,
      "reform": 2985,
      "mutually": 2986,
      "cas": 2987,
      "bulgaria": 2988,
      "##ff": 2989,
      "exclude": 2990,
      "greek": 2991,
      "suite": 2992,
      "exercising": 2993,
      "resignation": 2994,
      "normally": 2995,
      "fur": 2996,
      "exceeds": 2997,
      "consequence": 2998,
      "park": 2999,
      "cal": 3000,
      "lessor": 3001,
      "unknown": 3002,
      "codes": 3003,
      "##ville": 3004,
      "measured": 3005,
      "branch": 3006,
      "willful": 3007,
      "latest": 3008,
      "lp": 3009,
      "temperature": 3010,
      "butter": 3011,
      "glass": 3012,
      "resident": 3013,
      "debtors": 3014,
      "acquiring": 3015,
      "136": 3016,
      "deal": 3017,
      "initially": 3018,
      "unreasonably": 3019,
      "town": 3020,
      "washington": 3021,
      "sums": 3022,
      "conferred": 3023,
      "1970": 3024,
      "declare": 3025,
      "near": 3026,
      "withdraw": 3027,
      "inconsistent": 3028,
      "2019": 3029,
      "undertaken": 3030,
      "statutes": 3031,
      "comparison": 3032,
      "enforced": 3033,
      "enterprises": 3034,
      "##za": 3035,
      "mere": 3036,
      "genuine": 3037,
      "situations": 3038,
      "authentic": 3039,
      "exercisable": 3040,
      "ne": 3041,
      "approve": 3042,
      "closed": 3043,
      "conclusive": 3044,
      "pool": 3045,
      "confirm": 3046,
      "enterprise": 3047,
      "gen": 3048,
      "false": 3049,
      "safe": 3050,
      "##01": 3051,
      "falls": 3052,
      "denial": 3053,
      "stop": 3054,
      "carbon": 3055,
      "rest": 3056,
      "allowances": 3057,
      "tonne": 3058,
      "indent": 3059,
      "living": 3060,
      "surviving": 3061,
      "guarantors": 3062,
      "manifestly": 3063,
      "##ization": 3064,
      "regime": 3065,
      "reasoning": 3066,
      "117": 3067,
      "remove": 3068,
      "powder": 3069,
      "institute": 3070,
      "revised": 3071,
      "untrue": 3072,
      "democratic": 3073,
      "##be": 3074,
      "calculating": 3075,
      "machinery": 3076,
      "fiduciary": 3077,
      "bad": 3078,
      "##ive": 3079,
      "robert": 3080,
      "population": 3081,
      "split": 3082,
      "1973": 3083,
      "submits": 3084,
      "assignor": 3085,
      "issu": 3086,
      "northern": 3087,
      "remuneration": 3088,
      "subcontractor": 3089,
      "housing": 3090,
      "aside": 3091,
      "medicina": 3092,
      "primarily": 3093,
      "ecb": 3094,
      "entitlement": 3095,
      "essentially": 3096,
      "james": 3097,
      "incident": 3098,
      "160": 3099,
      "iron": 3100,
      "availability": 3101,
      "replace": 3102,
      "invalidity": 3103,
      "##oxy": 3104,
      "prepaid": 3105,
      "fibres": 3106,
      "instant": 3107,
      "seems": 3108,
      "son": 3109,
      "exceptional": 3110,
      "139": 3111,
      "121": 3112,
      "modifications": 3113,
      "route": 3114,
      "transportation": 3115,
      "123": 3116,
      "promise": 3117,
      "recommendations": 3118,
      "concludes": 3119,
      "indicates": 3120,
      "handling": 3121,
      "listing": 3122,
      "dry": 3123,
      "discussed": 3124,
      "david": 3125,
      "conflicts": 3126,
      "generate": 3127,
      "appellants": 3128,
      "##menc": 3129,
      "doing": 3130,
      "marked": 3131,
      "ancilla": 3132,
      "commenc": 3133,
      "gaap": 3134,
      "cm": 3135,
      "flag": 3136,
      "ever": 3137,
      "premiums": 3138,
      "ro": 3139,
      "inventory": 3140,
      "116": 3141,
      "worker": 3142,
      "##lature": 3143,
      "fin": 3144,
      "1971": 3145,
      "140": 3146,
      "contention": 3147,
      "commence": 3148,
      "franchise": 3149,
      "protective": 3150,
      "methyl": 3151,
      "fulfilled": 3152,
      "told": 3153,
      "marginal": 3154,
      "##ington": 3155,
      "recourse": 3156,
      "mixture": 3157,
      "born": 3158,
      "injuries": 3159,
      "resulted": 3160,
      "demands": 3161,
      "files": 3162,
      "conference": 3163,
      "177": 3164,
      "distinction": 3165,
      "privilege": 3166,
      "##04": 3167,
      "diligence": 3168,
      "retention": 3169,
      "exhibits": 3170,
      "sustained": 3171,
      "portugues": 3172,
      "whenever": 3173,
      "seen": 3174,
      "additive": 3175,
      "history": 3176,
      "employ": 3177,
      "increasing": 3178,
      "alter": 3179,
      "communicated": 3180,
      "salt": 3181,
      "auto": 3182,
      "positions": 3183,
      "##il": 3184,
      "gmbh": 3185,
      "counterpart": 3186,
      "alleging": 3187,
      "360": 3188,
      "citing": 3189,
      "render": 3190,
      "evidencing": 3191,
      "doc": 3192,
      "confer": 3193,
      "argue": 3194,
      "civ": 3195,
      "florida": 3196,
      "complex": 3197,
      "industrie": 3198,
      "transit": 3199,
      "digital": 3200,
      "seat": 3201,
      "technologies": 3202,
      "commenced": 3203,
      "underwriters": 3204,
      "whatever": 3205,
      "square": 3206,
      "##turn": 3207,
      "beef": 3208,
      "con": 3209,
      "alcohol": 3210,
      "dissolution": 3211,
      "look": 3212,
      "acceleration": 3213,
      "uses": 3214,
      "wording": 3215,
      "perfect": 3216,
      "involve": 3217,
      "subdivision": 3218,
      "delayed": 3219,
      "grape": 3220,
      "war": 3221,
      "worked": 3222,
      "michael": 3223,
      "1934": 3224,
      "assembly": 3225,
      "river": 3226,
      "remained": 3227,
      "electrical": 3228,
      "capitalize": 3229,
      "cable": 3230,
      "opened": 3231,
      "upheld": 3232,
      "finland": 3233,
      "forecast": 3234,
      "cl": 3235,
      "obliged": 3236,
      "bid": 3237,
      "transition": 3238,
      "sets": 3239,
      "mortgaged": 3240,
      "adapt": 3241,
      "installment": 3242,
      "addresses": 3243,
      "causes": 3244,
      "trademark": 3245,
      "vendor": 3246,
      "minor": 3247,
      "resolve": 3248,
      "##ul": 3249,
      "strengthen": 3250,
      "distance": 3251,
      "recommended": 3252,
      "residue": 3253,
      "mission": 3254,
      "##ian": 3255,
      "bovi": 3256,
      "constituting": 3257,
      "mechanism": 3258,
      "forest": 3259,
      "interpret": 3260,
      "212": 3261,
      "instruction": 3262,
      "extract": 3263,
      "imprisonment": 3264,
      "accurate": 3265,
      "122": 3266,
      "numbers": 3267,
      "ship": 3268,
      "lists": 3269,
      "planning": 3270,
      "buildings": 3271,
      "##up": 3272,
      "shipp": 3273,
      "mental": 3274,
      "often": 3275,
      "convicted": 3276,
      "##men": 3277,
      "situated": 3278,
      "fit": 3279,
      "proposals": 3280,
      "opposition": 3281,
      "mandate": 3282,
      "figure": 3283,
      "quoting": 3284,
      "investigations": 3285,
      "incur": 3286,
      "website": 3287,
      "petrole": 3288,
      "young": 3289,
      "fisher": 3290,
      "yield": 3291,
      "proxy": 3292,
      "dispose": 3293,
      "verify": 3294,
      "leased": 3295,
      "came": 3296,
      "formula": 3297,
      "##ner": 3298,
      "substitution": 3299,
      "eligibility": 3300,
      "portfolio": 3301,
      "whereby": 3302,
      "impossible": 3303,
      "ga": 3304,
      "format": 3305,
      "indicator": 3306,
      "ended": 3307,
      "select": 3308,
      "personally": 3309,
      "contributed": 3310,
      "reflected": 3311,
      "misleading": 3312,
      "entirely": 3313,
      "prevention": 3314,
      "conveyance": 3315,
      "initiated": 3316,
      "farmer": 3317,
      "##ship": 3318,
      "efficiency": 3319,
      "managers": 3320,
      "developing": 3321,
      "va": 3322,
      "resolved": 3323,
      "thomas": 3324,
      "dimension": 3325,
      "swap": 3326,
      "shipment": 3327,
      "criterion": 3328,
      "counterparty": 3329,
      "renew": 3330,
      "maintaining": 3331,
      "television": 3332,
      "2020": 3333,
      "sentencing": 3334,
      "arises": 3335,
      "customary": 3336,
      "succeed": 3337,
      "inclusion": 3338,
      "think": 3339,
      "127": 3340,
      "rur": 3341,
      "accuracy": 3342,
      "earnings": 3343,
      "collect": 3344,
      "opportunities": 3345,
      "task": 3346,
      "sun": 3347,
      "olive": 3348,
      "plastic": 3349,
      "acted": 3350,
      "driver": 3351,
      "##berg": 3352,
      "statistic": 3353,
      "territori": 3354,
      "attain": 3355,
      "assessing": 3356,
      "deadline": 3357,
      "llp": 3358,
      "explanation": 3359,
      "cent": 3360,
      "load": 3361,
      "room": 3362,
      "excise": 3363,
      "##ver": 3364,
      "spread": 3365,
      "seventh": 3366,
      "competence": 3367,
      "subjected": 3368,
      "forum": 3369,
      "pursued": 3370,
      "contest": 3371,
      "advanced": 3372,
      "occurring": 3373,
      "assurance": 3374,
      "maje": 3375,
      "secondary": 3376,
      "legend": 3377,
      "ha": 3378,
      "signing": 3379,
      "securing": 3380,
      "revision": 3381,
      "affirmed": 3382,
      "accountants": 3383,
      "##00": 3384,
      "assistant": 3385,
      "effort": 3386,
      "impair": 3387,
      "indicating": 3388,
      "##way": 3389,
      "za": 3390,
      "withdrawn": 3391,
      "comprehensive": 3392,
      "deputy": 3393,
      "vis": 3394,
      "refuse": 3395,
      "indictment": 3396,
      "birth": 3397,
      "detained": 3398,
      "fraudulent": 3399,
      "mother": 3400,
      "spouse": 3401,
      "influence": 3402,
      "sanctions": 3403,
      "quantitative": 3404,
      "strict": 3405,
      "university": 3406,
      "quote": 3407,
      "samples": 3408,
      "##wide": 3409,
      "wish": 3410,
      "compensatory": 3411,
      "explain": 3412,
      "124": 3413,
      "drive": 3414,
      "vest": 3415,
      "analyse": 3416,
      "eastern": 3417,
      "municipal": 3418,
      "intra": 3419,
      "efficient": 3420,
      "prc": 3421,
      "ohio": 3422,
      "##coming": 3423,
      "flight": 3424,
      "few": 3425,
      "southern": 3426,
      "unfair": 3427,
      "front": 3428,
      "allowing": 3429,
      "prohibit": 3430,
      "discharged": 3431,
      "bureau": 3432,
      "intentionally": 3433,
      "128": 3434,
      "##viation": 3435,
      "op": 3436,
      "fifteen": 3437,
      "week": 3438,
      "tranche": 3439,
      "input": 3440,
      "mid": 3441,
      "pertaining": 3442,
      "anniversary": 3443,
      "certify": 3444,
      "afford": 3445,
      "advised": 3446,
      "pharmaceutical": 3447,
      "believes": 3448,
      "offset": 3449,
      "planned": 3450,
      "appealed": 3451,
      "colour": 3452,
      "129": 3453,
      "172": 3454,
      "##ard": 3455,
      "assert": 3456,
      "ti": 3457,
      "nine": 3458,
      "immunity": 3459,
      "placing": 3460,
      "jr": 3461,
      "understands": 3462,
      "##la": 3463,
      "gr": 3464,
      "illinois": 3465,
      "sense": 3466,
      "machine": 3467,
      "presumption": 3468,
      "##ex": 3469,
      "ascertain": 3470,
      "inure": 3471,
      "145": 3472,
      "registry": 3473,
      "173": 3474,
      "london": 3475,
      "tank": 3476,
      "please": 3477,
      "managed": 3478,
      "highest": 3479,
      "earned": 3480,
      "##ting": 3481,
      "126": 3482,
      "justification": 3483,
      "instituted": 3484,
      "chargeable": 3485,
      "148": 3486,
      "700": 3487,
      "cotton": 3488,
      "johnson": 3489,
      "originally": 3490,
      "ban": 3491,
      "internet": 3492,
      "communicate": 3493,
      "##the": 3494,
      "therefrom": 3495,
      "stat": 3496,
      "doctrine": 3497,
      "ce": 3498,
      "output": 3499,
      "comment": 3500,
      "brown": 3501,
      "purchas": 3502,
      "alleges": 3503,
      "fines": 3504,
      "##nnum": 3505,
      "formed": 3506,
      "equally": 3507,
      "discuss": 3508,
      "railway": 3509,
      "lapse": 3510,
      "intermediar": 3511,
      "circulation": 3512,
      "fulfill": 3513,
      "irrespective": 3514,
      "affirmative": 3515,
      "welfare": 3516,
      "appellate": 3517,
      "stand": 3518,
      "##ant": 3519,
      "res": 3520,
      "##ov": 3521,
      "providers": 3522,
      "everyone": 3523,
      "hungar": 3524,
      "fe": 3525,
      "compatibility": 3526,
      "ordinance": 3527,
      "relying": 3528,
      "discriminatory": 3529,
      "reads": 3530,
      "recently": 3531,
      "135": 3532,
      "traditional": 3533,
      "strength": 3534,
      "chinese": 3535,
      "reg": 3536,
      "##dium": 3537,
      "host": 3538,
      "leading": 3539,
      "##field": 3540,
      "fraction": 3541,
      "western": 3542,
      "precise": 3543,
      "lot": 3544,
      "collaboration": 3545,
      "marking": 3546,
      "delegation": 3547,
      "wells": 3548,
      "fa": 3549,
      "preferential": 3550,
      "elected": 3551,
      "optional": 3552,
      "mobile": 3553,
      "designee": 3554,
      "unlike": 3555,
      "annexe": 3556,
      "possess": 3557,
      "revoke": 3558,
      "zz": 3559,
      "yarn": 3560,
      "131": 3561,
      "resale": 3562,
      "permissible": 3563,
      "dependent": 3564,
      "nationality": 3565,
      "email": 3566,
      "##02": 3567,
      "fifty": 3568,
      "secret": 3569,
      "covers": 3570,
      "valuable": 3571,
      "br": 3572,
      "firms": 3573,
      "tube": 3574,
      "unanimously": 3575,
      "savings": 3576,
      "nationals": 3577,
      "##ite": 3578,
      "reasoned": 3579,
      "injured": 3580,
      "underwriter": 3581,
      "##ory": 3582,
      "monitor": 3583,
      "tools": 3584,
      "britis": 3585,
      "recall": 3586,
      "pennsylvania": 3587,
      "prospective": 3588,
      "send": 3589,
      "##ou": 3590,
      "circumstance": 3591,
      "consignment": 3592,
      "tort": 3593,
      "nuclear": 3594,
      "##ung": 3595,
      "reinsurer": 3596,
      "federation": 3597,
      "pilot": 3598,
      "cf": 3599,
      "sustainable": 3600,
      "inspections": 3601,
      "czech": 3602,
      "airline": 3603,
      "138": 3604,
      "venue": 3605,
      "##ities": 3606,
      "procurement": 3607,
      "133": 3608,
      "##serted": 3609,
      "classes": 3610,
      "sixt": 3611,
      "little": 3612,
      "junior": 3613,
      "claiming": 3614,
      "unreasonable": 3615,
      "convenience": 3616,
      "correspondence": 3617,
      "respond": 3618,
      "survey": 3619,
      "move": 3620,
      "##ma": 3621,
      "reduc": 3622,
      "chain": 3623,
      "gender": 3624,
      "bringing": 3625,
      "save": 3626,
      "differentiate": 3627,
      "variable": 3628,
      "affidavit": 3629,
      "prime": 3630,
      "##stream": 3631,
      "deprived": 3632,
      "printed": 3633,
      "columbia": 3634,
      "mainly": 3635,
      "##by": 3636,
      "wife": 3637,
      "superior": 3638,
      "integration": 3639,
      "##ge": 3640,
      "encourage": 3641,
      "prompt": 3642,
      "181": 3643,
      "going": 3644,
      "##eg": 3645,
      "##ha": 3646,
      "plain": 3647,
      "challenged": 3648,
      "rental": 3649,
      "core": 3650,
      "im": 3651,
      "understand": 3652,
      "expectation": 3653,
      "offences": 3654,
      "william": 3655,
      "frozen": 3656,
      "train": 3657,
      "maritime": 3658,
      "arm": 3659,
      "nominee": 3660,
      "servant": 3661,
      "reinsurance": 3662,
      "230": 3663,
      "##wood": 3664,
      "sulph": 3665,
      "legislature": 3666,
      "clearance": 3667,
      "156": 3668,
      "producing": 3669,
      "##ham": 3670,
      "1969": 3671,
      "inadequate": 3672,
      "describe": 3673,
      "134": 3674,
      "concentrate": 3675,
      "dangerous": 3676,
      "almost": 3677,
      "execut": 3678,
      "ra": 3679,
      "certainty": 3680,
      "##meat": 3681,
      "appraisal": 3682,
      "cert": 3683,
      "involves": 3684,
      "georgia": 3685,
      "##09": 3686,
      "##one": 3687,
      "##ro": 3688,
      "##ware": 3689,
      "demonstrated": 3690,
      "transmitted": 3691,
      "##ford": 3692,
      "wild": 3693,
      "departure": 3694,
      "900": 3695,
      "##ling": 3696,
      "cancel": 3697,
      "preserve": 3698,
      "exceeded": 3699,
      "omissions": 3700,
      "ab": 3701,
      "considerable": 3702,
      "##board": 3703,
      "offers": 3704,
      "settle": 3705,
      "tobacco": 3706,
      "frequenc": 3707,
      "round": 3708,
      "fault": 3709,
      "pipe": 3710,
      "169": 3711,
      "##he": 3712,
      "crop": 3713,
      "hr": 3714,
      "170": 3715,
      "divided": 3716,
      "##and": 3717,
      "violence": 3718,
      "##time": 3719,
      "counter": 3720,
      "gp": 3721,
      "switzerland": 3722,
      "##07": 3723,
      "141": 3724,
      "132": 3725,
      "initiate": 3726,
      "province": 3727,
      "suits": 3728,
      "##ter": 3729,
      "##ted": 3730,
      "passenger": 3731,
      "increases": 3732,
      "existed": 3733,
      "subsidy": 3734,
      "wheat": 3735,
      "trademarks": 3736,
      "mechanical": 3737,
      "reverse": 3738,
      "147": 3739,
      "passed": 3740,
      "solid": 3741,
      "poult": 3742,
      "govern": 3743,
      "compromise": 3744,
      "solutions": 3745,
      "invention": 3746,
      "ver": 3747,
      "went": 3748,
      "mailed": 3749,
      "attempted": 3750,
      "##0000": 3751,
      "correctly": 3752,
      "cells": 3753,
      "moved": 3754,
      "comp": 3755,
      "severability": 3756,
      "counterclaim": 3757,
      "hour": 3758,
      "blank": 3759,
      "innovation": 3760,
      "accompany": 3761,
      "imposing": 3762,
      "updated": 3763,
      "gold": 3764,
      "compulsory": 3765,
      "formation": 3766,
      "##03": 3767,
      "sufficiency": 3768,
      "mar": 3769,
      "relieve": 3770,
      "conservation": 3771,
      "jan": 3772,
      "concession": 3773,
      "##communications": 3774,
      "##id": 3775,
      "proportionate": 3776,
      "foreclosure": 3777,
      "ascribed": 3778,
      "egg": 3779,
      "double": 3780,
      "taxpayer": 3781,
      "moving": 3782,
      "##adian": 3783,
      "178": 3784,
      "cyprus": 3785,
      "##nic": 3786,
      "##herewith": 3787,
      "solicit": 3788,
      "km": 3789,
      "starting": 3790,
      "envisage": 3791,
      "175": 3792,
      "variet": 3793,
      "142": 3794,
      "phrase": 3795,
      "consecutive": 3796,
      "sex": 3797,
      "wines": 3798,
      "bis": 3799,
      "marine": 3800,
      "deems": 3801,
      "privileges": 3802,
      "absent": 3803,
      "treat": 3804,
      "210": 3805,
      "weeks": 3806,
      "investigate": 3807,
      "promissor": 3808,
      "expired": 3809,
      "errors": 3810,
      "fly": 3811,
      "waivers": 3812,
      "voluntarily": 3813,
      "join": 3814,
      "strategic": 3815,
      "220": 3816,
      "414": 3817,
      "cycle": 3818,
      "virginia": 3819,
      "aimed": 3820,
      "parallel": 3821,
      "define": 3822,
      "measur": 3823,
      "arrested": 3824,
      "highly": 3825,
      "danger": 3826,
      "seal": 3827,
      "repealed": 3828,
      "spirit": 3829,
      "deem": 3830,
      "##nd": 3831,
      "##ka": 3832,
      "exchangeable": 3833,
      "tel": 3834,
      "zero": 3835,
      "convert": 3836,
      "elsewhere": 3837,
      "household": 3838,
      "trader": 3839,
      "compris": 3840,
      "152": 3841,
      "belonging": 3842,
      "film": 3843,
      "wall": 3844,
      "protocols": 3845,
      "labell": 3846,
      "##ana": 3847,
      "ucc": 3848,
      "fo": 3849,
      "##if": 3850,
      "##302": 3851,
      "organic": 3852,
      "dk": 3853,
      "conspiracy": 3854,
      "sampling": 3855,
      "143": 3856,
      "proved": 3857,
      "writ": 3858,
      "adequately": 3859,
      "contrast": 3860,
      "adopting": 3861,
      "201": 3862,
      "solicitation": 3863,
      "350": 3864,
      "numerous": 3865,
      "157": 3866,
      "manifest": 3867,
      "reading": 3868,
      "280": 3869,
      "punishment": 3870,
      "137": 3871,
      "750": 3872,
      "207": 3873,
      "milestone": 3874,
      "##20": 3875,
      "intercreditor": 3876,
      "afforded": 3877,
      "introduc": 3878,
      "forfeiture": 3879,
      "theory": 3880,
      "questionnaire": 3881,
      "skill": 3882,
      "motions": 3883,
      "rev": 3884,
      "oct": 3885,
      "intends": 3886,
      "serving": 3887,
      "cassation": 3888,
      "mon": 3889,
      "proportionality": 3890,
      "toxic": 3891,
      "sk": 3892,
      "programm": 3893,
      "##wl": 3894,
      "adviser": 3895,
      "1967": 3896,
      "enjoy": 3897,
      "161": 3898,
      "secrets": 3899,
      "##ica": 3900,
      "strictly": 3901,
      "spa": 3902,
      "semi": 3903,
      "deliberate": 3904,
      "##mi": 3905,
      "favorable": 3906,
      "owns": 3907,
      "##dominant": 3908,
      "401": 3909,
      "threat": 3910,
      "med": 3911,
      "convey": 3912,
      "destruction": 3913,
      "developments": 3914,
      "stipulated": 3915,
      "alteration": 3916,
      "originated": 3917,
      "chosen": 3918,
      "infringed": 3919,
      "##hi": 3920,
      "williams": 3921,
      "weigh": 3922,
      "151": 3923,
      "courier": 3924,
      "verdict": 3925,
      "162": 3926,
      "endorsement": 3927,
      "foodstuff": 3928,
      "mi": 3929,
      "leas": 3930,
      "190": 3931,
      "nations": 3932,
      "appointing": 3933,
      "organism": 3934,
      "exhaust": 3935,
      "contributor": 3936,
      "irrevocabl": 3937,
      "martin": 3938,
      "defaulting": 3939,
      "complying": 3940,
      "whilst": 3941,
      "dealers": 3942,
      "bi": 3943,
      "integral": 3944,
      "running": 3945,
      "inventions": 3946,
      "closely": 3947,
      "religious": 3948,
      "allegation": 3949,
      "interfere": 3950,
      "tangible": 3951,
      "disclosing": 3952,
      "institutional": 3953,
      "te": 3954,
      "##feu": 3955,
      "geographic": 3956,
      "##ese": 3957,
      "accelerate": 3958,
      "terminal": 3959,
      "parcel": 3960,
      "preventing": 3961,
      "declarations": 3962,
      "146": 3963,
      "overnight": 3964,
      "calculations": 3965,
      "tha": 3966,
      "fl": 3967,
      "rail": 3968,
      "swedish": 3969,
      "features": 3970,
      "lo": 3971,
      "choose": 3972,
      "favourable": 3973,
      "##rway": 3974,
      "india": 3975,
      "158": 3976,
      "asylum": 3977,
      "155": 3978,
      "##methyl": 3979,
      "postage": 3980,
      "commit": 3981,
      "lithuania": 3982,
      "mc": 3983,
      "regulated": 3984,
      "enough": 3985,
      "likelihood": 3986,
      "variety": 3987,
      "lawyers": 3988,
      "completely": 3989,
      "parents": 3990,
      "heirs": 3991,
      "1964": 3992,
      "showed": 3993,
      "insert": 3994,
      "alternate": 3995,
      "engineering": 3996,
      "cat": 3997,
      "##ova": 3998,
      "159": 3999,
      "focus": 4000,
      "lamp": 4001,
      "##05": 4002,
      "##financed": 4003,
      "signs": 4004,
      "underwriting": 4005,
      "constituent": 4006,
      "desirabl": 4007,
      "sites": 4008,
      "message": 4009,
      "seem": 4010,
      "pieces": 4011,
      "appeared": 4012,
      "useful": 4013,
      "play": 4014,
      "##me": 4015,
      "doubts": 4016,
      "skin": 4017,
      "##fsp": 4018,
      "##11": 4019,
      "185": 4020,
      "kilogram": 4021,
      "gd": 4022,
      "recovered": 4023,
      "regularly": 4024,
      "functional": 4025,
      "announcement": 4026,
      "occasions": 4027,
      "libor": 4028,
      "behaviour": 4029,
      "consistently": 4030,
      "repay": 4031,
      "mention": 4032,
      "breaches": 4033,
      "fix": 4034,
      "xii": 4035,
      "surplus": 4036,
      "trigger": 4037,
      "safeguard": 4038,
      "receipts": 4039,
      "assertion": 4040,
      "critical": 4041,
      "enact": 4042,
      "149": 4043,
      "concert": 4044,
      "credited": 4045,
      "ninety": 4046,
      "father": 4047,
      "ultimately": 4048,
      "correction": 4049,
      "ch": 4050,
      "began": 4051,
      "bag": 4052,
      "signal": 4053,
      "worth": 4054,
      "defect": 4055,
      "mining": 4056,
      "soil": 4057,
      "##state": 4058,
      "distribut": 4059,
      "harvest": 4060,
      "initiation": 4061,
      "candidates": 4062,
      "mineral": 4063,
      "candidate": 4064,
      "signatures": 4065,
      "ba": 4066,
      "alloy": 4067,
      "##08": 4068,
      "specifying": 4069,
      "distill": 4070,
      "hydro": 4071,
      "organizations": 4072,
      "154": 4073,
      "deny": 4074,
      "involvement": 4075,
      "168": 4076,
      "##li": 4077,
      "165": 4078,
      "unsecured": 4079,
      "jv": 4080,
      "multiplie": 4081,
      "occasion": 4082,
      "suggested": 4083,
      "negotiation": 4084,
      "likewise": 4085,
      "declares": 4086,
      "delivers": 4087,
      "identifying": 4088,
      "pledgee": 4089,
      "challenges": 4090,
      "brand": 4091,
      "involuntary": 4092,
      "mill": 4093,
      "forfeit": 4094,
      "aspect": 4095,
      "incorrect": 4096,
      "accrue": 4097,
      "pleadings": 4098,
      "foundation": 4099,
      "mac": 4100,
      "australia": 4101,
      "deductions": 4102,
      "##zer": 4103,
      "paul": 4104,
      "strasbourg": 4105,
      "strike": 4106,
      "##am": 4107,
      "ineffective": 4108,
      "armed": 4109,
      "royalt": 4110,
      "investigator": 4111,
      "##va": 4112,
      "domain": 4113,
      "accepts": 4114,
      "strip": 4115,
      "sublicense": 4116,
      "eighth": 4117,
      "mutandis": 4118,
      "suspend": 4119,
      "grain": 4120,
      "ceiling": 4121,
      "depending": 4122,
      "lesser": 4123,
      "conditional": 4124,
      "mutatis": 4125,
      "min": 4126,
      "murder": 4127,
      "investigating": 4128,
      "affirm": 4129,
      "##ification": 4130,
      "knew": 4131,
      "distinct": 4132,
      "adjust": 4133,
      "revocation": 4134,
      "cargo": 4135,
      "croatia": 4136,
      "database": 4137,
      "postal": 4138,
      "extra": 4139,
      "aforesaid": 4140,
      "ongoing": 4141,
      "asserts": 4142,
      "shell": 4143,
      "coming": 4144,
      "les": 4145,
      "releases": 4146,
      "break": 4147,
      "167": 4148,
      "##mann": 4149,
      "##sia": 4150,
      "1408": 4151,
      "across": 4152,
      "153": 4153,
      "cancelled": 4154,
      "##go": 4155,
      "lu": 4156,
      "spot": 4157,
      "partly": 4158,
      "anticipated": 4159,
      "dutch": 4160,
      "chicago": 4161,
      "injunctive": 4162,
      "wishes": 4163,
      "necessity": 4164,
      "polish": 4165,
      "215": 4166,
      "complainant": 4167,
      "vary": 4168,
      "reservation": 4169,
      "disposed": 4170,
      "prevented": 4171,
      "transparency": 4172,
      "advise": 4173,
      "202": 4174,
      "game": 4175,
      "richard": 4176,
      "##qualifying": 4177,
      "234": 4178,
      "lawsuit": 4179,
      "aims": 4180,
      "billion": 4181,
      "withhold": 4182,
      "video": 4183,
      "observe": 4184,
      "tier": 4185,
      "places": 4186,
      "impairment": 4187,
      "176": 4188,
      "drie": 4189,
      "believed": 4190,
      "prima": 4191,
      "lump": 4192,
      "shape": 4193,
      "die": 4194,
      "rapid": 4195,
      "counts": 4196,
      "denying": 4197,
      "deficiency": 4198,
      "korea": 4199,
      "apart": 4200,
      "ninth": 4201,
      "##ja": 4202,
      "essence": 4203,
      "nas": 4204,
      "sentenced": 4205,
      "shel": 4206,
      "team": 4207,
      "predecessor": 4208,
      "pocket": 4209,
      "240": 4210,
      "extending": 4211,
      "manage": 4212,
      "rubber": 4213,
      "##9": 4214,
      "1966": 4215,
      "instruct": 4216,
      "164": 4217,
      "suggest": 4218,
      "jones": 4219,
      "su": 4220,
      "##06": 4221,
      "licensing": 4222,
      "pig": 4223,
      "eliminate": 4224,
      "sexual": 4225,
      "##un": 4226,
      "hearings": 4227,
      "coefficient": 4228,
      "periodic": 4229,
      "deficit": 4230,
      "track": 4231,
      "204": 4232,
      "##002": 4233,
      "comprise": 4234,
      "203": 4235,
      "flows": 4236,
      "questioned": 4237,
      "away": 4238,
      "prisoners": 4239,
      "##0805": 4240,
      "nevada": 4241,
      "japan": 4242,
      "pic": 4243,
      "302": 4244,
      "examining": 4245,
      "##om": 4246,
      "techniques": 4247,
      "organizational": 4248,
      "dump": 4249,
      "270": 4250,
      "##thwith": 4251,
      "husband": 4252,
      "163": 4253,
      "views": 4254,
      "controversy": 4255,
      "clean": 4256,
      "doctor": 4257,
      "village": 4258,
      "generation": 4259,
      "roll": 4260,
      "latvia": 4261,
      "##de": 4262,
      "tac": 4263,
      "reject": 4264,
      "independence": 4265,
      "applicability": 4266,
      "intangible": 4267,
      "municipality": 4268,
      "stamp": 4269,
      "pleas": 4270,
      "corporations": 4271,
      "cast": 4272,
      "sand": 4273,
      "image": 4274,
      "variation": 4275,
      "ruled": 4276,
      "morgan": 4277,
      "torture": 4278,
      "exhaustion": 4279,
      "consultants": 4280,
      "interview": 4281,
      "fractional": 4282,
      "crisis": 4283,
      "delays": 4284,
      "fairly": 4285,
      "severally": 4286,
      "citizen": 4287,
      "catch": 4288,
      "appearance": 4289,
      "##12": 4290,
      "fargo": 4291,
      "irs": 4292,
      "contend": 4293,
      "##ko": 4294,
      "##attn": 4295,
      "hence": 4296,
      "187": 4297,
      "super": 4298,
      "explicitly": 4299,
      "##ang": 4300,
      "reporter": 4301,
      "337": 4302,
      "suffering": 4303,
      "apparently": 4304,
      "started": 4305,
      "auction": 4306,
      "continues": 4307,
      "171": 4308,
      "disciplinary": 4309,
      "compete": 4310,
      "originator": 4311,
      "999": 4312,
      "##ga": 4313,
      "command": 4314,
      "broke": 4315,
      "##ira": 4316,
      "get": 4317,
      "climat": 4318,
      "complies": 4319,
      "competing": 4320,
      "extensions": 4321,
      "dismisses": 4322,
      "182": 4323,
      "supervisor": 4324,
      "carriage": 4325,
      "404": 4326,
      "allege": 4327,
      "cooperative": 4328,
      "reimbursed": 4329,
      "##pa": 4330,
      "directorate": 4331,
      "##19": 4332,
      "##ble": 4333,
      "preventive": 4334,
      "exact": 4335,
      "participated": 4336,
      "erroneous": 4337,
      "arbitrary": 4338,
      "visit": 4339,
      "pollution": 4340,
      "severe": 4341,
      "erred": 4342,
      "189": 4343,
      "##upon": 4344,
      "365": 4345,
      "refinancing": 4346,
      "repeated": 4347,
      "delivering": 4348,
      "retroactive": 4349,
      "cpa": 4350,
      "slovenia": 4351,
      "drugs": 4352,
      "intend": 4353,
      "methodology": 4354,
      "##ghs": 4355,
      "territorial": 4356,
      "deciding": 4357,
      "001": 4358,
      "segment": 4359,
      "railroad": 4360,
      "causing": 4361,
      "mix": 4362,
      "associations": 4363,
      "bridge": 4364,
      "hydrocarbon": 4365,
      "freight": 4366,
      "##990": 4367,
      "forces": 4368,
      "166": 4369,
      "insofar": 4370,
      "immigration": 4371,
      "signatory": 4372,
      "trustees": 4373,
      "recommend": 4374,
      "simultaneously": 4375,
      "occupational": 4376,
      "packing": 4377,
      "bylaw": 4378,
      "sky": 4379,
      "destroyed": 4380,
      "cz": 4381,
      "pain": 4382,
      "ph": 4383,
      "alcoholic": 4384,
      "survival": 4385,
      "patient": 4386,
      "179": 4387,
      "assurances": 4388,
      "promoting": 4389,
      "module": 4390,
      "turkish": 4391,
      "redress": 4392,
      "understandings": 4393,
      "introduce": 4394,
      "constant": 4395,
      "184": 4396,
      "incidental": 4397,
      "unemployment": 4398,
      "improving": 4399,
      "visa": 4400,
      "reputation": 4401,
      "##cured": 4402,
      "jersey": 4403,
      "cod": 4404,
      "wages": 4405,
      "omit": 4406,
      "privacy": 4407,
      "slaughter": 4408,
      "lock": 4409,
      "bargaining": 4410,
      "##ring": 4411,
      "expire": 4412,
      "hong": 4413,
      "breached": 4414,
      "liquidated": 4415,
      "em": 4416,
      "pages": 4417,
      "##tic": 4418,
      "winding": 4419,
      "##ier": 4420,
      "rejection": 4421,
      "subordination": 4422,
      "pacific": 4423,
      "finished": 4424,
      "preparing": 4425,
      "invited": 4426,
      "##ice": 4427,
      "permission": 4428,
      "mortgagor": 4429,
      "pump": 4430,
      "usually": 4431,
      "marketed": 4432,
      "##nia": 4433,
      "174": 4434,
      "pattern": 4435,
      "##do": 4436,
      "confidence": 4437,
      "##45": 4438,
      "correspond": 4439,
      "anyone": 4440,
      "dep": 4441,
      "##oper": 4442,
      "danis": 4443,
      "phone": 4444,
      "saw": 4445,
      "301": 4446,
      "deprivation": 4447,
      "205": 4448,
      "intermediate": 4449,
      "conducting": 4450,
      "swin": 4451,
      "miller": 4452,
      "calculate": 4453,
      "enabling": 4454,
      "forty": 4455,
      "1962": 4456,
      "warehouse": 4457,
      "approving": 4458,
      "raising": 4459,
      "distinguish": 4460,
      "administered": 4461,
      "improper": 4462,
      "decisive": 4463,
      "cp": 4464,
      "print": 4465,
      "exhausted": 4466,
      "priorities": 4467,
      "invest": 4468,
      "leaving": 4469,
      "traded": 4470,
      "precisely": 4471,
      "stresse": 4472,
      "li": 4473,
      "facie": 4474,
      "display": 4475,
      "victims": 4476,
      "relatively": 4477,
      "purchases": 4478,
      "brazil": 4479,
      "mexico": 4480,
      "450": 4481,
      "##era": 4482,
      "keeping": 4483,
      "blood": 4484,
      "eag": 4485,
      "success": 4486,
      "hot": 4487,
      "##ella": 4488,
      "cultural": 4489,
      "lawfully": 4490,
      "clearing": 4491,
      "##eesc": 4492,
      "certainly": 4493,
      "209": 4494,
      "unnecessary": 4495,
      "##ig": 4496,
      "verified": 4497,
      "forwarded": 4498,
      "pertinent": 4499,
      "##woven": 4500,
      "208": 4501,
      "pipeline": 4502,
      "processor": 4503,
      "suffer": 4504,
      "lee": 4505,
      "chees": 4506,
      "zones": 4507,
      "translation": 4508,
      "acp": 4509,
      "cold": 4510,
      "incremental": 4511,
      "extraordinary": 4512,
      "hazard": 4513,
      "autonomous": 4514,
      "magistrate": 4515,
      "nominal": 4516,
      "dem": 4517,
      "assisted": 4518,
      "breed": 4519,
      "imo": 4520,
      "evaluate": 4521,
      "maiz": 4522,
      "docket": 4523,
      "custom": 4524,
      "malta": 4525,
      "passengers": 4526,
      "creating": 4527,
      "##written": 4528,
      "obvious": 4529,
      "contended": 4530,
      "driving": 4531,
      "thick": 4532,
      "narrow": 4533,
      "difficulty": 4534,
      "issuers": 4535,
      "appreciation": 4536,
      "closure": 4537,
      "treaties": 4538,
      "def": 4539,
      "388": 4540,
      "catche": 4541,
      "406": 4542,
      "dealt": 4543,
      "tar": 4544,
      "##nish": 4545,
      "empowered": 4546,
      "wind": 4547,
      "irrelevant": 4548,
      "rod": 4549,
      "chlor": 4550,
      "wholesale": 4551,
      "holiday": 4552,
      "193": 4553,
      "establishments": 4554,
      "integrity": 4555,
      "##well": 4556,
      "royal": 4557,
      "025": 4558,
      "##stock": 4559,
      "fla": 4560,
      "announced": 4561,
      "confirms": 4562,
      "268": 4563,
      "##14": 4564,
      "aforementioned": 4565,
      "##ular": 4566,
      "neutral": 4567,
      "scott": 4568,
      "minus": 4569,
      "barred": 4570,
      "max": 4571,
      "248": 4572,
      "advisable": 4573,
      "##back": 4574,
      "reliable": 4575,
      "amounted": 4576,
      "concrete": 4577,
      "entries": 4578,
      "225": 4579,
      "begin": 4580,
      "session": 4581,
      "usd": 4582,
      "renewed": 4583,
      "preserved": 4584,
      "ja": 4585,
      "ar": 4586,
      "216": 4587,
      "poor": 4588,
      "abl": 4589,
      "##water": 4590,
      "maryland": 4591,
      "hire": 4592,
      "fields": 4593,
      "235": 4594,
      "sch": 4595,
      "typical": 4596,
      "206": 4597,
      "##wealth": 4598,
      "negotiate": 4599,
      "355": 4600,
      "##cao": 4601,
      "214": 4602,
      "ohi": 4603,
      "organised": 4604,
      "##46": 4605,
      "310": 4606,
      "299": 4607,
      "update": 4608,
      "ceo": 4609,
      "bulk": 4610,
      "misrepresentati": 4611,
      "conveyed": 4612,
      "atlantic": 4613,
      "quite": 4614,
      "##ida": 4615,
      "##ent": 4616,
      "technological": 4617,
      "stipulation": 4618,
      "##port": 4619,
      "additionally": 4620,
      "refrain": 4621,
      "vertical": 4622,
      "belong": 4623,
      "reviewing": 4624,
      "defects": 4625,
      "supplements": 4626,
      "##com": 4627,
      "##005": 4628,
      "pet": 4629,
      "votes": 4630,
      "probable": 4631,
      "landing": 4632,
      "hair": 4633,
      "endorsed": 4634,
      "tx": 4635,
      "heavy": 4636,
      "mine": 4637,
      "218": 4638,
      "rapporteur": 4639,
      "efs": 4640,
      "211": 4641,
      "arms": 4642,
      "discovered": 4643,
      "spent": 4644,
      "austrian": 4645,
      "attend": 4646,
      "comes": 4647,
      "protecting": 4648,
      "distort": 4649,
      "183": 4650,
      "equality": 4651,
      "authoriz": 4652,
      "##ish": 4653,
      "depend": 4654,
      "##bility": 4655,
      "entertain": 4656,
      "lawfulness": 4657,
      "match": 4658,
      "##010": 4659,
      "clients": 4660,
      "ultimate": 4661,
      "passage": 4662,
      "extensive": 4663,
      "restatement": 4664,
      "ingredient": 4665,
      "suspicion": 4666,
      "analytical": 4667,
      "publish": 4668,
      "213": 4669,
      "acute": 4670,
      "kong": 4671,
      "commodity": 4672,
      "recalls": 4673,
      "##star": 4674,
      "##ong": 4675,
      "ru": 4676,
      "reit": 4677,
      "depends": 4678,
      "226": 4679,
      "upper": 4680,
      "704": 4681,
      "addendum": 4682,
      "platform": 4683,
      "##net": 4684,
      "191": 4685,
      "posts": 4686,
      "wage": 4687,
      "executor": 4688,
      "##sen": 4689,
      "loading": 4690,
      "sue": 4691,
      "224": 4692,
      "cc": 4693,
      "##ara": 4694,
      "deutsche": 4695,
      "sustain": 4696,
      "hedge": 4697,
      "pi": 4698,
      "mailing": 4699,
      "##ani": 4700,
      "##nix": 4701,
      "intentional": 4702,
      "root": 4703,
      "slovakia": 4704,
      "192": 4705,
      "estoppel": 4706,
      "swiss": 4707,
      "elections": 4708,
      "unfounded": 4709,
      "engineer": 4710,
      "unconditionally": 4711,
      "##specially": 4712,
      "gear": 4713,
      "los": 4714,
      "achievement": 4715,
      "##ivity": 4716,
      "synthetic": 4717,
      "star": 4718,
      "jobs": 4719,
      "##ut": 4720,
      "repaid": 4721,
      "establishe": 4722,
      "appliance": 4723,
      "unsuccessful": 4724,
      "universal": 4725,
      "##stored": 4726,
      "potato": 4727,
      "mechanisms": 4728,
      "utility": 4729,
      "moment": 4730,
      "shift": 4731,
      "ou": 4732,
      "bone": 4733,
      "1963": 4734,
      "ray": 4735,
      "centres": 4736,
      "king": 4737,
      "##ho": 4738,
      "bankrupt": 4739,
      "cars": 4740,
      "notably": 4741,
      "admit": 4742,
      "custodial": 4743,
      "rear": 4744,
      "davis": 4745,
      "starch": 4746,
      "rock": 4747,
      "carte": 4748,
      "monte": 4749,
      "induce": 4750,
      "levied": 4751,
      "253": 4752,
      "infringements": 4753,
      "printing": 4754,
      "habeas": 4755,
      "merchant": 4756,
      "discretionary": 4757,
      "compensate": 4758,
      "estonia": 4759,
      "esq": 4760,
      "260": 4761,
      "dur": 4762,
      "growing": 4763,
      "##disproportionate": 4764,
      "cooperat": 4765,
      "##tal": 4766,
      "333": 4767,
      "##003": 4768,
      "couple": 4769,
      "mode": 4770,
      "##ney": 4771,
      "accommodation": 4772,
      "residential": 4773,
      "divest": 4774,
      "null": 4775,
      "unique": 4776,
      "hu": 4777,
      "aquat": 4778,
      "door": 4779,
      "bay": 4780,
      "dis": 4781,
      "bell": 4782,
      "##les": 4783,
      "crude": 4784,
      "tried": 4785,
      "mal": 4786,
      "##ipo": 4787,
      "312": 4788,
      "303": 4789,
      "mis": 4790,
      "replies": 4791,
      "bona": 4792,
      "refusing": 4793,
      "crimes": 4794,
      "##mb": 4795,
      "diseases": 4796,
      "wrongful": 4797,
      "##mp": 4798,
      "apple": 4799,
      "deferral": 4800,
      "186": 4801,
      "228": 4802,
      "##ated": 4803,
      "negotiated": 4804,
      "quick": 4805,
      "##ster": 4806,
      "smaller": 4807,
      "##ative": 4808,
      "horizontal": 4809,
      "scrap": 4810,
      "procure": 4811,
      "hill": 4812,
      "carolina": 4813,
      "switch": 4814,
      "annually": 4815,
      "cloth": 4816,
      "thence": 4817,
      "##ets": 4818,
      "confusion": 4819,
      "##per": 4820,
      "##ties": 4821,
      "318": 4822,
      "forced": 4823,
      "stone": 4824,
      "##con": 4825,
      "1965": 4826,
      "##ak": 4827,
      "ease": 4828,
      "charles": 4829,
      "221": 4830,
      "causal": 4831,
      "##fer": 4832,
      "residual": 4833,
      "pure": 4834,
      "222": 4835,
      "resign": 4836,
      "fitted": 4837,
      "ships": 4838,
      "implication": 4839,
      "lands": 4840,
      "##will": 4841,
      "bind": 4842,
      "sensitive": 4843,
      "236": 4844,
      "maker": 4845,
      "accessible": 4846,
      "##tech": 4847,
      "inherent": 4848,
      "residents": 4849,
      "distributors": 4850,
      "punitive": 4851,
      "lodging": 4852,
      "##ano": 4853,
      "knitt": 4854,
      "governance": 4855,
      "resolutions": 4856,
      "litre": 4857,
      "authorise": 4858,
      "pan": 4859,
      "warning": 4860,
      "capacities": 4861,
      "188": 4862,
      "320": 4863,
      "##001": 4864,
      "##idae": 4865,
      "profession": 4866,
      "inside": 4867,
      "breakdown": 4868,
      "##of": 4869,
      "joseph": 4870,
      "##dg": 4871,
      "navigation": 4872,
      "msc": 4873,
      "terrorism": 4874,
      "culture": 4875,
      "defaulted": 4876,
      "tenth": 4877,
      "fide": 4878,
      "ceases": 4879,
      "##stone": 4880,
      "assignments": 4881,
      "improved": 4882,
      "consultations": 4883,
      "successive": 4884,
      "wrong": 4885,
      "determinations": 4886,
      "frontier": 4887,
      "den": 4888,
      "pensions": 4889,
      "paris": 4890,
      "347": 4891,
      "protest": 4892,
      "instructed": 4893,
      "crew": 4894,
      "undermine": 4895,
      "dispatch": 4896,
      "knowingly": 4897,
      "merged": 4898,
      "sheep": 4899,
      "submitting": 4900,
      "195": 4901,
      "purely": 4902,
      "que": 4903,
      "reparation": 4904,
      "fell": 4905,
      "relies": 4906,
      "disorder": 4907,
      "expect": 4908,
      "night": 4909,
      "distortion": 4910,
      "501": 4911,
      "harmonis": 4912,
      "circular": 4913,
      "width": 4914,
      "ethyl": 4915,
      "massachusetts": 4916,
      "kw": 4917,
      "valley": 4918,
      "##niture": 4919,
      "plural": 4920,
      "adding": 4921,
      "239": 4922,
      "##veal": 4923,
      "band": 4924,
      "##oxide": 4925,
      "suspected": 4926,
      "ob": 4927,
      "##004": 4928,
      "usual": 4929,
      "hedg": 4930,
      "african": 4931,
      "newly": 4932,
      "installed": 4933,
      "##18": 4934,
      "424": 4935,
      "sh": 4936,
      "##fen": 4937,
      "swing": 4938,
      "tsi": 4939,
      "mu": 4940,
      "jurisdictions": 4941,
      "belief": 4942,
      "constructed": 4943,
      "##ethylene": 4944,
      "217": 4945,
      "jean": 4946,
      "rep": 4947,
      "artificial": 4948,
      "payroll": 4949,
      "disregard": 4950,
      "protein": 4951,
      "male": 4952,
      "ka": 4953,
      "firearm": 4954,
      "boy": 4955,
      "depreciation": 4956,
      "##tex": 4957,
      "redacte": 4958,
      "forming": 4959,
      "0001": 4960,
      "##op": 4961,
      "indian": 4962,
      "declaring": 4963,
      "citi": 4964,
      "suggests": 4965,
      "cohesi": 4966,
      "##ten": 4967,
      "interior": 4968,
      "concurrently": 4969,
      "fibre": 4970,
      "harmful": 4971,
      "deposition": 4972,
      "appearing": 4973,
      "223": 4974,
      "observance": 4975,
      "novo": 4976,
      "freely": 4977,
      "##28": 4978,
      "rsu": 4979,
      "clarity": 4980,
      "bears": 4981,
      "educational": 4982,
      "exploit": 4983,
      "cv": 4984,
      "float": 4985,
      "george": 4986,
      "expand": 4987,
      "presumed": 4988,
      "305": 4989,
      "guide": 4990,
      "merit": 4991,
      "extracts": 4992,
      "student": 4993,
      "parameters": 4994,
      "entitle": 4995,
      "inspector": 4996,
      "251": 4997,
      "historical": 4998,
      "macro": 4999,
      "lives": 5000,
      "achiev": 5001,
      "levie": 5002,
      "194": 5003,
      "web": 5004,
      "biological": 5005,
      "fitting": 5006,
      "attributed": 5007,
      "whichever": 5008,
      "prospects": 5009,
      "potentially": 5010,
      "equipped": 5011,
      "pr": 5012,
      "##bus": 5013,
      "265": 5014,
      "deficiencies": 5015,
      "232": 5016,
      "sanction": 5017,
      "##chlor": 5018,
      "prohibits": 5019,
      "remarketing": 5020,
      "stake": 5021,
      "fight": 5022,
      "tra": 5023,
      "medicine": 5024,
      "ko": 5025,
      "sometimes": 5026,
      "val": 5027,
      "joinder": 5028,
      "concluding": 5029,
      "aero": 5030,
      "channel": 5031,
      "temporarily": 5032,
      "231": 5033,
      "apartment": 5034,
      "disable": 5035,
      "inclusive": 5036,
      "meal": 5037,
      "foster": 5038,
      "frequently": 5039,
      "treasurer": 5040,
      "wheel": 5041,
      "##21": 5042,
      "alj": 5043,
      "irreparabl": 5044,
      "##16": 5045,
      "##4064": 5046,
      "325": 5047,
      "conditioned": 5048,
      "fleet": 5049,
      "gb": 5050,
      "340": 5051,
      "nation": 5052,
      "supersedes": 5053,
      "ci": 5054,
      "expansion": 5055,
      "##air": 5056,
      "beverage": 5057,
      "objects": 5058,
      "fill": 5059,
      "michigan": 5060,
      "az": 5061,
      "016": 5062,
      "gun": 5063,
      "frank": 5064,
      "##stuff": 5065,
      "##ez": 5066,
      "##0301": 5067,
      "decides": 5068,
      "opposite": 5069,
      "frame": 5070,
      "##reclassification": 5071,
      "gravit": 5072,
      "242": 5073,
      "investigative": 5074,
      "college": 5075,
      "prohibiting": 5076,
      "altered": 5077,
      "defective": 5078,
      "corrective": 5079,
      "stages": 5080,
      "irish": 5081,
      "passport": 5082,
      "suspect": 5083,
      "answered": 5084,
      "hear": 5085,
      "terminat": 5086,
      "diameter": 5087,
      "coast": 5088,
      "275": 5089,
      "larger": 5090,
      "338": 5091,
      "198": 5092,
      "unrelated": 5093,
      "ceased": 5094,
      "lake": 5095,
      "timing": 5096,
      "pe": 5097,
      "editorial": 5098,
      "sir": 5099,
      "##holders": 5100,
      "inability": 5101,
      "let": 5102,
      "##adequac": 5103,
      "reasonableness": 5104,
      "explor": 5105,
      "salaries": 5106,
      "##304": 5107,
      "proven": 5108,
      "##2000": 5109,
      "241": 5110,
      "256": 5111,
      "solar": 5112,
      "automobile": 5113,
      "illness": 5114,
      "harmonised": 5115,
      "documentary": 5116,
      "##iland": 5117,
      "wool": 5118,
      "copper": 5119,
      "##ial": 5120,
      "truck": 5121,
      "significan": 5122,
      "steer": 5123,
      "chair": 5124,
      "197": 5125,
      "##rolled": 5126,
      "anderson": 5127,
      "transferable": 5128,
      "genetic": 5129,
      "irregularities": 5130,
      "societ": 5131,
      "welcomes": 5132,
      "reversed": 5133,
      "easily": 5134,
      "coated": 5135,
      "alumini": 5136,
      "255": 5137,
      "recognize": 5138,
      "hydrogen": 5139,
      "decline": 5140,
      "impaired": 5141,
      "##iness": 5142,
      "362": 5143,
      "satisfie": 5144,
      "approximation": 5145,
      "298": 5146,
      "##side": 5147,
      "minority": 5148,
      "247": 5149,
      "199": 5150,
      "surety": 5151,
      "opposed": 5152,
      "0000": 5153,
      "indicati": 5154,
      "550": 5155,
      "454": 5156,
      "computed": 5157,
      "tool": 5158,
      "ac": 5159,
      "##que": 5160,
      "chill": 5161,
      "exempted": 5162,
      "utiliz": 5163,
      "281": 5164,
      "scrutiny": 5165,
      "282": 5166,
      "405": 5167,
      "##ola": 5168,
      "reaching": 5169,
      "sar": 5170,
      "trailer": 5171,
      "appellees": 5172,
      "##out": 5173,
      "prisoner": 5174,
      "replied": 5175,
      "skimm": 5176,
      "249": 5177,
      "subcontract": 5178,
      "accruing": 5179,
      "rose": 5180,
      "occupation": 5181,
      "1234": 5182,
      "##more": 5183,
      "fixture": 5184,
      "arose": 5185,
      "nov": 5186,
      "preparatory": 5187,
      "330": 5188,
      "##40": 5189,
      "543": 5190,
      "196": 5191,
      "atty": 5192,
      "unconditional": 5193,
      "##efta": 5194,
      "319": 5195,
      "335": 5196,
      "moratorium": 5197,
      "aff": 5198,
      "bracket": 5199,
      "ter": 5200,
      "hydroxy": 5201,
      "accredit": 5202,
      "##ole": 5203,
      "ndeg": 5204,
      "##bach": 5205,
      "casualty": 5206,
      "290": 5207,
      "accord": 5208,
      "308": 5209,
      "eye": 5210,
      "spring": 5211,
      "merchandise": 5212,
      "unrestricted": 5213,
      "demonstration": 5214,
      "##ocational": 5215,
      "tape": 5216,
      "##care": 5217,
      "xiii": 5218,
      "goals": 5219,
      "undisputed": 5220,
      "chance": 5221,
      "cy": 5222,
      "bilateral": 5223,
      "##im": 5224,
      "arrived": 5225,
      "smes": 5226,
      "safeguards": 5227,
      "louis": 5228,
      "colorado": 5229,
      "##ada": 5230,
      "plates": 5231,
      "cards": 5232,
      "238": 5233,
      "profile": 5234,
      "differ": 5235,
      "##je": 5236,
      "tenants": 5237,
      "uncertainty": 5238,
      "##healthcare": 5239,
      "expertise": 5240,
      "219": 5241,
      "height": 5242,
      "singular": 5243,
      "sentences": 5244,
      "##rolling": 5245,
      "tetra": 5246,
      "describing": 5247,
      "entrusted": 5248,
      "telex": 5249,
      "layer": 5250,
      "##ices": 5251,
      "confirming": 5252,
      "262": 5253,
      "leg": 5254,
      "secretariat": 5255,
      "von": 5256,
      "race": 5257,
      "invoked": 5258,
      "##propy": 5259,
      "derive": 5260,
      "chase": 5261,
      "middle": 5262,
      "geo": 5263,
      "fear": 5264,
      "##50": 5265,
      "##ll": 5266,
      "##ose": 5267,
      "252": 5268,
      "##amide": 5269,
      "negligent": 5270,
      "purported": 5271,
      "brake": 5272,
      "227": 5273,
      "wait": 5274,
      "missing": 5275,
      "263": 5276,
      "auditor": 5277,
      "bia": 5278,
      "313": 5279,
      "adaptation": 5280,
      "267": 5281,
      "ap": 5282,
      "possibly": 5283,
      "233": 5284,
      "birds": 5285,
      "observation": 5286,
      "strategi": 5287,
      "cor": 5288,
      "subordinate": 5289,
      "##off": 5290,
      "375": 5291,
      "esp": 5292,
      "ready": 5293,
      "bankr": 5294,
      "fda": 5295,
      "inmates": 5296,
      "297": 5297,
      "guideline": 5298,
      "outset": 5299,
      "distress": 5300,
      "229": 5301,
      "xiv": 5302,
      "detection": 5303,
      "benchmark": 5304,
      "mitigation": 5305,
      "mezzanin": 5306,
      "245": 5307,
      "visits": 5308,
      "accomplish": 5309,
      "easement": 5310,
      "inspect": 5311,
      "testify": 5312,
      "##ochet": 5313,
      "transferr": 5314,
      "assumes": 5315,
      "detect": 5316,
      "hybrid": 5317,
      "clerk": 5318,
      "recipients": 5319,
      "mel": 5320,
      "##ommercialization": 5321,
      "broadcasting": 5322,
      "##daq": 5323,
      "undu": 5324,
      "channels": 5325,
      "##for": 5326,
      "authorising": 5327,
      "recoverable": 5328,
      "england": 5329,
      "##cious": 5330,
      "twice": 5331,
      "clarify": 5332,
      "terrorist": 5333,
      "carefully": 5334,
      "exit": 5335,
      "wa": 5336,
      "261": 5337,
      "pooling": 5338,
      "var": 5339,
      "instances": 5340,
      "operates": 5341,
      "solvent": 5342,
      "cite": 5343,
      "reaction": 5344,
      "acknowledgment": 5345,
      "accrual": 5346,
      "lodge": 5347,
      "rents": 5348,
      "##25": 5349,
      "intervene": 5350,
      "510": 5351,
      "restoration": 5352,
      "357": 5353,
      "enforcing": 5354,
      "##wear": 5355,
      "engagement": 5356,
      "addressee": 5357,
      "tissue": 5358,
      "continuance": 5359,
      "##ist": 5360,
      "##ici": 5361,
      "families": 5362,
      "243": 5363,
      "ombudsman": 5364,
      "257": 5365,
      "259": 5366,
      "urban": 5367,
      "graphic": 5368,
      "subsidi": 5369,
      "mood": 5370,
      "compel": 5371,
      "rico": 5372,
      "complexity": 5373,
      "resort": 5374,
      "authenticate": 5375,
      "trend": 5376,
      "citation": 5377,
      "incumbent": 5378,
      "arbitrators": 5379,
      "patients": 5380,
      "396": 5381,
      "015": 5382,
      "indemnitor": 5383,
      "deliverable": 5384,
      "gap": 5385,
      "remic": 5386,
      "col": 5387,
      "317": 5388,
      "saint": 5389,
      "##ach": 5390,
      "ccp": 5391,
      "africa": 5392,
      "##goes": 5393,
      "##glucos": 5394,
      "415": 5395,
      "##tested": 5396,
      "uni": 5397,
      "permitting": 5398,
      "finder": 5399,
      "307": 5400,
      "dissenting": 5401,
      "credibility": 5402,
      "transparent": 5403,
      "raises": 5404,
      "amortization": 5405,
      "firstly": 5406,
      "leather": 5407,
      "condemnation": 5408,
      "vacation": 5409,
      "650": 5410,
      "projection": 5411,
      "corresponds": 5412,
      "degrading": 5413,
      "315": 5414,
      "defin": 5415,
      "##tz": 5416,
      "detainees": 5417,
      "packages": 5418,
      "moore": 5419,
      "contributing": 5420,
      "diese": 5421,
      "402": 5422,
      "utilisation": 5423,
      "usage": 5424,
      "discover": 5425,
      "dilution": 5426,
      "restitution": 5427,
      "##hai": 5428,
      "bars": 5429,
      "transported": 5430,
      "ought": 5431,
      "mit": 5432,
      "resource": 5433,
      "harris": 5434,
      "304": 5435,
      "gi": 5436,
      "##mo": 5437,
      "arguing": 5438,
      "##filled": 5439,
      "314": 5440,
      "cutting": 5441,
      "stolen": 5442,
      "##15": 5443,
      "asserting": 5444,
      "1961": 5445,
      "unilateral": 5446,
      "pu": 5447,
      "missouri": 5448,
      "curia": 5449,
      "seizure": 5450,
      "quashed": 5451,
      "enjoyment": 5452,
      "citations": 5453,
      "##enforceability": 5454,
      "complain": 5455,
      "peter": 5456,
      "477": 5457,
      "258": 5458,
      "343": 5459,
      "compensated": 5460,
      "computation": 5461,
      "##charging": 5462,
      "attack": 5463,
      "monies": 5464,
      "foreseeable": 5465,
      "##ncb": 5466,
      "challenging": 5467,
      "nonetheless": 5468,
      "stressed": 5469,
      "tail": 5470,
      "bus": 5471,
      "defines": 5472,
      "revealed": 5473,
      "abandoned": 5474,
      "payee": 5475,
      "marriage": 5476,
      "realized": 5477,
      "##ale": 5478,
      "295": 5479,
      "recycl": 5480,
      "##ical": 5481,
      "prosecute": 5482,
      "mot": 5483,
      "##13": 5484,
      "migration": 5485,
      "disregarded": 5486,
      "thought": 5487,
      "nim": 5488,
      "328": 5489,
      "compare": 5490,
      "theft": 5491,
      "schen": 5492,
      "systematic": 5493,
      "468": 5494,
      "384": 5495,
      "map": 5496,
      "valve": 5497,
      "##ates": 5498,
      "523": 5499,
      "interface": 5500,
      "silver": 5501,
      "425": 5502,
      "##011": 5503,
      "continent": 5504,
      "##den": 5505,
      "##008": 5506,
      "coordinate": 5507,
      "monopol": 5508,
      "gase": 5509,
      "enhancement": 5510,
      "288": 5511,
      "flood": 5512,
      "cleaning": 5513,
      "##mer": 5514,
      "combusti": 5515,
      "327": 5516,
      "contacts": 5517,
      "misuse": 5518,
      "##ene": 5519,
      "296": 5520,
      "sweet": 5521,
      "gar": 5522,
      "eco": 5523,
      "har": 5524,
      "##ides": 5525,
      "horse": 5526,
      "inhuman": 5527,
      "050": 5528,
      "female": 5529,
      "##much": 5530,
      "##17": 5531,
      "epa": 5532,
      "religion": 5533,
      "outer": 5534,
      "##head": 5535,
      "322": 5536,
      "##glyc": 5537,
      "##recapitalization": 5538,
      "tyre": 5539,
      "entail": 5540,
      "ibid": 5541,
      "gmin": 5542,
      "dip": 5543,
      "311": 5544,
      "inappropriate": 5545,
      "mortgagee": 5546,
      "liver": 5547,
      "##lton": 5548,
      "daughter": 5549,
      "##her": 5550,
      "##kin": 5551,
      "271": 5552,
      "spectr": 5553,
      "ke": 5554,
      "relatives": 5555,
      "nominate": 5556,
      "actively": 5557,
      "##0406": 5558,
      "285": 5559,
      "##350": 5560,
      "1958": 5561,
      "speech": 5562,
      "angle": 5563,
      "##ew": 5564,
      "exposed": 5565,
      "invested": 5566,
      "tex": 5567,
      "349": 5568,
      "evaluating": 5569,
      "ebitda": 5570,
      "##ell": 5571,
      "win": 5572,
      "accessori": 5573,
      "391": 5574,
      "satellite": 5575,
      "bo": 5576,
      "club": 5577,
      "truth": 5578,
      "mono": 5579,
      "liquidator": 5580,
      "surrounding": 5581,
      "##006": 5582,
      "goat": 5583,
      "##authorized": 5584,
      "##tel": 5585,
      "##active": 5586,
      "perfection": 5587,
      "specimen": 5588,
      "stayed": 5589,
      "alliance": 5590,
      "##rounded": 5591,
      "chi": 5592,
      "seriously": 5593,
      "lv": 5594,
      "804": 5595,
      "agenda": 5596,
      "sal": 5597,
      "##edible": 5598,
      "unavail": 5599,
      "rich": 5600,
      "larges": 5601,
      "contemporaneous": 5602,
      "##ester": 5603,
      "buil": 5604,
      "oppose": 5605,
      "army": 5606,
      "##fal": 5607,
      "merc": 5608,
      "generic": 5609,
      "unvested": 5610,
      "244": 5611,
      "multilateral": 5612,
      "psychiatric": 5613,
      "symbol": 5614,
      "##hz": 5615,
      "broadcast": 5616,
      "repeatedly": 5617,
      "##22": 5618,
      "commander": 5619,
      "encounter": 5620,
      "##mar": 5621,
      "impugned": 5622,
      "indonesia": 5623,
      "permanently": 5624,
      "hall": 5625,
      "##shire": 5626,
      "bg": 5627,
      "sur": 5628,
      "254": 5629,
      "reliability": 5630,
      "294": 5631,
      "266": 5632,
      "nav": 5633,
      "securitization": 5634,
      "284": 5635,
      "confined": 5636,
      "cit": 5637,
      "reflects": 5638,
      "287": 5639,
      "jackson": 5640,
      "filter": 5641,
      "diversity": 5642,
      "students": 5643,
      "outlined": 5644,
      "enjoin": 5645,
      "remit": 5646,
      "ho": 5647,
      "283": 5648,
      "connect": 5649,
      "examinations": 5650,
      "behind": 5651,
      "drilling": 5652,
      "player": 5653,
      "annulled": 5654,
      "##lk": 5655,
      "plc": 5656,
      "1960": 5657,
      "##007": 5658,
      "changing": 5659,
      "jet": 5660,
      "remanded": 5661,
      "peaceful": 5662,
      "sending": 5663,
      "meant": 5664,
      "insolvent": 5665,
      "infringe": 5666,
      "recruitment": 5667,
      "orange": 5668,
      "273": 5669,
      "lift": 5670,
      "borrowed": 5671,
      "dental": 5672,
      "##burg": 5673,
      "season": 5674,
      "stanley": 5675,
      "bat": 5676,
      "contingenc": 5677,
      "fairness": 5678,
      "don": 5679,
      "countervail": 5680,
      "##ze": 5681,
      "want": 5682,
      "tree": 5683,
      "deceased": 5684,
      "##cc": 5685,
      "sickness": 5686,
      "##due": 5687,
      "tractor": 5688,
      "officially": 5689,
      "engaging": 5690,
      "nearly": 5691,
      "enhance": 5692,
      "ij": 5693,
      "##2001": 5694,
      "nitrogen": 5695,
      "proposition": 5696,
      "##ski": 5697,
      "0207": 5698,
      "363": 5699,
      "368": 5700,
      "##ska": 5701,
      "pigs": 5702,
      "corpus": 5703,
      "examples": 5704,
      "tu": 5705,
      "faced": 5706,
      "avail": 5707,
      "petitioners": 5708,
      "##mm": 5709,
      "occupied": 5710,
      "##eib": 5711,
      "##0030": 5712,
      "earlie": 5713,
      "rejects": 5714,
      "dialogue": 5715,
      "mistake": 5716,
      "newco": 5717,
      "sunday": 5718,
      "wal": 5719,
      "indiana": 5720,
      "suc": 5721,
      "237": 5722,
      "nuts": 5723,
      "instalment": 5724,
      "color": 5725,
      "272": 5726,
      "264": 5727,
      "reside": 5728,
      "franz": 5729,
      "stakeholder": 5730,
      "documented": 5731,
      "photo": 5732,
      "louisiana": 5733,
      "distinctive": 5734,
      "felt": 5735,
      "pack": 5736,
      "354": 5737,
      "847": 5738,
      "remote": 5739,
      "pursuing": 5740,
      "helle": 5741,
      "whit": 5742,
      "##0010": 5743,
      "evident": 5744,
      "dairy": 5745,
      "juror": 5746,
      "flower": 5747,
      "heads": 5748,
      "370": 5749,
      "##ow": 5750,
      "girl": 5751,
      "parking": 5752,
      "##attle": 5753,
      "paras": 5754,
      "306": 5755,
      "visual": 5756,
      "largely": 5757,
      "physician": 5758,
      "migrant": 5759,
      "arrival": 5760,
      "constructive": 5761,
      "movements": 5762,
      "nord": 5763,
      "weapons": 5764,
      "promotional": 5765,
      "pleading": 5766,
      "principally": 5767,
      "##frs": 5768,
      "hinder": 5769,
      "ri": 5770,
      "336": 5771,
      "ali": 5772,
      "plate": 5773,
      "goal": 5774,
      "proving": 5775,
      "sw": 5776,
      "moldova": 5777,
      "358": 5778,
      "las": 5779,
      "restaurant": 5780,
      "aids": 5781,
      "grace": 5782,
      "yang": 5783,
      "arrange": 5784,
      "##organ": 5785,
      "ceilings": 5786,
      "consequential": 5787,
      "##berrie": 5788,
      "##rum": 5789,
      "wilson": 5790,
      "deep": 5791,
      "checked": 5792,
      "learning": 5793,
      "experienced": 5794,
      "pin": 5795,
      "peace": 5796,
      "##pore": 5797,
      "316": 5798,
      "prudential": 5799,
      "alert": 5800,
      "##alities": 5801,
      "433": 5802,
      "willing": 5803,
      "transmit": 5804,
      "tolerance": 5805,
      "scenario": 5806,
      "jpm": 5807,
      "pfi": 5808,
      "attempts": 5809,
      "spin": 5810,
      "1006": 5811,
      "collecting": 5812,
      "indefinite": 5813,
      "bas": 5814,
      "rape": 5815,
      "clark": 5816,
      "evaluated": 5817,
      "plead": 5818,
      "possessions": 5819,
      "coco": 5820,
      "disabilities": 5821,
      "rebate": 5822,
      "rescind": 5823,
      "cu": 5824,
      "moscow": 5825,
      "imposes": 5826,
      "inference": 5827,
      "mobility": 5828,
      "292": 5829,
      "wi": 5830,
      "430": 5831,
      "mixe": 5832,
      "occupancy": 5833,
      "remitted": 5834,
      "disseminati": 5835,
      "cream": 5836,
      "miles": 5837,
      "extradition": 5838,
      "rulings": 5839,
      "321": 5840,
      "preservation": 5841,
      "##gericht": 5842,
      "cocaine": 5843,
      "reproduction": 5844,
      "269": 5845,
      "442": 5846,
      "incomplete": 5847,
      "comparative": 5848,
      "##nda": 5849,
      "hands": 5850,
      "alpha": 5851,
      "serial": 5852,
      "356": 5853,
      "chloro": 5854,
      "harassment": 5855,
      "coupon": 5856,
      "taiwan": 5857,
      "malt": 5858,
      "antitrust": 5859,
      "##seas": 5860,
      "412": 5861,
      "abroad": 5862,
      "israel": 5863,
      "mas": 5864,
      "remedial": 5865,
      "foods": 5866,
      "passing": 5867,
      "basket": 5868,
      "conventional": 5869,
      "fluid": 5870,
      "garment": 5871,
      "cct": 5872,
      "fuels": 5873,
      "mediterrane": 5874,
      "precaution": 5875,
      "##amt": 5876,
      "metres": 5877,
      "optical": 5878,
      "kansas": 5879,
      "clarification": 5880,
      "formally": 5881,
      "oxide": 5882,
      "observer": 5883,
      "##062": 5884,
      "farming": 5885,
      "395": 5886,
      "asking": 5887,
      "texts": 5888,
      "pour": 5889,
      "trace": 5890,
      "daniel": 5891,
      "##iv": 5892,
      "331": 5893,
      "540": 5894,
      "403": 5895,
      "respondents": 5896,
      "church": 5897,
      "reflecting": 5898,
      "mediation": 5899,
      "341": 5900,
      "##fluoro": 5901,
      "guardian": 5902,
      "291": 5903,
      "facilitat": 5904,
      "disadvantage": 5905,
      "acknowledgement": 5906,
      "##ke": 5907,
      "293": 5908,
      "278": 5909,
      "valle": 5910,
      "viewed": 5911,
      "416": 5912,
      "build": 5913,
      "accorded": 5914,
      "##chi": 5915,
      "##ological": 5916,
      "bottle": 5917,
      "mem": 5918,
      "##tory": 5919,
      "separated": 5920,
      "axle": 5921,
      "850": 5922,
      "diagnostic": 5923,
      "founder": 5924,
      "mountain": 5925,
      "##amine": 5926,
      "franchisee": 5927,
      "309": 5928,
      "publicity": 5929,
      "subsystem": 5930,
      "spare": 5931,
      "rejecting": 5932,
      "brokers": 5933,
      "##ating": 5934,
      "newspaper": 5935,
      "iceland": 5936,
      "rio": 5937,
      "##vision": 5938,
      "##36": 5939,
      "branches": 5940,
      "366": 5941,
      "notifies": 5942,
      "gm": 5943,
      "sort": 5944,
      "hoc": 5945,
      "324": 5946,
      "today": 5947,
      "corrig": 5948,
      "defaults": 5949,
      "462": 5950,
      "374": 5951,
      "subrogation": 5952,
      "polymer": 5953,
      "iran": 5954,
      "alien": 5955,
      "pm": 5956,
      "##rmal": 5957,
      "sud": 5958,
      "##capacity": 5959,
      "##ism": 5960,
      "cook": 5961,
      "traffick": 5962,
      "banker": 5963,
      "addressing": 5964,
      "resistance": 5965,
      "initiat": 5966,
      "411": 5967,
      "279": 5968,
      "effectuate": 5969,
      "extremely": 5970,
      "elapsed": 5971,
      "##nie": 5972,
      "422": 5973,
      "inquiri": 5974,
      "ventures": 5975,
      "restore": 5976,
      "enhanced": 5977,
      "holdco": 5978,
      "objectively": 5979,
      "formulation": 5980,
      "unlawfully": 5981,
      "objected": 5982,
      "246": 5983,
      "##dollar": 5984,
      "lad": 5985,
      "323": 5986,
      "silicon": 5987,
      "else": 5988,
      "toilet": 5989,
      "stable": 5990,
      "camp": 5991,
      "steam": 5992,
      "##stein": 5993,
      "readily": 5994,
      "352": 5995,
      "hi": 5996,
      "410": 5997,
      "ferro": 5998,
      "interruption": 5999,
      "doctors": 6000,
      "earth": 6001,
      "453": 6002,
      "analogous": 6003,
      "familiar": 6004,
      "##validation": 6005,
      "440": 6006,
      "stress": 6007,
      "crucial": 6008,
      "##eta": 6009,
      "declarator": 6010,
      "bought": 6011,
      "palm": 6012,
      "interconnection": 6013,
      "links": 6014,
      "##rose": 6015,
      "329": 6016,
      "outlet": 6017,
      "##ado": 6018,
      "treating": 6019,
      "chronic": 6020,
      "ordering": 6021,
      "##aux": 6022,
      "##ki": 6023,
      "##nes": 6024,
      "dye": 6025,
      "276": 6026,
      "peak": 6027,
      "sme": 6028,
      "stands": 6029,
      "edge": 6030,
      "supersede": 6031,
      "analog": 6032,
      "investigators": 6033,
      "overlap": 6034,
      "idea": 6035,
      "seized": 6036,
      "unused": 6037,
      "omni": 6038,
      "juice": 6039,
      "simplified": 6040,
      "##vard": 6041,
      "adjudication": 6042,
      "##gg": 6043,
      "hir": 6044,
      "649": 6045,
      "piece": 6046,
      "sued": 6047,
      "1940": 6048,
      "1957": 6049,
      "purport": 6050,
      "probably": 6051,
      "##301": 6052,
      "brokerage": 6053,
      "elimination": 6054,
      "consistency": 6055,
      "supervised": 6056,
      "consign": 6057,
      "weekly": 6058,
      "443": 6059,
      "administer": 6060,
      "351": 6061,
      "crossing": 6062,
      "rec": 6063,
      "##ile": 6064,
      "380": 6065,
      "furtherance": 6066,
      "virus": 6067,
      "##residing": 6068,
      "declined": 6069,
      "selective": 6070,
      "forma": 6071,
      "rodriguez": 6072,
      "##tes": 6073,
      "390": 6074,
      "intervals": 6075,
      "ratifie": 6076,
      "discontinued": 6077,
      "fever": 6078,
      "entitlements": 6079,
      "reconciliation": 6080,
      "convictions": 6081,
      "##wa": 6082,
      "advertisement": 6083,
      "felony": 6084,
      "deprive": 6085,
      "expires": 6086,
      "prudent": 6087,
      "incorporat": 6088,
      "##sky": 6089,
      "502": 6090,
      "##eau": 6091,
      "rendering": 6092,
      "serbia": 6093,
      "houston": 6094,
      "forensic": 6095,
      "directions": 6096,
      "286": 6097,
      "##ala": 6098,
      "326": 6099,
      "currenc": 6100,
      "quantum": 6101,
      "career": 6102,
      "noise": 6103,
      "rational": 6104,
      "ports": 6105,
      "stem": 6106,
      "banc": 6107,
      "corrections": 6108,
      "conceal": 6109,
      "dedicate": 6110,
      "##elles": 6111,
      "offender": 6112,
      "sul": 6113,
      "barriers": 6114,
      "##tte": 6115,
      "eleventh": 6116,
      "hy": 6117,
      "274": 6118,
      "##ego": 6119,
      "drink": 6120,
      "jose": 6121,
      "conflicting": 6122,
      "practising": 6123,
      "restraint": 6124,
      "brother": 6125,
      "santa": 6126,
      "retaliation": 6127,
      "289": 6128,
      "screen": 6129,
      "citizenship": 6130,
      "doe": 6131,
      "music": 6132,
      "tag": 6133,
      "denominate": 6134,
      "proprietor": 6135,
      "feature": 6136,
      "ammoni": 6137,
      "sovereign": 6138,
      "575": 6139,
      "##30": 6140,
      "##relocation": 6141,
      "pursuit": 6142,
      "replacing": 6143,
      "stipulate": 6144,
      "furnishing": 6145,
      "ensured": 6146,
      "shortly": 6147,
      "##bar": 6148,
      "morris": 6149,
      "taylor": 6150,
      "obviously": 6151,
      "exchanges": 6152,
      "youth": 6153,
      "345": 6154,
      "flour": 6155,
      "364": 6156,
      "duplication": 6157,
      "surveys": 6158,
      "habitat": 6159,
      "moral": 6160,
      "something": 6161,
      "predominant": 6162,
      "##indemnities": 6163,
      "zinc": 6164,
      "abstract": 6165,
      "asbestos": 6166,
      "edward": 6167,
      "timber": 6168,
      "trials": 6169,
      "gu": 6170,
      "distinguished": 6171,
      "laundering": 6172,
      "332": 6173,
      "ww": 6174,
      "wrote": 6175,
      "##sch": 6176,
      "277": 6177,
      "sublease": 6178,
      "348": 6179,
      "sure": 6180,
      "severity": 6181,
      "nu": 6182,
      "##709": 6183,
      "disclosures": 6184,
      "##endum": 6185,
      "contaminati": 6186,
      "coordinated": 6187,
      "eeo": 6188,
      "##urgenc": 6189,
      "524": 6190,
      "548": 6191,
      "##all": 6192,
      "unload": 6193,
      "saturday": 6194,
      "utilit": 6195,
      "escape": 6196,
      "window": 6197,
      "amino": 6198,
      "##410": 6199,
      "deportation": 6200,
      "speak": 6201,
      "tomato": 6202,
      "432": 6203,
      "ky": 6204,
      "reinforce": 6205,
      "sports": 6206,
      "deductible": 6207,
      "slovak": 6208,
      "##ssier": 6209,
      "rank": 6210,
      "leaf": 6211,
      "mature": 6212,
      "tower": 6213,
      "dismissing": 6214,
      "pri": 6215,
      "toward": 6216,
      "##ote": 6217,
      "659": 6218,
      "corn": 6219,
      "baker": 6220,
      "arizona": 6221,
      "arc": 6222,
      "##irl": 6223,
      "bundes": 6224,
      "governor": 6225,
      "##ck": 6226,
      "accurately": 6227,
      "injection": 6228,
      "row": 6229,
      "ambiguit": 6230,
      "builder": 6231,
      "explosive": 6232,
      "boxe": 6233,
      "acquis": 6234,
      "##0808": 6235,
      "responded": 6236,
      "408": 6237,
      "unlimited": 6238,
      "precluded": 6239,
      "lots": 6240,
      "evidentiary": 6241,
      "commonly": 6242,
      "authentication": 6243,
      "vital": 6244,
      "ministers": 6245,
      "adjourned": 6246,
      "kar": 6247,
      "opt": 6248,
      "gram": 6249,
      "douglas": 6250,
      "highway": 6251,
      "says": 6252,
      "##tia": 6253,
      "subpoena": 6254,
      "##anana": 6255,
      "implies": 6256,
      "weighting": 6257,
      "perhaps": 6258,
      "harmoniz": 6259,
      "##00000": 6260,
      "##phenyl": 6261,
      "boston": 6262,
      "iowa": 6263,
      "underline": 6264,
      "parliamentary": 6265,
      "mouth": 6266,
      "ox": 6267,
      "dose": 6268,
      "posted": 6269,
      "##2003": 6270,
      "unusual": 6271,
      "schools": 6272,
      "successfully": 6273,
      "##pdo": 6274,
      "420": 6275,
      "kh": 6276,
      "574": 6277,
      "ryan": 6278,
      "cement": 6279,
      "allocate": 6280,
      "digit": 6281,
      "ki": 6282,
      "guard": 6283,
      "bosnia": 6284,
      "sphere": 6285,
      "371": 6286,
      "##rue": 6287,
      "bottom": 6288,
      "##aria": 6289,
      "lie": 6290,
      "chambers": 6291,
      "##led": 6292,
      "552": 6293,
      "##zion": 6294,
      "inferences": 6295,
      "afghanistan": 6296,
      "##gistrarpresident": 6297,
      "beam": 6298,
      "repeat": 6299,
      "##xyl": 6300,
      "tim": 6301,
      "##pinco": 6302,
      "allen": 6303,
      "950": 6304,
      "376": 6305,
      "deviation": 6306,
      "salmon": 6307,
      "killed": 6308,
      "##fo": 6309,
      "429": 6310,
      "wanted": 6311,
      "520": 6312,
      "lit": 6313,
      "merge": 6314,
      "sides": 6315,
      "##ber": 6316,
      "353": 6317,
      "##ix": 6318,
      "attach": 6319,
      "##unconstitutional": 6320,
      "##admissibility": 6321,
      "wilm": 6322,
      "desired": 6323,
      "361": 6324,
      "morocc": 6325,
      "watch": 6326,
      "utilized": 6327,
      "accountant": 6328,
      "359": 6329,
      "##enko": 6330,
      "died": 6331,
      "flavo": 6332,
      "475": 6333,
      "pur": 6334,
      "tennessee": 6335,
      "##23": 6336,
      "atomic": 6337,
      "write": 6338,
      "inducement": 6339,
      "1605": 6340,
      "uruguay": 6341,
      "putting": 6342,
      "ball": 6343,
      "##0101": 6344,
      "voltage": 6345,
      "amongst": 6346,
      "334": 6347,
      "346": 6348,
      "plot": 6349,
      "pulp": 6350,
      "certifie": 6351,
      "explicit": 6352,
      "373": 6353,
      "foreseen": 6354,
      "assault": 6355,
      "thing": 6356,
      "lacked": 6357,
      "##ethyl": 6358,
      "publishing": 6359,
      "##space": 6360,
      "nickel": 6361,
      "securityholder": 6362,
      "earn": 6363,
      "##national": 6364,
      "339": 6365,
      "syr": 6366,
      "generating": 6367,
      "tend": 6368,
      "combat": 6369,
      "1959": 6370,
      "##ria": 6371,
      "assure": 6372,
      "serves": 6373,
      "423": 6374,
      "exploitati": 6375,
      "guilt": 6376,
      "##ert": 6377,
      "affidavits": 6378,
      "sit": 6379,
      "jurisdictional": 6380,
      "abduction": 6381,
      "divid": 6382,
      "##axis": 6383,
      "rehabilitation": 6384,
      "##ball": 6385,
      "confinement": 6386,
      "##bean": 6387,
      "##annual": 6388,
      "dynamic": 6389,
      "suspending": 6390,
      "aug": 6391,
      "refiner": 6392,
      "607": 6393,
      "dist": 6394,
      "motors": 6395,
      "launch": 6396,
      "possibilities": 6397,
      "minerals": 6398,
      "leads": 6399,
      "aquacultur": 6400,
      "kentucky": 6401,
      "378": 6402,
      "ward": 6403,
      "feb": 6404,
      "annul": 6405,
      "shop": 6406,
      "unspecified": 6407,
      "transcript": 6408,
      "considerably": 6409,
      "honor": 6410,
      "oklahoma": 6411,
      "mor": 6412,
      "headquarters": 6413,
      "##res": 6414,
      "lasted": 6415,
      "##hu": 6416,
      "pose": 6417,
      "invoke": 6418,
      "oversight": 6419,
      "##jsc": 6420,
      "1107": 6421,
      "cylinder": 6422,
      "avoided": 6423,
      "stephen": 6424,
      "minnesota": 6425,
      "incidents": 6426,
      "brak": 6427,
      "flexibl": 6428,
      "adult": 6429,
      "logo": 6430,
      "minimis": 6431,
      "xv": 6432,
      "prescribe": 6433,
      "dan": 6434,
      "reiterated": 6435,
      "##rel": 6436,
      "##tra": 6437,
      "invite": 6438,
      "bu": 6439,
      "denominator": 6440,
      "##gh": 6441,
      "gaming": 6442,
      "adduced": 6443,
      "1956": 6444,
      "asia": 6445,
      "sublicensees": 6446,
      "mitigate": 6447,
      "tech": 6448,
      "367": 6449,
      "reality": 6450,
      "absolutely": 6451,
      "shield": 6452,
      "perspective": 6453,
      "##bert": 6454,
      "subscribe": 6455,
      "demonstrating": 6456,
      "sic": 6457,
      "science": 6458,
      "##po": 6459,
      "ratabl": 6460,
      "##ari": 6461,
      "lewis": 6462,
      "urgent": 6463,
      "nova": 6464,
      "delinquent": 6465,
      "japanese": 6466,
      "acquiror": 6467,
      "470": 6468,
      "convincing": 6469,
      "abolish": 6470,
      "batch": 6471,
      "528": 6472,
      "1954": 6473,
      "##ru": 6474,
      "diploma": 6475,
      "hit": 6476,
      "387": 6477,
      "innovative": 6478,
      "##iz": 6479,
      "disagreement": 6480,
      "pesticide": 6481,
      "peer": 6482,
      "nomination": 6483,
      "compar": 6484,
      "bases": 6485,
      "##lar": 6486,
      "ethan": 6487,
      "##317": 6488,
      "hectare": 6489,
      "undergo": 6490,
      "506": 6491,
      "386": 6492,
      "emotional": 6493,
      "cobra": 6494,
      "lose": 6495,
      "psychological": 6496,
      "specialist": 6497,
      "648": 6498,
      "436": 6499,
      "setoff": 6500,
      "nitrate": 6501,
      "##uc": 6502,
      "meth": 6503,
      "480": 6504,
      "sublicensee": 6505,
      "explanatory": 6506,
      "##0020": 6507,
      "disruption": 6508,
      "2204": 6509,
      "##rie": 6510,
      "mol": 6511,
      "imply": 6512,
      "discriminate": 6513,
      "fashion": 6514,
      "committees": 6515,
      "805": 6516,
      "ef": 6517,
      "##ost": 6518,
      "oak": 6519,
      "382": 6520,
      "civilian": 6521,
      "426": 6522,
      "immovab": 6523,
      "jordan": 6524,
      "342": 6525,
      "lett": 6526,
      "carries": 6527,
      "uncertain": 6528,
      "debit": 6529,
      "debate": 6530,
      "prop": 6531,
      "learned": 6532,
      "tuna": 6533,
      "##ken": 6534,
      "turning": 6535,
      "##tan": 6536,
      "detriment": 6537,
      "vacanc": 6538,
      "specifie": 6539,
      "435": 6540,
      "por": 6541,
      "##ich": 6542,
      "standby": 6543,
      "origination": 6544,
      "herzegovina": 6545,
      "504": 6546,
      "##beet": 6547,
      "coffee": 6548,
      "rub": 6549,
      "460": 6550,
      "tab": 6551,
      "calling": 6552,
      "379": 6553,
      "eliminated": 6554,
      "shortfall": 6555,
      "minute": 6556,
      "ways": 6557,
      "disturbance": 6558,
      "depth": 6559,
      "facto": 6560,
      "parity": 6561,
      "##itrus": 6562,
      "behavior": 6563,
      "enjoyed": 6564,
      "questioning": 6565,
      "defeas": 6566,
      "impartial": 6567,
      "gathering": 6568,
      "##38": 6569,
      "##ovych": 6570,
      "dam": 6571,
      "brands": 6572,
      "407": 6573,
      "392": 6574,
      "controller": 6575,
      "##mont": 6576,
      "extraction": 6577,
      "accumulated": 6578,
      "##vi": 6579,
      "pen": 6580,
      "remittance": 6581,
      "ku": 6582,
      "log": 6583,
      "domicile": 6584,
      "##oma": 6585,
      "compelling": 6586,
      "routine": 6587,
      "##ries": 6588,
      "625": 6589,
      "ocean": 6590,
      "deterioration": 6591,
      "corruption": 6592,
      "malay": 6593,
      "##ius": 6594,
      "thorough": 6595,
      "##actors": 6596,
      "344": 6597,
      "picture": 6598,
      "heart": 6599,
      "##mes": 6600,
      "9000": 6601,
      "383": 6602,
      "mart": 6603,
      "541": 6604,
      "pleaded": 6605,
      "1260": 6606,
      "justifying": 6607,
      "1000": 6608,
      "securit": 6609,
      "winter": 6610,
      "##bra": 6611,
      "gift": 6612,
      "##ines": 6613,
      "violent": 6614,
      "vine": 6615,
      "threats": 6616,
      "wider": 6617,
      "##sten": 6618,
      "##varti": 6619,
      "roma": 6620,
      "exactly": 6621,
      "##009": 6622,
      "pollutant": 6623,
      "precludes": 6624,
      "413": 6625,
      "generator": 6626,
      "robbery": 6627,
      "512": 6628,
      "parole": 6629,
      "continuity": 6630,
      "471": 6631,
      "characterize": 6632,
      "drop": 6633,
      "##51": 6634,
      "warranted": 6635,
      "cessat": 6636,
      "posting": 6637,
      "##ostat": 6638,
      "amounting": 6639,
      "improperly": 6640,
      "729": 6641,
      "balancing": 6642,
      "francisc": 6643,
      "##aire": 6644,
      "eighteen": 6645,
      "##zi": 6646,
      "slightly": 6647,
      "teacher": 6648,
      "han": 6649,
      "demonstrates": 6650,
      "unjustified": 6651,
      "417": 6652,
      "developer": 6653,
      "bodily": 6654,
      "intending": 6655,
      "intervener": 6656,
      "craft": 6657,
      "##gsk": 6658,
      "##ovich": 6659,
      "hypothetical": 6660,
      "respected": 6661,
      "numerator": 6662,
      "specialised": 6663,
      "diminish": 6664,
      "excuse": 6665,
      "impartiality": 6666,
      "kan": 6667,
      "bl": 6668,
      "multiplying": 6669,
      "preemptive": 6670,
      "##ker": 6671,
      "vacated": 6672,
      "##onate": 6673,
      "bruce": 6674,
      "1701": 6675,
      "040": 6676,
      "lies": 6677,
      "##26": 6678,
      "regulate": 6679,
      "385": 6680,
      "##wi": 6681,
      "##809": 6682,
      "humanitarian": 6683,
      "trends": 6684,
      "pakistan": 6685,
      "##azole": 6686,
      "exportation": 6687,
      "singa": 6688,
      "##hoe": 6689,
      "disappearance": 6690,
      "coastal": 6691,
      "372": 6692,
      "intensity": 6693,
      "##fin": 6694,
      "hired": 6695,
      "377": 6696,
      "gradual": 6697,
      "##S": 6698,
      "penn": 6699,
      "##ag": 6700,
      "pari": 6701,
      "reset": 6702,
      "examiner": 6703,
      "##thio": 6704,
      "voor": 6705,
      "##band": 6706,
      "veteran": 6707,
      "lived": 6708,
      "eric": 6709,
      "disagree": 6710,
      "dual": 6711,
      "466": 6712,
      "retired": 6713,
      "493": 6714,
      "pair": 6715,
      "macedonia": 6716,
      "voice": 6717,
      "##han": 6718,
      "europo": 6719,
      "##ped": 6720,
      "##are": 6721,
      "cab": 6722,
      "therapeutic": 6723,
      "penal": 6724,
      "rad": 6725,
      "virgin": 6726,
      "probability": 6727,
      "tell": 6728,
      "1955": 6729,
      "vulnerable": 6730,
      "ante": 6731,
      "##3000": 6732,
      "serv": 6733,
      "prescription": 6734,
      "##arily": 6735,
      "##uan": 6736,
      "conduit": 6737,
      "borders": 6738,
      "##fish": 6739,
      "architect": 6740,
      "##eller": 6741,
      "expulsion": 6742,
      "differently": 6743,
      "yellow": 6744,
      "##ston": 6745,
      "tract": 6746,
      "##jo": 6747,
      "carb": 6748,
      "electro": 6749,
      "enrich": 6750,
      "comprised": 6751,
      "manda": 6752,
      "jo": 6753,
      "alabama": 6754,
      "##life": 6755,
      "jun": 6756,
      "720": 6757,
      "##cases": 6758,
      "arrear": 6759,
      "##014": 6760,
      "mont": 6761,
      "credible": 6762,
      "dioxide": 6763,
      "ran": 6764,
      "informing": 6765,
      "billing": 6766,
      "610": 6767,
      "destroy": 6768,
      "scene": 6769,
      "662": 6770,
      "automated": 6771,
      "##eur": 6772,
      "percentages": 6773,
      "##tial": 6774,
      "conditioning": 6775,
      "822": 6776,
      "discipline": 6777,
      "formulate": 6778,
      "nat": 6779,
      "cong": 6780,
      "referral": 6781,
      "##cz": 6782,
      "thread": 6783,
      "lynch": 6784,
      "##ral": 6785,
      "denie": 6786,
      "lane": 6787,
      "966": 6788,
      "cord": 6789,
      "contravention": 6790,
      "explanations": 6791,
      "norwegian": 6792,
      "522": 6793,
      "characteristic": 6794,
      "ser": 6795,
      "##013": 6796,
      "bayer": 6797,
      "adjacen": 6798,
      "endanger": 6799,
      "densit": 6800,
      "transpose": 6801,
      "397": 6802,
      "467": 6803,
      "consolidate": 6804,
      "leader": 6805,
      "xx": 6806,
      "duplicate": 6807,
      "##ett": 6808,
      "wholesaler": 6809,
      "eventually": 6810,
      "grievance": 6811,
      "prosecuting": 6812,
      "ger": 6813,
      "ferment": 6814,
      "concepts": 6815,
      "##cia": 6816,
      "##exe": 6817,
      "transposition": 6818,
      "pub": 6819,
      "##alo": 6820,
      "sever": 6821,
      "##urges": 6822,
      "weather": 6823,
      "##iso": 6824,
      "##nik": 6825,
      "sensor": 6826,
      "fulfilment": 6827,
      "##pol": 6828,
      "breaching": 6829,
      "retailers": 6830,
      "trip": 6831,
      "economi": 6832,
      "sequence": 6833,
      "equ": 6834,
      "unchange": 6835,
      "gbp": 6836,
      "1001": 6837,
      "##urs": 6838,
      "summer": 6839,
      "disaster": 6840,
      "bailiff": 6841,
      "##ible": 6842,
      "389": 6843,
      "abandonment": 6844,
      "##ven": 6845,
      "inferred": 6846,
      "yugoslavia": 6847,
      "coating": 6848,
      "sha": 6849,
      "backed": 6850,
      "cont": 6851,
      "brita": 6852,
      "visible": 6853,
      "stopped": 6854,
      "525": 6855,
      "bor": 6856,
      "516": 6857,
      "##ascar": 6858,
      "template": 6859,
      "substitut": 6860,
      "wisconsin": 6861,
      "marshall": 6862,
      "friendly": 6863,
      "obstacles": 6864,
      "##down": 6865,
      "fixes": 6866,
      "wished": 6867,
      "##43": 6868,
      "prejudiced": 6869,
      "kn": 6870,
      "515": 6871,
      "sow": 6872,
      "1702": 6873,
      "struck": 6874,
      "##atory": 6875,
      "570": 6876,
      "##mmunities": 6877,
      "pine": 6878,
      "wright": 6879,
      "yugoslav": 6880,
      "zu": 6881,
      "857": 6882,
      "601": 6883,
      "ratification": 6884,
      "##schler": 6885,
      "##cal": 6886,
      "leverage": 6887,
      "caught": 6888,
      "sharp": 6889,
      "428": 6890,
      "big": 6891,
      "forbearance": 6892,
      "enroll": 6893,
      "##system": 6894,
      "445": 6895,
      "eradicati": 6896,
      "##24": 6897,
      "##bury": 6898,
      "369": 6899,
      "naphth": 6900,
      "431": 6901,
      "instrumentalit": 6902,
      "##una": 6903,
      "threaten": 6904,
      "##39": 6905,
      "##zo": 6906,
      "incorporate": 6907,
      "lan": 6908,
      "refin": 6909,
      "annuity": 6910,
      "comm": 6911,
      "outbreak": 6912,
      "sac": 6913,
      "horizon": 6914,
      "shot": 6915,
      "arranged": 6916,
      "straight": 6917,
      "bore": 6918,
      "conceded": 6919,
      "identifie": 6920,
      "beta": 6921,
      "corner": 6922,
      "intelligence": 6923,
      "curve": 6924,
      "exhaustive": 6925,
      "auxiliar": 6926,
      "phillips": 6927,
      "##cetate": 6928,
      "##eij": 6929,
      "##esters": 6930,
      "racial": 6931,
      "prospect": 6932,
      "##32002": 6933,
      "##rada": 6934,
      "##potass": 6935,
      "##400": 6936,
      "##ania": 6937,
      "fdic": 6938,
      "linea": 6939,
      "notion": 6940,
      "##ray": 6941,
      "023": 6942,
      "##wick": 6943,
      "yu": 6944,
      "reinstatement": 6945,
      "##precision": 6946,
      "arts": 6947,
      "sept": 6948,
      "steven": 6949,
      "attendance": 6950,
      "xvi": 6951,
      "overhead": 6952,
      "philadelphi": 6953,
      "ze": 6954,
      "dear": 6955,
      "##point": 6956,
      "psr": 6957,
      "ideas": 6958,
      "concurrent": 6959,
      "461": 6960,
      "455": 6961,
      "##town": 6962,
      "612": 6963,
      "guinea": 6964,
      "harbor": 6965,
      "god": 6966,
      "rightly": 6967,
      "driven": 6968,
      "511": 6969,
      "##capitalization": 6970,
      "infring": 6971,
      "disburse": 6972,
      "summons": 6973,
      "bab": 6974,
      "antibod": 6975,
      "ok": 6976,
      "chart": 6977,
      "sealed": 6978,
      "heretofore": 6979,
      "gulf": 6980,
      "xvii": 6981,
      "guarantie": 6982,
      "physically": 6983,
      "subjective": 6984,
      "inapplicable": 6985,
      "vacate": 6986,
      "numeric": 6987,
      "inmate": 6988,
      "restraining": 6989,
      "aggravate": 6990,
      "##met": 6991,
      "lact": 6992,
      "##ok": 6993,
      "gonzale": 6994,
      "theoretical": 6995,
      "490": 6996,
      "subservicer": 6997,
      "complet": 6998,
      "calci": 6999,
      "439": 7000,
      "unduly": 7001,
      "rectang": 7002,
      "##factory": 7003,
      "##inger": 7004,
      "reconsideration": 7005,
      "##een": 7006,
      "##hat": 7007,
      "appraiser": 7008,
      "notary": 7009,
      "extreme": 7010,
      "860": 7011,
      "exclusivity": 7012,
      "emphasised": 7013,
      "epi": 7014,
      "probation": 7015,
      "crack": 7016,
      "screening": 7017,
      "fast": 7018,
      "recognizes": 7019,
      "disc": 7020,
      "560": 7021,
      "mills": 7022,
      "##ometer": 7023,
      "impede": 7024,
      "cha": 7025,
      "angeles": 7026,
      "wagon": 7027,
      "andrew": 7028,
      "stabilis": 7029,
      "##ions": 7030,
      "393": 7031,
      "hygiene": 7032,
      "508": 7033,
      "##group": 7034,
      "##ute": 7035,
      "path": 7036,
      "##cha": 7037,
      "utilize": 7038,
      "asst": 7039,
      "opposing": 7040,
      "roche": 7041,
      "##unaudit": 7042,
      "##take": 7043,
      "##tar": 7044,
      "limb": 7045,
      "crown": 7046,
      "segments": 7047,
      "confederation": 7048,
      "offshore": 7049,
      "ceramic": 7050,
      "wastes": 7051,
      "##alogue": 7052,
      "##work": 7053,
      "decimal": 7054,
      "philippine": 7055,
      "##matic": 7056,
      "publisher": 7057,
      "arranger": 7058,
      "##its": 7059,
      "haul": 7060,
      "cosmetic": 7061,
      "journey": 7062,
      "author": 7063,
      "telecopy": 7064,
      "thompson": 7065,
      "##ric": 7066,
      "impression": 7067,
      "moist": 7068,
      "solvency": 7069,
      "vitamin": 7070,
      "##34": 7071,
      "444": 7072,
      "465": 7073,
      "tbe": 7074,
      "##pro": 7075,
      "woman": 7076,
      "tribe": 7077,
      "commodities": 7078,
      "482": 7079,
      "logical": 7080,
      "##gli": 7081,
      "campaign": 7082,
      "try": 7083,
      "versa": 7084,
      "hourly": 7085,
      "609": 7086,
      "solicitor": 7087,
      "smart": 7088,
      "438": 7089,
      "rem": 7090,
      "keyword": 7091,
      "##mark": 7092,
      "##ibility": 7093,
      "enactment": 7094,
      "overcome": 7095,
      "walker": 7096,
      "##ros": 7097,
      "063": 7098,
      "449": 7099,
      "kidney": 7100,
      "hamburg": 7101,
      "devote": 7102,
      "deck": 7103,
      "mara": 7104,
      "leasehold": 7105,
      "dow": 7106,
      "509": 7107,
      "464": 7108,
      "succession": 7109,
      "reception": 7110,
      "remedied": 7111,
      "##adi": 7112,
      "delete": 7113,
      "servicemen": 7114,
      "reveal": 7115,
      "##0001": 7116,
      "philip": 7117,
      "radiu": 7118,
      "assemble": 7119,
      "cia": 7120,
      "mos": 7121,
      "cif": 7122,
      "connecticut": 7123,
      "kon": 7124,
      "503": 7125,
      "handle": 7126,
      "refined": 7127,
      "complement": 7128,
      "somewhat": 7129,
      "473": 7130,
      "boil": 7131,
      "composite": 7132,
      "bail": 7133,
      "neu": 7134,
      "##ct": 7135,
      "1951": 7136,
      "attempting": 7137,
      "##0810": 7138,
      "507": 7139,
      "democracy": 7140,
      "intervening": 7141,
      "##weg": 7142,
      "437": 7143,
      "452": 7144,
      "ranking": 7145,
      "invalidate": 7146,
      "argentin": 7147,
      "##prop": 7148,
      "vendors": 7149,
      "constraints": 7150,
      "equivalence": 7151,
      "flights": 7152,
      "herself": 7153,
      "##27": 7154,
      "provincial": 7155,
      "421": 7156,
      "proviso": 7157,
      "bru": 7158,
      "##pr": 7159,
      "427": 7160,
      "chattel": 7161,
      "depart": 7162,
      "finanz": 7163,
      "finn": 7164,
      "hungarian": 7165,
      "hydr": 7166,
      "phenyl": 7167,
      "begins": 7168,
      "denominations": 7169,
      "played": 7170,
      "##ub": 7171,
      "eighty": 7172,
      "mag": 7173,
      "680": 7174,
      "stor": 7175,
      "##cap": 7176,
      "grass": 7177,
      "514": 7178,
      "419": 7179,
      "##ase": 7180,
      "##lich": 7181,
      "identifier": 7182,
      "469": 7183,
      "457": 7184,
      "##elux": 7185,
      "circle": 7186,
      "##dale": 7187,
      "photographs": 7188,
      "compelled": 7189,
      "##33": 7190,
      "hor": 7191,
      "399": 7192,
      "##oli": 7193,
      "careful": 7194,
      "zon": 7195,
      "someone": 7196,
      "dallas": 7197,
      "motive": 7198,
      "sanitary": 7199,
      "toll": 7200,
      "##uk": 7201,
      "881": 7202,
      "thi": 7203,
      "aeroplane": 7204,
      "married": 7205,
      "024": 7206,
      "cote": 7207,
      "howard": 7208,
      "542": 7209,
      "encouraged": 7210,
      "547": 7211,
      "441": 7212,
      "boiler": 7213,
      "recognise": 7214,
      "rip": 7215,
      "mercur": 7216,
      "sig": 7217,
      "530": 7218,
      "threatening": 7219,
      "##form": 7220,
      "mich": 7221,
      "prejudicial": 7222,
      "briefs": 7223,
      "##nnage": 7224,
      "structured": 7225,
      "suppress": 7226,
      "suffice": 7227,
      "381": 7228,
      "ends": 7229,
      "certi": 7230,
      "dead": 7231,
      "meter": 7232,
      "compl": 7233,
      "diligently": 7234,
      "ukrainian": 7235,
      "##100": 7236,
      "##sel": 7237,
      "##hua": 7238,
      "479": 7239,
      "##enne": 7240,
      "544": 7241,
      "random": 7242,
      "##ants": 7243,
      "1950": 7244,
      "727": 7245,
      "diamond": 7246,
      "discontinue": 7247,
      "fourteenth": 7248,
      "aliens": 7249,
      "##urism": 7250,
      "endeavour": 7251,
      "675": 7252,
      "incurrence": 7253,
      "definite": 7254,
      "modern": 7255,
      "rescission": 7256,
      "evolution": 7257,
      "personality": 7258,
      "sep": 7259,
      "555": 7260,
      "580": 7261,
      "##ivna": 7262,
      "filling": 7263,
      "513": 7264,
      "##rate": 7265,
      "mil": 7266,
      "speaking": 7267,
      "1104": 7268,
      "ste": 7269,
      "capability": 7270,
      "rome": 7271,
      "glen": 7272,
      "predict": 7273,
      "##cker": 7274,
      "cancer": 7275,
      "secrecy": 7276,
      "inaccurate": 7277,
      "394": 7278,
      "isolation": 7279,
      "trusts": 7280,
      "##eligible": 7281,
      "##0402": 7282,
      "##012": 7283,
      "mio": 7284,
      "weakness": 7285,
      "##ful": 7286,
      "contacted": 7287,
      "451": 7288,
      "convinced": 7289,
      "mesh": 7290,
      "661": 7291,
      "551": 7292,
      "418": 7293,
      "434": 7294,
      "853": 7295,
      "extends": 7296,
      "moll": 7297,
      "defer": 7298,
      "electoral": 7299,
      "romanian": 7300,
      "campbell": 7301,
      "consisted": 7302,
      "administering": 7303,
      "patriot": 7304,
      "happened": 7305,
      "alloc": 7306,
      "absorb": 7307,
      "##consistency": 7308,
      "enquir": 7309,
      "intercompany": 7310,
      "defam": 7311,
      "##mos": 7312,
      "enclosed": 7313,
      "cfr": 7314,
      "memor": 7315,
      "##mond": 7316,
      "parental": 7317,
      "honey": 7318,
      "api": 7319,
      "flexi": 7320,
      "hexa": 7321,
      "##831": 7322,
      "519": 7323,
      "fidelity": 7324,
      "##ku": 7325,
      "##1994": 7326,
      "##usc": 7327,
      "##806": 7328,
      "##ement": 7329,
      "variance": 7330,
      "gatt": 7331,
      "##ott": 7332,
      "cour": 7333,
      "coil": 7334,
      "##ique": 7335,
      "substantiated": 7336,
      "505": 7337,
      "committing": 7338,
      "smooth": 7339,
      "puert": 7340,
      "##sio": 7341,
      "dkt": 7342,
      "##uring": 7343,
      "##therapy": 7344,
      "removing": 7345,
      "morning": 7346,
      "##ula": 7347,
      "##corp": 7348,
      "restrain": 7349,
      "sterling": 7350,
      "496": 7351,
      "484": 7352,
      "deeds": 7353,
      "398": 7354,
      "mer": 7355,
      "forever": 7356,
      "monitored": 7357,
      "divorce": 7358,
      "##kov": 7359,
      "##use": 7360,
      "gate": 7361,
      "##ward": 7362,
      "792": 7363,
      "diet": 7364,
      "##amino": 7365,
      "computing": 7366,
      "regulating": 7367,
      "##eti": 7368,
      "segregate": 7369,
      "##izing": 7370,
      "gal": 7371,
      "allocat": 7372,
      "virtually": 7373,
      "eleven": 7374,
      "proportional": 7375,
      "wear": 7376,
      "char": 7377,
      "minimal": 7378,
      "##kins": 7379,
      "interpretations": 7380,
      "diagnosis": 7381,
      "berlin": 7382,
      "counted": 7383,
      "prosecuted": 7384,
      "##tus": 7385,
      "bulgarian": 7386,
      "flu": 7387,
      "incapable": 7388,
      "easy": 7389,
      "attended": 7390,
      "awarding": 7391,
      "obstacle": 7392,
      "silk": 7393,
      "resist": 7394,
      "acquirer": 7395,
      "bench": 7396,
      "565": 7397,
      "##itis": 7398,
      "translate": 7399,
      "##rdam": 7400,
      "549": 7401,
      "##mus": 7402,
      "compartment": 7403,
      "detrimental": 7404,
      "arab": 7405,
      "##ami": 7406,
      "taliban": 7407,
      "esc": 7408,
      "meaningful": 7409,
      "##total": 7410,
      "shang": 7411,
      "extinguish": 7412,
      "straw": 7413,
      "prepay": 7414,
      "clarified": 7415,
      "oxygen": 7416,
      "##pl": 7417,
      "##litre": 7418,
      "infant": 7419,
      "prohibitions": 7420,
      "visited": 7421,
      "configuration": 7422,
      "kin": 7423,
      "broadly": 7424,
      "concurring": 7425,
      "sap": 7426,
      "615": 7427,
      "611": 7428,
      "##dam": 7429,
      "##ches": 7430,
      "715": 7431,
      "##bl": 7432,
      "erd": 7433,
      "458": 7434,
      "predicate": 7435,
      "##cher": 7436,
      "##recht": 7437,
      "##ico": 7438,
      "talk": 7439,
      "radiation": 7440,
      "complementary": 7441,
      "downward": 7442,
      "##ierra": 7443,
      "conversation": 7444,
      "della": 7445,
      "dissent": 7446,
      "produces": 7447,
      "persecution": 7448,
      "##body": 7449,
      "613": 7450,
      "enabled": 7451,
      "##wing": 7452,
      "##975": 7453,
      "517": 7454,
      "boule": 7455,
      "semen": 7456,
      "nitro": 7457,
      "rehearing": 7458,
      "telecopie": 7459,
      "gor": 7460,
      "##lic": 7461,
      "##oda": 7462,
      "617": 7463,
      "undergone": 7464,
      "robinson": 7465,
      "timetable": 7466,
      "vaccine": 7467,
      "bur": 7468,
      "violat": 7469,
      "030": 7470,
      "ada": 7471,
      "knowing": 7472,
      "ameri": 7473,
      "sister": 7474,
      "remember": 7475,
      "##cor": 7476,
      "sam": 7477,
      "##tif": 7478,
      "cre": 7479,
      "criticism": 7480,
      "##chloro": 7481,
      "##47": 7482,
      "dissolved": 7483,
      "cpt": 7484,
      "hop": 7485,
      "surcharge": 7486,
      "feasibl": 7487,
      "strain": 7488,
      "differs": 7489,
      "1953": 7490,
      "604": 7491,
      "subscribers": 7492,
      "##fully": 7493,
      "841": 7494,
      "garcia": 7495,
      "mayor": 7496,
      "478": 7497,
      "balanced": 7498,
      "slight": 7499,
      "abide": 7500,
      "sight": 7501,
      "christopher": 7502,
      "muscle": 7503,
      "481": 7504,
      "bias": 7505,
      "inner": 7506,
      "##151": 7507,
      "922": 7508,
      "filament": 7509,
      "##acea": 7510,
      "plenary": 7511,
      "cede": 7512,
      "##novad": 7513,
      "roof": 7514,
      "moot": 7515,
      "got": 7516,
      "telecom": 7517,
      "##ising": 7518,
      "exterior": 7519,
      "verifying": 7520,
      "encumber": 7521,
      "suggestion": 7522,
      "521": 7523,
      "mellon": 7524,
      "indispens": 7525,
      "##ict": 7526,
      "797": 7527,
      "448": 7528,
      "informal": 7529,
      "597": 7530,
      "rationale": 7531,
      "henry": 7532,
      "professionals": 7533,
      "##soft": 7534,
      "##52": 7535,
      "0401": 7536,
      "detainee": 7537,
      "plausible": 7538,
      "innocence": 7539,
      "brothers": 7540,
      "1602": 7541,
      "preempt": 7542,
      "macke": 7543,
      "459": 7544,
      "##1992": 7545,
      "447": 7546,
      "inflation": 7547,
      "713": 7548,
      "##ju": 7549,
      "supposed": 7550,
      "533": 7551,
      "score": 7552,
      "franchisor": 7553,
      "albania": 7554,
      "upward": 7555,
      "drew": 7556,
      "##ger": 7557,
      "kr": 7558,
      "killing": 7559,
      "nace": 7560,
      "##car": 7561,
      "volatil": 7562,
      "##071": 7563,
      "merrill": 7564,
      "retir": 7565,
      "463": 7566,
      "carc": 7567,
      "seriousness": 7568,
      "regulator": 7569,
      "identifiabl": 7570,
      "##aro": 7571,
      "##incorporated": 7572,
      "wis": 7573,
      "##111": 7574,
      "ascertained": 7575,
      "loi": 7576,
      "##lina": 7577,
      "movant": 7578,
      "725": 7579,
      "456": 7580,
      "grid": 7581,
      "tie": 7582,
      "ordinarily": 7583,
      "fu": 7584,
      "020": 7585,
      "##via": 7586,
      "lawrence": 7587,
      "stringent": 7588,
      "660": 7589,
      "quor": 7590,
      "wrongly": 7591,
      "amste": 7592,
      "##inous": 7593,
      "prolonged": 7594,
      "##economic": 7595,
      "701": 7596,
      "highlight": 7597,
      "apr": 7598,
      "golden": 7599,
      "##tro": 7600,
      "##view": 7601,
      "carton": 7602,
      "handled": 7603,
      "##1999": 7604,
      "twentie": 7605,
      "kinds": 7606,
      "##ran": 7607,
      "ethnic": 7608,
      "##ret": 7609,
      "602": 7610,
      "adams": 7611,
      "ave": 7612,
      "666": 7613,
      "fourteen": 7614,
      "jack": 7615,
      "emphasises": 7616,
      "teaching": 7617,
      "appreciabl": 7618,
      "fcc": 7619,
      "##ether": 7620,
      "##tion": 7621,
      "subi": 7622,
      "667": 7623,
      "##ire": 7624,
      "##urity": 7625,
      "##link": 7626,
      "702": 7627,
      "620": 7628,
      "pick": 7629,
      "disqualifie": 7630,
      "entails": 7631,
      "waiving": 7632,
      "gained": 7633,
      "488": 7634,
      "homes": 7635,
      "buffer": 7636,
      "soft": 7637,
      "##cu": 7638,
      "sheriff": 7639,
      "vague": 7640,
      "periodical": 7641,
      "derogat": 7642,
      "defeat": 7643,
      "slow": 7644,
      "603": 7645,
      "reaffirm": 7646,
      "travell": 7647,
      "hart": 7648,
      "##older": 7649,
      "descripti": 7650,
      "utah": 7651,
      "progressive": 7652,
      "react": 7653,
      "hub": 7654,
      "668": 7655,
      "mitchel": 7656,
      "unitholder": 7657,
      "injurious": 7658,
      "insure": 7659,
      "differential": 7660,
      "searches": 7661,
      "##sko": 7662,
      "appended": 7663,
      "dell": 7664,
      "novel": 7665,
      "483": 7666,
      "install": 7667,
      "2021": 7668,
      "century": 7669,
      "attitude": 7670,
      "pgi": 7671,
      "487": 7672,
      "446": 7673,
      "brass": 7674,
      "solidarit": 7675,
      "metric": 7676,
      "##bel": 7677,
      "##illa": 7678,
      "hardship": 7679,
      "unclear": 7680,
      "474": 7681,
      "bids": 7682,
      "486": 7683,
      "##core": 7684,
      "rescue": 7685,
      "546": 7686,
      "onward": 7687,
      "susceptible": 7688,
      "##flower": 7689,
      "##che": 7690,
      "combating": 7691,
      "##ali": 7692,
      "##house": 7693,
      "##ete": 7694,
      "616": 7695,
      "##gel": 7696,
      "pas": 7697,
      "smoke": 7698,
      "##day": 7699,
      "otc": 7700,
      "##601": 7701,
      "presenting": 7702,
      "subsid": 7703,
      "doors": 7704,
      "equi": 7705,
      "495": 7706,
      "##mounted": 7707,
      "642": 7708,
      "realt": 7709,
      "librar": 7710,
      "##gage": 7711,
      "restored": 7712,
      "cayman": 7713,
      "gel": 7714,
      "envelope": 7715,
      "inaction": 7716,
      "feel": 7717,
      "battery": 7718,
      "sulf": 7719,
      "608": 7720,
      "capture": 7721,
      "mile": 7722,
      "adr": 7723,
      "pat": 7724,
      "pac": 7725,
      "##petition": 7726,
      "665": 7727,
      "consorti": 7728,
      "489": 7729,
      "nap": 7730,
      "shortcomings": 7731,
      "clock": 7732,
      "fan": 7733,
      "##49": 7734,
      "diluted": 7735,
      "590": 7736,
      "##gram": 7737,
      "##ground": 7738,
      "slip": 7739,
      "reciprocal": 7740,
      "##stop": 7741,
      "fired": 7742,
      "##ette": 7743,
      "zeal": 7744,
      "539": 7745,
      "wil": 7746,
      "##arley": 7747,
      "##sta": 7748,
      "plaz": 7749,
      "mary": 7750,
      "##zone": 7751,
      "accumulation": 7752,
      "##set": 7753,
      "characterised": 7754,
      "valore": 7755,
      "displayed": 7756,
      "595": 7757,
      "plat": 7758,
      "immaterial": 7759,
      "camera": 7760,
      "passive": 7761,
      "medicare": 7762,
      "releas": 7763,
      "pears": 7764,
      "sara": 7765,
      "theretofor": 7766,
      "640": 7767,
      "subscribed": 7768,
      "472": 7769,
      "lengthy": 7770,
      "algeria": 7771,
      "924": 7772,
      "montenegro": 7773,
      "ross": 7774,
      "airway": 7775,
      "mould": 7776,
      "606": 7777,
      "lend": 7778,
      "fra": 7779,
      "485": 7780,
      "resumed": 7781,
      "reveals": 7782,
      "abolition": 7783,
      "symptom": 7784,
      "##gnition": 7785,
      "mie": 7786,
      "1949": 7787,
      "556": 7788,
      "titles": 7789,
      "536": 7790,
      "##ories": 7791,
      "##ske": 7792,
      "owning": 7793,
      "adhere": 7794,
      "pretrial": 7795,
      "1947": 7796,
      "socio": 7797,
      "##cio": 7798,
      "privileged": 7799,
      "mv": 7800,
      "hague": 7801,
      "hect": 7802,
      "630": 7803,
      "focused": 7804,
      "attract": 7805,
      "posed": 7806,
      "greenhouse": 7807,
      "neighbour": 7808,
      "topic": 7809,
      "beach": 7810,
      "1952": 7811,
      "albeit": 7812,
      "cooling": 7813,
      "inquire": 7814,
      "baxter": 7815,
      "##turned": 7816,
      "frankfurt": 7817,
      "liquor": 7818,
      "vacuum": 7819,
      "choosing": 7820,
      "silva": 7821,
      "donald": 7822,
      "##cho": 7823,
      "##can": 7824,
      "lini": 7825,
      "fox": 7826,
      "delet": 7827,
      "medication": 7828,
      "coordinat": 7829,
      "resolving": 7830,
      "ministerial": 7831,
      "manuel": 7832,
      "531": 7833,
      "reseller": 7834,
      "875": 7835,
      "attacks": 7836,
      "##nce": 7837,
      "##1948": 7838,
      "##ssen": 7839,
      "unacceptabl": 7840,
      "##gas": 7841,
      "bargain": 7842,
      "convergen": 7843,
      "til": 7844,
      "abandon": 7845,
      "lamb": 7846,
      "694": 7847,
      "lei": 7848,
      "magnetic": 7849,
      "499": 7850,
      "retains": 7851,
      "facing": 7852,
      "624": 7853,
      "coherent": 7854,
      "706": 7855,
      "widely": 7856,
      "logistics": 7857,
      "server": 7858,
      "476": 7859,
      "760": 7860,
      "605": 7861,
      "admittedly": 7862,
      "ahcccs": 7863,
      "pepper": 7864,
      "decedent": 7865,
      "irregularit": 7866,
      "ye": 7867,
      "##eni": 7868,
      "lime": 7869,
      "##ylene": 7870,
      "simpl": 7871,
      "judiciary": 7872,
      "##acion": 7873,
      "##idine": 7874,
      "gul": 7875,
      "excl": 7876,
      "liechtenstein": 7877,
      "alternatives": 7878,
      "851": 7879,
      "Sh": 7880,
      "fluor": 7881,
      "prosper": 7882,
      "grave": 7883,
      "##ize": 7884,
      "chose": 7885,
      "052": 7886,
      "##5000": 7887,
      "yard": 7888,
      "##red": 7889,
      "confront": 7890,
      "indemnifi": 7891,
      "cigarette": 7892,
      "varied": 7893,
      "lab": 7894,
      "hami": 7895,
      "voted": 7896,
      "duch": 7897,
      "730": 7898,
      "##ero": 7899,
      "bal": 7900,
      "agri": 7901,
      "reagent": 7902,
      "rooms": 7903,
      "##we": 7904,
      "##1990": 7905,
      "bread": 7906,
      "qui": 7907,
      "metro": 7908,
      "prevents": 7909,
      "assignees": 7910,
      "chen": 7911,
      "warrantholder": 7912,
      "##29": 7913,
      "warne": 7914,
      "senate": 7915,
      "marc": 7916,
      "703": 7917,
      "agreeing": 7918,
      "reckless": 7919,
      "summarised": 7920,
      "congressional": 7921,
      "preserv": 7922,
      "##ux": 7923,
      "transact": 7924,
      "##uri": 7925,
      "hope": 7926,
      "contravene": 7927,
      "hud": 7928,
      "lique": 7929,
      "expressions": 7930,
      "div": 7931,
      "lincoln": 7932,
      "ontario": 7933,
      "isolated": 7934,
      "ros": 7935,
      "rat": 7936,
      "etat": 7937,
      "585": 7938,
      "569": 7939,
      "021": 7940,
      "538": 7941,
      "##orari": 7942,
      "529": 7943,
      "magnes": 7944,
      "sci": 7945,
      "2052": 7946,
      "##hin": 7947,
      "captain": 7948,
      "recruit": 7949,
      "532": 7950,
      "##min": 7951,
      "027": 7952,
      "countersign": 7953,
      "dignity": 7954,
      "nonassessab": 7955,
      "##west": 7956,
      "##1998": 7957,
      "oz": 7958,
      "sat": 7959,
      "707": 7960,
      "deadlines": 7961,
      "##ainless": 7962,
      "bloom": 7963,
      "##ertificateholder": 7964,
      "671": 7965,
      "##passu": 7966,
      "##hand": 7967,
      "768": 7968,
      "staple": 7969,
      "presentment": 7970,
      "iz": 7971,
      "explains": 7972,
      "kor": 7973,
      "##mix": 7974,
      "align": 7975,
      "proxie": 7976,
      "##110": 7977,
      "windows": 7978,
      "ram": 7979,
      "518": 7980,
      "coupling": 7981,
      "fluctuation": 7982,
      "herring": 7983,
      "evans": 7984,
      "##315": 7985,
      "slaughterhouse": 7986,
      "4253": 7987,
      "gray": 7988,
      "franc": 7989,
      "##ically": 7990,
      "1766": 7991,
      "545": 7992,
      "slot": 7993,
      "526": 7994,
      "iraq": 7995,
      "dust": 7996,
      "supervise": 7997,
      "621": 7998,
      "553": 7999,
      "##seed": 8000,
      "really": 8001,
      "abnormal": 8002,
      "##eck": 8003,
      "alex": 8004,
      "maria": 8005,
      "gauge": 8006,
      "comfort": 8007,
      "eagle": 8008,
      "warn": 8009,
      "721": 8010,
      "professor": 8011,
      "##motive": 8012,
      "723": 8013,
      "492": 8014,
      "561": 8015,
      "##ious": 8016,
      "770": 8017,
      "##az": 8018,
      "1939": 8019,
      "overriding": 8020,
      "wash": 8021,
      "##oxo": 8022,
      "674": 8023,
      "wafer": 8024,
      "##ura": 8025,
      "clinic": 8026,
      "delta": 8027,
      "651": 8028,
      "egypt": 8029,
      "##hang": 8030,
      "opp": 8031,
      "856": 8032,
      "ratione": 8033,
      "divestiture": 8034,
      "adm": 8035,
      "memo": 8036,
      "ober": 8037,
      "reissue": 8038,
      "571": 8039,
      "superseded": 8040,
      "777": 8041,
      "##cidal": 8042,
      "infection": 8043,
      "##rich": 8044,
      "gl": 8045,
      "reynold": 8046,
      "matern": 8047,
      "##yan": 8048,
      "sick": 8049,
      "##ika": 8050,
      "vega": 8051,
      "circumvent": 8052,
      "swift": 8053,
      "619": 8054,
      "phantom": 8055,
      "futures": 8056,
      "enhanc": 8057,
      "689": 8058,
      "##published": 8059,
      "takeover": 8060,
      "577": 8061,
      "852": 8062,
      "creek": 8063,
      "endorse": 8064,
      "494": 8065,
      "sink": 8066,
      "upgrade": 8067,
      "##rak": 8068,
      "freezing": 8069,
      "interrogator": 8070,
      "##ram": 8071,
      "jeffrey": 8072,
      "unambiguous": 8073,
      "pertain": 8074,
      "enlargement": 8075,
      "##0016": 8076,
      "cultivati": 8077,
      "adversary": 8078,
      "organ": 8079,
      "partnerships": 8080,
      "491": 8081,
      "judicata": 8082,
      "gro": 8083,
      "terry": 8084,
      "refugees": 8085,
      "kl": 8086,
      "##1993": 8087,
      "sri": 8088,
      "##411": 8089,
      "transformation": 8090,
      "combine": 8091,
      "resume": 8092,
      "lacks": 8093,
      "truly": 8094,
      "receivership": 8095,
      "acres": 8096,
      "##compliance": 8097,
      "causati": 8098,
      "##adea": 8099,
      "535": 8100,
      "emphasized": 8101,
      "confession": 8102,
      "##rope": 8103,
      "cooper": 8104,
      "##lia": 8105,
      "qualit": 8106,
      "construct": 8107,
      "phosphate": 8108,
      "taxpayers": 8109,
      "furnace": 8110,
      "hsc": 8111,
      "562": 8112,
      "beer": 8113,
      "surgical": 8114,
      "pis": 8115,
      "speculative": 8116,
      "encompass": 8117,
      "technique": 8118,
      "esma": 8119,
      "bit": 8120,
      "584": 8121,
      "##48": 8122,
      "encouraging": 8123,
      "impregna": 8124,
      "##ere": 8125,
      "christian": 8126,
      "zur": 8127,
      "##illo": 8128,
      "negotiat": 8129,
      "moneys": 8130,
      "676": 8131,
      "waterway": 8132,
      "tea": 8133,
      "##340": 8134,
      "interlocutor": 8135,
      "##ph": 8136,
      "##row": 8137,
      "##odi": 8138,
      "##319": 8139,
      "##feld": 8140,
      "boeing": 8141,
      "lloyd": 8142,
      "casino": 8143,
      "##evich": 8144,
      "portable": 8145,
      "##ben": 8146,
      "reversal": 8147,
      "##ites": 8148,
      "interaction": 8149,
      "##elle": 8150,
      "##sey": 8151,
      "gone": 8152,
      "updates": 8153,
      "##051": 8154,
      "revise": 8155,
      "##still": 8156,
      "collin": 8157,
      "premier": 8158,
      "tec": 8159,
      "classify": 8160,
      "movable": 8161,
      "fertiliser": 8162,
      "##xis": 8163,
      "polo": 8164,
      "disallow": 8165,
      "##052": 8166,
      "752": 8167,
      "714": 8168,
      "inconvenien": 8169,
      "726": 8170,
      "particle": 8171,
      "irregular": 8172,
      "chrom": 8173,
      "saying": 8174,
      "globe": 8175,
      "correlation": 8176,
      "sprint": 8177,
      "##llo": 8178,
      "calibrati": 8179,
      "##0502": 8180,
      "##azine": 8181,
      "pover": 8182,
      "notional": 8183,
      "influen": 8184,
      "deriv": 8185,
      "##103": 8186,
      "##gin": 8187,
      "promoted": 8188,
      "636": 8189,
      "##dehyd": 8190,
      "empty": 8191,
      "possesses": 8192,
      "partition": 8193,
      "unsubstantiated": 8194,
      "approximate": 8195,
      "spite": 8196,
      "##wiecie": 8197,
      "##ele": 8198,
      "cellulo": 8199,
      "refugee": 8200,
      "##220": 8201,
      "##pen": 8202,
      "grower": 8203,
      "owe": 8204,
      "imp": 8205,
      "boundaries": 8206,
      "##nyl": 8207,
      "ski": 8208,
      "905": 8209,
      "kai": 8210,
      "##2309": 8211,
      "zoo": 8212,
      "complian": 8213,
      "nam": 8214,
      "shortage": 8215,
      "disagreed": 8216,
      "626": 8217,
      "bow": 8218,
      "ambit": 8219,
      "minimize": 8220,
      "655": 8221,
      "europa": 8222,
      "disclaimer": 8223,
      "##iya": 8224,
      "undoubtedly": 8225,
      "##polymer": 8226,
      "wald": 8227,
      "shore": 8228,
      "tunisia": 8229,
      "empower": 8230,
      "801": 8231,
      "586": 8232,
      "##heim": 8233,
      "summari": 8234,
      "enumerated": 8235,
      "##berger": 8236,
      "comb": 8237,
      "weapon": 8238,
      "##institutional": 8239,
      "sweeten": 8240,
      "blocked": 8241,
      "810": 8242,
      "advancement": 8243,
      "##ison": 8244,
      "mississippi": 8245,
      "##van": 8246,
      "infer": 8247,
      "acet": 8248,
      "rmb": 8249,
      "abb": 8250,
      "vacant": 8251,
      "coke": 8252,
      "efficac": 8253,
      "conn": 8254,
      "phosphor": 8255,
      "670": 8256,
      "##ylam": 8257,
      "siemens": 8258,
      "##rra": 8259,
      "##332": 8260,
      "##melon": 8261,
      "assertions": 8262,
      "##053": 8263,
      "foresee": 8264,
      "765": 8265,
      "infra": 8266,
      "##130": 8267,
      "blade": 8268,
      "complainants": 8269,
      "conferr": 8270,
      "mou": 8271,
      "bulletin": 8272,
      "poll": 8273,
      "bidder": 8274,
      "##vin": 8275,
      "jail": 8276,
      "951": 8277,
      "deliberately": 8278,
      "498": 8279,
      "costa": 8280,
      "retailer": 8281,
      "newspapers": 8282,
      "logic": 8283,
      "parker": 8284,
      "audio": 8285,
      "narcotic": 8286,
      "bms": 8287,
      "sca": 8288,
      "settl": 8289,
      "murray": 8290,
      "nyse": 8291,
      "cac": 8292,
      "##zen": 8293,
      "tur": 8294,
      "##titude": 8295,
      "walk": 8296,
      "quasi": 8297,
      "organs": 8298,
      "dock": 8299,
      "527": 8300,
      "prorate": 8301,
      "596": 8302,
      "liberal": 8303,
      "##ged": 8304,
      "pounds": 8305,
      "775": 8306,
      "rac": 8307,
      "antonio": 8308,
      "780": 8309,
      "regret": 8310,
      "sew": 8311,
      "barrier": 8312,
      "brook": 8313,
      "wo": 8314,
      "feasi": 8315,
      "537": 8316,
      "bou": 8317,
      "subsistence": 8318,
      "chap": 8319,
      "854": 8320,
      "##currency": 8321,
      "658": 8322,
      "worded": 8323,
      "##oz": 8324,
      "ambiguous": 8325,
      "635": 8326,
      "spray": 8327,
      "academic": 8328,
      "mat": 8329,
      "vaccination": 8330,
      "##ees": 8331,
      "564": 8332,
      "732": 8333,
      "mun": 8334,
      "628": 8335,
      "jp": 8336,
      "belt": 8337,
      "liquidat": 8338,
      "##cion": 8339,
      "incurring": 8340,
      "##our": 8341,
      "678": 8342,
      "##31": 8343,
      "pledges": 8344,
      "sq": 8345,
      "probative": 8346,
      "construe": 8347,
      "##rat": 8348,
      "1946": 8349,
      "closer": 8350,
      "enshrined": 8351,
      "reconstruction": 8352,
      "##116": 8353,
      "captions": 8354,
      "##meters": 8355,
      "##onia": 8356,
      "err": 8357,
      "mutilat": 8358,
      "679": 8359,
      "##53": 8360,
      "497": 8361,
      "canal": 8362,
      "silent": 8363,
      "##burn": 8364,
      "740": 8365,
      "renders": 8366,
      "##mas": 8367,
      "alexander": 8368,
      "##ender": 8369,
      "olaf": 8370,
      "notation": 8371,
      "825": 8372,
      "##employer": 8373,
      "reproduced": 8374,
      "573": 8375,
      "prong": 8376,
      "lifetime": 8377,
      "sport": 8378,
      "##any": 8379,
      "shipper": 8380,
      "##certificate": 8381,
      "atlanta": 8382,
      "aus": 8383,
      "820": 8384,
      "##ello": 8385,
      "walter": 8386,
      "614": 8387,
      "accommodate": 8388,
      "##thy": 8389,
      "thirteen": 8390,
      "consumed": 8391,
      "##dgr": 8392,
      "705": 8393,
      "sake": 8394,
      "amalgamation": 8395,
      "557": 8396,
      "honour": 8397,
      "affiliation": 8398,
      "633": 8399,
      "infringes": 8400,
      "##lan": 8401,
      "wale": 8402,
      "598": 8403,
      "recognises": 8404,
      "652": 8405,
      "hydraulic": 8406,
      "originate": 8407,
      "690": 8408,
      "##ych": 8409,
      "##0002": 8410,
      "1308": 8411,
      "occasional": 8412,
      "840": 8413,
      "reopen": 8414,
      "wfb": 8415,
      "unanimous": 8416,
      "##1996": 8417,
      "contempt": 8418,
      "##412": 8419,
      "##uev": 8420,
      "libya": 8421,
      "granic": 8422,
      "correctness": 8423,
      "##314": 8424,
      "reinstated": 8425,
      "684": 8426,
      "exh": 8427,
      "syria": 8428,
      "563": 8429,
      "##ayev": 8430,
      "computers": 8431,
      "dress": 8432,
      "##inate": 8433,
      "simultaneous": 8434,
      "boat": 8435,
      "ren": 8436,
      "unjust": 8437,
      "discharges": 8438,
      "534": 8439,
      "##hattan": 8440,
      "phoe": 8441,
      "##path": 8442,
      "583": 8443,
      "organise": 8444,
      "arrive": 8445,
      "consignee": 8446,
      "assured": 8447,
      "broadcaster": 8448,
      "ref": 8449,
      "##low": 8450,
      "558": 8451,
      "##tek": 8452,
      "sad": 8453,
      "lopez": 8454,
      "bicycle": 8455,
      "jacobs": 8456,
      "graham": 8457,
      "745": 8458,
      "ju": 8459,
      "bny": 8460,
      "herita": 8461,
      "motivated": 8462,
      "trucks": 8463,
      "572": 8464,
      "593": 8465,
      "631": 8466,
      "surgery": 8467,
      "##misappropriation": 8468,
      "str": 8469,
      "remark": 8470,
      "greenland": 8471,
      "imminent": 8472,
      "##1991": 8473,
      "veterinarian": 8474,
      "endo": 8475,
      "##mount": 8476,
      "paint": 8477,
      "yyyy": 8478,
      "##021": 8479,
      "orientation": 8480,
      "##105": 8481,
      "embodied": 8482,
      "mirror": 8483,
      "avian": 8484,
      "inspected": 8485,
      "eps": 8486,
      "arbitral": 8487,
      "1255": 8488,
      "spe": 8489,
      "reopening": 8490,
      "heavi": 8491,
      "592": 8492,
      "hunt": 8493,
      "classical": 8494,
      "##120": 8495,
      "##art": 8496,
      "practitioner": 8497,
      "alarm": 8498,
      "901": 8499,
      "##ference": 8500,
      "##uci": 8501,
      "622": 8502,
      "ambient": 8503,
      "##vent": 8504,
      "donor": 8505,
      "consensus": 8506,
      "##063": 8507,
      "656": 8508,
      "experiment": 8509,
      "##cutting": 8510,
      "outline": 8511,
      "##139": 8512,
      "magazine": 8513,
      "##appendices": 8514,
      "attestation": 8515,
      "static": 8516,
      "eliminat": 8517,
      "perceived": 8518,
      "##ug": 8519,
      "639": 8520,
      "persuasive": 8521,
      "##mascu": 8522,
      "##worth": 8523,
      "dna": 8524,
      "579": 8525,
      "dwelling": 8526,
      "##1985": 8527,
      "torre": 8528,
      "##1995": 8529,
      "excessively": 8530,
      "oregon": 8531,
      "709": 8532,
      "correctional": 8533,
      "propan": 8534,
      "2454": 8535,
      "##lu": 8536,
      "turbine": 8537,
      "convenient": 8538,
      "compile": 8539,
      "692": 8540,
      "##suring": 8541,
      "apa": 8542,
      "affixe": 8543,
      "mur": 8544,
      "##wo": 8545,
      "lifting": 8546,
      "##iere": 8547,
      "sil": 8548,
      "dia": 8549,
      "bath": 8550,
      "##eu": 8551,
      "austin": 8552,
      "je": 8553,
      "kitchen": 8554,
      "sup": 8555,
      "jha": 8556,
      "istanbul": 8557,
      "signatories": 8558,
      "influenced": 8559,
      "clo": 8560,
      "premise": 8561,
      "554": 8562,
      "survivor": 8563,
      "memorand": 8564,
      "neglect": 8565,
      "defraud": 8566,
      "soy": 8567,
      "horn": 8568,
      "9100": 8569,
      "##bre": 8570,
      "voyage": 8571,
      "##rtel": 8572,
      "##accuracy": 8573,
      "platforms": 8574,
      "deliberation": 8575,
      "prod": 8576,
      "##35": 8577,
      "qualifies": 8578,
      "luc": 8579,
      "##madri": 8580,
      "##60": 8581,
      "2913": 8582,
      "accreditation": 8583,
      "kelly": 8584,
      "aromat": 8585,
      "##uta": 8586,
      "brian": 8587,
      "fried": 8588,
      "integrat": 8589,
      "berg": 8590,
      "##pta": 8591,
      "reproduc": 8592,
      "880": 8593,
      "attaching": 8594,
      "##ily": 8595,
      "623": 8596,
      "##102": 8597,
      "##cq": 8598,
      "kara": 8599,
      "567": 8600,
      "effecting": 8601,
      "815": 8602,
      "mitigating": 8603,
      "deployment": 8604,
      "##olo": 8605,
      "epc": 8606,
      "lasting": 8607,
      "081": 8608,
      "benz": 8609,
      "qualitative": 8610,
      "1049": 8611,
      "conversations": 8612,
      "inflicted": 8613,
      "785": 8614,
      "actuarial": 8615,
      "miss": 8616,
      "exert": 8617,
      "##but": 8618,
      "##eri": 8619,
      "##ural": 8620,
      "hostil": 8621,
      "654": 8622,
      "pra": 8623,
      "electing": 8624,
      "plainly": 8625,
      "664": 8626,
      "ivan": 8627,
      "##rica": 8628,
      "883": 8629,
      "remediation": 8630,
      "882": 8631,
      "##331": 8632,
      "kam": 8633,
      "cabinet": 8634,
      "mlp": 8635,
      "904": 8636,
      "1035": 8637,
      "##0019": 8638,
      "803": 8639,
      "pip": 8640,
      "##ris": 8641,
      "quin": 8642,
      "attractive": 8643,
      "##azion": 8644,
      "638": 8645,
      "collision": 8646,
      "802": 8647,
      "##ama": 8648,
      "653": 8649,
      "##dia": 8650,
      "731": 8651,
      "audiovisu": 8652,
      "alignment": 8653,
      "##0040": 8654,
      "confiscation": 8655,
      "##312": 8656,
      "974": 8657,
      "##rine": 8658,
      "582": 8659,
      "eth": 8660,
      "sevent": 8661,
      "remission": 8662,
      "exceptionally": 8663,
      "##odder": 8664,
      "##light": 8665,
      "##bm": 8666,
      "discern": 8667,
      "punishable": 8668,
      "arkansas": 8669,
      "assisting": 8670,
      "mai": 8671,
      "##rim": 8672,
      "685": 8673,
      "##gue": 8674,
      "568": 8675,
      "816": 8676,
      "##ima": 8677,
      "lou": 8678,
      "vienna": 8679,
      "adopts": 8680,
      "pregnanc": 8681,
      "##anas": 8682,
      "neck": 8683,
      "##data": 8684,
      "lemon": 8685,
      "zip": 8686,
      "synerg": 8687,
      "1942": 8688,
      "propos": 8689,
      "645": 8690,
      "mk": 8691,
      "draws": 8692,
      "foreclose": 8693,
      "711": 8694,
      "rel": 8695,
      "##dorf": 8696,
      "2200": 8697,
      "3223": 8698,
      "##unto": 8699,
      "##eous": 8700,
      "encourages": 8701,
      "920": 8702,
      "657": 8703,
      "habitual": 8704,
      "##immune": 8705,
      "787": 8706,
      "kenne": 8707,
      "##42": 8708,
      "disclaim": 8709,
      "transform": 8710,
      "sharehold": 8711,
      "646": 8712,
      "060": 8713,
      "stein": 8714,
      "insider": 8715,
      "842": 8716,
      "##ceding": 8717,
      "muta": 8718,
      "1103": 8719,
      "sovereignty": 8720,
      "lac": 8721,
      "imputed": 8722,
      "kim": 8723,
      "congo": 8724,
      "##section": 8725,
      "unemployed": 8726,
      "alan": 8727,
      "798": 8728,
      "0303": 8729,
      "##media": 8730,
      "csd": 8731,
      "voter": 8732,
      "##1989": 8733,
      "literature": 8734,
      "##onic": 8735,
      "##500": 8736,
      "##rag": 8737,
      "1005": 8738,
      "adjudge": 8739,
      "##press": 8740,
      "907": 8741,
      "recreation": 8742,
      "withdrew": 8743,
      "drinking": 8744,
      "benzo": 8745,
      "tied": 8746,
      "gil": 8747,
      "nlr": 8748,
      "##0601": 8749,
      "cow": 8750,
      "pad": 8751,
      "ear": 8752,
      "plai": 8753,
      "ignored": 8754,
      "dispos": 8755,
      "loc": 8756,
      "##born": 8757,
      "rig": 8758,
      "cam": 8759,
      "hypothecate": 8760,
      "stewart": 8761,
      "641": 8762,
      "produ": 8763,
      "che": 8764,
      "bac": 8765,
      "##tai": 8766,
      "##ovic": 8767,
      "nutrition": 8768,
      "panels": 8769,
      "meta": 8770,
      "xxi": 8771,
      "xxx": 8772,
      "await": 8773,
      "brom": 8774,
      "bermud": 8775,
      "735": 8776,
      "591": 8777,
      "##wald": 8778,
      "flask": 8779,
      "deals": 8780,
      "##1988": 8781,
      "##039": 8782,
      "##quarters": 8783,
      "unf": 8784,
      "stream": 8785,
      "##zyme": 8786,
      "080": 8787,
      "743": 8788,
      "gut": 8789,
      "##6204": 8790,
      "594": 8791,
      "581": 8792,
      "##cock": 8793,
      "fragment": 8794,
      "privatisation": 8795,
      "tuberculosis": 8796,
      "846": 8797,
      "denomination": 8798,
      "587": 8799,
      "##330": 8800,
      "##nci": 8801,
      "##tri": 8802,
      "tw": 8803,
      "pln": 8804,
      "wheels": 8805,
      "576": 8806,
      "##318": 8807,
      "##munition": 8808,
      "2658": 8809,
      "##nian": 8810,
      "##121": 8811,
      "italia": 8812,
      "##inated": 8813,
      "##uana": 8814,
      "haupt": 8815,
      "##300": 8816,
      "##force": 8817,
      "##125": 8818,
      "attributes": 8819,
      "##bster": 8820,
      "688": 8821,
      "helicopter": 8822,
      "589": 8823,
      "banknote": 8824,
      "realize": 8825,
      "inventorie": 8826,
      "expeditious": 8827,
      "numerical": 8828,
      "##tat": 8829,
      "safeguarding": 8830,
      "kirch": 8831,
      "578": 8832,
      "##sulph": 8833,
      "syn": 8834,
      "fulfils": 8835,
      "stopp": 8836,
      "1945": 8837,
      "778": 8838,
      "##ured": 8839,
      "##lay": 8840,
      "obligator": 8841,
      "prosecutors": 8842,
      "pos": 8843,
      "adjudicated": 8844,
      "737": 8845,
[...]
