[PAD]
[unused0]
[unused1]
[unused2]
[unused3]
[unused4]
[unused5]
[unused6]
[unused7]
[unused8]
[unused9]
[unused10]
[unused11]
[unused12]
[unused13]
[unused14]
[unused15]
[unused16]
[unused17]
[unused18]
[unused19]
[unused20]
[unused21]
[unused22]
[unused23]
[unused24]
[unused25]
[unused26]
[unused27]
[unused28]
[unused29]
[unused30]
[unused31]
[unused32]
[unused33]
[unused34]
[unused35]
[unused36]
[unused37]
[unused38]
[unused39]
[unused40]
[unused41]
[unused42]
[unused43]
[unused44]
[unused45]
[unused46]
[unused47]
[unused48]
[unused49]
[unused50]
[unused51]
[unused52]
[unused53]
[unused54]
[unused55]
[unused56]
[unused57]
[unused58]
[unused59]
[unused60]
[unused61]
[unused62]
[unused63]
[unused64]
[unused65]
[unused66]
[unused67]
[unused68]
[unused69]
[unused70]
[unused71]
[unused72]
[unused73]
[unused74]
[unused75]
[unused76]
[unused77]
[unused78]
[unused79]
[unused80]
[unused81]
[unused82]
[unused83]
[unused84]
[unused85]
[unused86]
[unused87]
[unused88]
[unused89]
[unused90]
[unused91]
[unused92]
[unused93]
[unused94]
[unused95]
[unused96]
[unused97]
[unused98]
[UNK]
[CLS]
[SEP]
[MASK]
!
"
#
$
%
&
'
(
)
*
+
,
-
.
/
:
;
<
=
>
?
@
[
\
]
^
_
`
{
|
}
~
¡
¢
£
¤
¥
¦
§
¨
´
a
b
c
d
e
f
g
h
i
j
k
l
m
n
o
p
q
r
s
t
u
v
w
x
y
z
##a
##b
##c
##d
##e
##f
##g
##h
##i
##j
##k
##l
##m
##n
##o
##p
##q
##r
##s
##t
##u
##v
##w
##x
##y
##z
0
1
2
3
4
5
6
7
8
9
the

newline
of
to
and
in
##(
or
that
for
by
be
any
as
on
is
shall
with
this
not
such
which
no
other
agreement
it
article
##ing
at
an
from
its
court
all
under
company
are
may
was
have
section
has
commission
regulation
##ed
if
date
been
case
party
10
time
each
will
member
had
state
states
law
respect
than
##`
their
provided
applicant
decision
european
his
parties
rights
applicable
12
made
within
11
including
set
ec
information
period
into
one
ii
amount
were
after
pursuant
accordance
first
would
following
community
he
##ly
interest
out
000
should
upon
only
order
subject
but
must
council
agent
without
shares
business
between
provisions
right
stock
see
person
also
those
act
notice
market
paragraph
required
there
whether
part
terms
securities
they
general
13
products
20
so
SS
15
where
payment
30
common
action
above
##eec
new
against
application
more
united
use
can
obligations
means
property
directive
having
00
effect
conditions
financial
account
prior
14
necessary
non
judgment
when
before
regard
thereof
same
event
otherwise
annex
national
oj
particular
##on
legal
referred
does
forth
claim
government
however
during
these
third
number
##es
amended
material
year
plan
whereas
tax
documents
union
16
price
de
used
public
rules
services
certain
measures
loan
day
31
17
proceedings
costs
except
therefore
basis
18
security
product
term
iii
purchase
two
bank
seller
convention
form
19
authority
further
written
days
contract
transfer
effective
21
25
who
relevant
connection
service
id
executive
rate
second
authorities
##able
value
provision
borrower
90
hereby
eur
up
evidence
question
provide
december
extent
do
due
given
make
corporation
claims
notes
being
code
termination
##th
down
exchange
22
credit
reasonable
could
fact
district
taken
request
trustee
based
limited
appropriate
pay
relating
procedure
paid
control
administrative
sale
related
24
note
take
eu
her
did
purposes
name
requirements
meaning
28
29
treaty
title
defined
statement
closing
board
23
assets
purchaser
result
aid
inc
federal
lender
official
rule
committee
01
opinion
system
present
herein
we
employee
laws
co
additional
available
reference
force
group
50
exercise
amendment
holder
held
certificate
##ies
liability
apply
issue
employment
because
mr
27
through
26
june
per
trust
concerned
issued
expenses
total
point
concerning
hereof
management
benefit
over
registration
received
hereunder
import
2006
entitled
full
##er
similar
performance
capital
change
consent
collateral
three
jurisdiction
data
follows
defendant
july
obligation
either
purpose
payments
report
plaintiff
deemed
less
until
specific
principal
adopted
cause
them
insurance
2007
both
default
agreements
january
schedule
2004
specified
100
granted
appeal
trade
share
delivered
transaction
circumstances
unless
hereto
according
march
reasonably
since
final
iv
special
work
view
established
considered
2002
support
economic
years
2005
own
buyer
2003
submitted
power
protection
development
amounts
october
office
cases
failure
document
persons
undertaking
2008
2009
directly
determined
##ity
partnership
delivery
counsel
02
policy
production
re
option
good
un
place
export
letter
approval
40
equal
exhibit
ex
free
filed
contained
level
breach
cir
violation
least
subsidiaries
fees
class
below
2001
ensure
matter
april
transactions
agrees
interests
nor
regulations
include
writing
him
series
permitted
mortgage
activities
well
owner
president
distribution
review
way
end
entity
november
officer
##en
last
cash
journal
st
months
investment
2000
treatment
investigation
constitute
project
articles
even
trial
republic
consideration
september
payable
subsidiary
described
process
goods
2013
compliance
applied
she
applicants
60
reason
executed
chapter
assessment
compensation
members
individual
1999
intended
agree
parliament
authorized
ct
##al
immediately
complaint
february
net
2010
stated
laid
found
outstanding
behalf
statements
en
duties
benefits
thereto
2011
35
addition
parent
dated
directors
countries
health
warrant
binding
provides
agency
address
said
requested
foregoing
another
domestic
competent
units
international
country
employees
incurred
criminal
possible
you
equity
income
about
risk
sales
some
receipt
limitation
access
thus
existing
position
manner
2012
proceeding
release
type
nature
conduct
mean
plaintiffs
operation
investor
funds
enter
##line
loss
condition
cost
confidential
direct
fund
alleged
taxes
05
entered
together
2014
duty
area
materials
respective
execution
aggregate
grant
contemplated
32
standard
registered
clause
portion
give
covered
reasons
damage
holders
original
joint
communities
establishing
##ation
arising
partner
become
##um
judge
##1
motion
producer
03
different
york
actions
table
deliver
33
return
equipment
agreed
record
merger
circuit
92
customs
llc
sufficient
hearing
capacity
internal
facts
##in
affiliates
loans
test
defendants
41
80
participant
page
45
representative
light
comply
duly
determination
##an
settlement
prices
award
39
36
notwithstanding
34
social
initial
long
list
91
companies
animal
procedures
director
99
month
85
42
kingdom
technical
officers
issuer
maximum
objective
indenture
waiver
while
receive
now
04
file
responsible
heading
certificates
bankruptcy
kg
need
whole
done
five
regarding
damages
included
93
contracts
vi
proposed
debt
annual
approved
local
assignment
require
pre
95
operations
balance
implementation
civil
among
principle
clear
expenditure
course
independent
##2
representations
fixed
detention
guarantor
situation
august
secured
unit
liabilities
later
37
listed
courts
cited
regards
reports
lease
taking
human
commercial
far
filing
sole
current
minimum
carried
matters
94
knowledge
entry
contrary
staff
restricted
44
measure
advance
supply
conversion
08
obtained
important
accordingly
competition
making
private
disclosure
1998
guarantee
instrument
patent
most
determine
high
43
contractor
operating
grounds
sector
manager
75
programme
actual
49
ecr
personal
51
governmental
decisions
limit
38
inter
discretion
revenue
70
48
affect
quality
##ability
instance
legislation
2015
di
owned
96
la
dispute
07
added
accounts
sub
scope
therein
medical
what
facility
maintain
affiliate
real
expressly
neither
87
principles
89
1994
already
operator
lien
copy
weight
records
justice
meeting
perform
financing
continue
warranties
single
sentence
itself
foreign
1997
implementing
failed
fully
tender
1996
46
deposit
association
criteria
industry
million
significant
hand
holding
territory
marketing
life
paragraphs
conclusion
increase
offer
land
06
points
statute
interpretation
requirement
senior
59
53
brought
remedies
plant
acquisition
oil
although
se
results
52
construction
indebtedness
charge
acknowledge
1995
considers
sum
complete
fee
us
55
police
imposed
77
city
future
obtain
argument
summary
assistance
1993
preferred
fair
agents
context
promptly
adverse
##ic
charges
examination
98
sold
regional
1992
terminate
contested
09
2016
escrow
main
88
systems
equivalent
enforcement
practice
valid
air
##ry
separate
budget
supplement
56
gas
employer
designated
proceeds
program
97
replaced
transferred
attorney
47
applications
energy
volume
solely
covenants
transport
contribution
quota
establish
water
put
body
servicer
notified
ownership
signed
exceed
relation
license
corporate
your
refund
safety
might
eligible
germany
demand
issuance
percentage
acting
environmental
notify
successor
definition
subsequent
hold
permit
mark
whose
instruments
arrangements
65
##russel
warrants
sell
basic
##or
method
84
four
assigned
61
description
remedy
attached
regulatory
reduction
remain
department
cooperation
tariff
adjustment
substance
content
using
research
consider
judicial
##us
restrictions
concluded
base
##ness
administration
faith
expense
500
post
framework
acts
representatives
agricultural
delaware
publication
specifically
containing
pending
providing
asset
others
scheme
decided
86
79
proposal
54
working
81
cover
institution
moreover
signature
several
71
ground
1990
policies
##ce
status
substantially
58
giving
licence
generally
six
liable
activity
supreme
text
##is
prospectus
68
resulting
indicated
accounting
73
relief
57
debtor
involved
central
standards
objection
sent
known
kind
represented
suit
indemnified
france
jury
voting
various
average
areas
properties
62
vehicle
1991
absence
##ment
appropriations
83
protocol
efforts
caused
notification
SSSS
infringement
analysis
target
my
audit
excess
food
subparagraph
meet
example
money
institutions
preliminary
correct
78
detailed
lenders
82
defense
existence
resolution
majority
amending
true
changes
requires
exceeding
resources
exclusive
##ne
processing
outside
##to
expected
reserve
relationship
customer
69
ltd
very
electronic
anti
omitted
losses
former
submit
72
origin
occurred
prevent
hereinafter
acquired
governing
milk
finding
appeals
network
mentioned
language
commitments
construed
natural
field
offering
finance
indirectly
vii
appellant
exemption
affected
ordinary
every
amendments
entirety
accepted
calculated
claimed
66
best
63
arbitration
earlier
substantial
family
here
76
plus
french
manufacture
indemnification
declaration
organization
exclud
plans
normal
64
administrator
allow
preceding
modified
terminated
determining
67
trading
entire
how
originat
calendar
collectively
denied
1989
1986
death
participation
noted
notices
possession
estate
markets
delay
1988
performed
maintenance
difference
mail
technology
witness
pro
powers
parts
county
##ion
like
2017
licensed
furthermore
shareholders
questions
bound
declared
quantities
care
communication
petition
potential
entities
##est
validity
informed
items
category
open
global
thereafter
sugar
chief
master
remaining
actually
paper
produced
constitutional
leave
##co
carry
qualified
organisation
authorization
##man
partners
limits
74
quantity
calculation
clearly
##as
training
ruling
reduced
election
events
lex
purchased
conducted
commitment
constitutes
issues
identified
preparation
premises
collection
consistent
lodged
manufacturer
redemption
proper
responsibility
facilities
length
item
holdings
representation
ten
sections
previous
laying
addressed
me
successors
injury
presented
gross
standing
fourth
still
nothing
##3
previously
1987
execute
euro
beneficiary
impact
1983
netherlands
longer
prosecutor
fiscal
shown
published
liens
applies
200
assigns
opportunity
maintained
our
lack
pension
employed
active
next
show
discharge
response
accept
german
findings
corresponding
mm
options
back
waste
contain
fishing
consolidated
corp
shareholder
prepared
forward
combination
associated
occurrence
copies
express
intellectual
ms
fundamental
allowed
alternative
met
rather
attention
establishment
dollar
dismissed
conflict
west
rates
italian
secretary
satisfaction
customers
sought
instructions
sheet
called
litigation
stockholder
adopt
register
car
incorporated
substances
contributions
satisfied
design
guidelines
beneficial
rejected
completion
expiration
##le
italy
1985
##land
funding
offered
##ers
eea
decree
vehicles
completed
adequate
##ary
discrimination
charged
examined
read
latter
factors
error
includes
ordered
prejudice
extended
partial
reporting
expressed
proof
serious
firm
close
cross
rise
arguments
located
authorisation
effects
arrangement
structure
words
none
1980
fruit
primary
finally
statutory
home
increased
dr
hours
greate
intervention
enable
priority
treated
tenant
steel
chamber
profit
periods
judges
reimbursement
monitoring
licensee
##orage
dumping
extension
finds
thereby
allocation
continuing
world
avis
times
orders
governed
species
designed
head
specification
turn
juridique
consult
short
workers
tr
al
testimony
oral
represents
road
indemnitee
practices
likely
particularly
1984
committed
acceptance
essential
1981
freedom
spain
properly
appointed
america
lead
recovery
appears
forms
controlled
coverage
currency
counterparts
bear
servicing
vice
supp
allocated
regarded
ill
1982
##reunder
thirty
limitations
draft
methods
consequently
temporary
whom
argued
sec
protected
facsimile
took
satisfy
just
pecuniary
identification
large
continued
percent
##ally
communications
applying
find
building
version
wine
answer
region
assign
satisfactory
people
selling
raised
examine
lower
appendix
possibility
contracting
age
separately
petitioner
quarter
bodies
chemical
refer
merits
am
adoption
mutual
becomes
modification
inspection
user
once
range
accrued
environment
higher
amend
authorised
europe
protect
complaints
depositor
call
receiving
monthly
combined
restated
officials
granting
small
retirement
1979
north
certified
creditors
letters
vote
low
inform
avoid
division
stockholders
acquire
confirmed
electric
physical
doubt
requests
appear
placed
intent
com
art
street
burden
programmes
check
elements
disclosed
consumpti
advisor
excluded
professional
attorneys
currently
documentation
beyond
exception
child
released
warranty
guaranteed
observations
soon
##ourg
prison
south
political
anything
adjusted
investments
meat
grantor
designation
distribute
reported
vessels
makes
subsequently
expert
man
concentration
location
respectively
definitions
create
removal
though
involving
contact
created
books
paying
plea
transmission
stage
premium
submission
transferee
fifth
aware
holds
margin
appointment
site
affecting
past
etc
enforceable
residence
evaluation
values
fresh
regular
maturity
alia
setting
luxemb
justified
industrial
interpreted
yet
qualification
acid
fed
model
left
disposition
incentive
source
enforce
procedural
ma
replacement
size
drawn
liquidation
lay
seek
judgments
many
indication
approach
101
overall
illegal
issuing
indirect
pledge
bring
confidentiality
guaranty
##ve
provisional
##tonnes
american
recipient
deg
decide
participate
##ate
beginning
respondent
disability
feed
military
know
2018
indemnifying
covenant
classification
merely
accession
prohibited
aircraft
levels
functioning
sellers
occur
favor
competitive
vegetable
early
##ure
viii
california
assumption
asked
complained
du
managing
ireland
relied
marks
capable
factor
echr
par
belgium
##ecu
degree
exercised
consummation
timely
external
rating
300
centre
patents
duration
supplier
seeking
argues
refusal
concerns
interim
vessel
120
fails
keep
individually
reorganization
personnel
ability
recorded
imported
recital
fi
acceptable
reduce
software
bar
dealer
characteristics
approximately
metal
children
fraud
falling
subsection
individuals
unpaid
reply
meetings
representing
operate
namely
conformity
consumer
calls
fixing
never
references
convertible
uk
types
exist
insolvency
taxable
english
undersigned
agencies
movement
unlawful
##ley
character
again
disclose
liquid
assignee
##over
comments
restriction
adjustments
engaged
elect
telephone
go
consents
van
major
treasury
bill
##gen
invoice
selected
exposure
separation
classified
respects
role
ca
certification
works
risks
equitable
provider
contains
affairs
key
guarantees
hereafter
russia
1977
consolidation
registrar
secure
scientific
##4
bio
arise
definitive
1978
contractual
indeed
threatened
materially
indicate
allegations
themselves
suffered
invalid
effectiveness
app
edition
landlord
##ide
withholding
waived
unable
checks
concern
na
prescribed
##atom
withdrawal
fr
participating
venture
indemnify
extend
complied
##ium
derogation
restructuring
observed
whatsoever
categories
fine
defence
compound
##ol
permits
sea
repurchase
education
multi
lawyer
turkey
underlying
inadmissible
legislative
permanent
negative
details
supplied
experience
house
manufacturing
say
hundred
##ty
##ec
engine
ratio
regions
104
vested
negligence
assumed
emission
formal
self
lessee
assume
groups
creditor
conviction
hospital
deed
106
needs
sixth
great
dividend
awarded
steps
furnished
packag
witnesses
sample
memorandum
##pp
bond
103
xm
defend
advantage
factual
operational
aim
bonus
uniform
recent
revolving
409
##no
thereon
regardless
intention
importance
travel
phase
twenty
san
recognized
consist
labor
jointly
brief
fall
russian
nevertheless
grantee
poland
erisa
choice
compatible
developed
follow
progress
salary
##at
150
testing
seed
china
represent
via
obligor
remainder
estimated
carrier
conclude
recitals
function
gc
abuse
indemnity
station
placement
substitute
controls
levy
acknowledged
interference
directed
receivables
components
occurs
cooperate
book
names
white
##ur
fuel
crime
port
assessed
tribunal
dismiss
##0
presence
fish
conclusions
understood
cereal
direction
reached
suspension
repair
throughout
consultant
prohibition
pa
carrying
come
consequences
prosecution
refused
bearing
pressure
legitimate
supplemental
space
admissible
side
followed
##deg
penalt
omission
john
##age
arrest
fax
remains
rent
surrender
texas
##re
claimant
assess
repayment
congress
severance
absolute
el
rely
legally
tests
##isation
licenses
vat
covering
250
withheld
discussion
105
remarks
ip
##ine
textile
adversely
sign
##ny
##0100
recommendation
102
advocate
1976
expiry
competitor
banks
del
virtue
contribute
1975
##ized
instead
reflect
motor
seven
society
step
produce
supplemented
400
implement
proportion
negotiations
fat
delegate
distributions
grow
wholly
confirmation
retain
submissions
penalty
airport
refers
injunction
object
subscription
cell
obtaining
void
gain
mass
showing
beneficiaries
contends
wire
sufficiently
requiring
110
transfers
comparable
leases
takes
##responsibilities
exists
converted
serve
relate
prepayment
awards
importer
owners
installation
fulfil
admissibility
pointed
recover
greece
ministry
disposal
scheduled
relates
custodian
##7
figures
introduced
destination
austria
dividends
subordinated
retained
retail
cut
zone
practicable
search
vesting
favour
stating
understanding
copyright
needed
whereof
grants
144
flow
served
##ar
opening
incorporation
school
verification
poly
survive
count
therefor
supporting
encumbrance
registrable
fire
client
violate
commercially
alone
unenforceable
ukraine
along
explained
run
portuga
infrastructure
insured
broad
introduction
commencement
des
thousand
##ca
live
creation
drug
facilitate
##der
irrevocably
considerations
half
accompanied
custody
relative
devices
problems
107
coal
excessive
old
testified
border
proprietary
commerce
estimate
automatically
obligated
contingent
element
125
improvements
challenge
implemented
face
supported
pledged
monetary
disease
positive
selection
lawful
towards
women
harmless
offence
clauses
study
stay
spanish
device
optionee
sponsor
wide
voluntary
112
supervision
assuming
supra
pledgor
footnote
component
immediate
waters
island
exclusively
##5
column
cr
functions
structural
men
ending
achieve
necessarily
depositary
removed
much
appoint
advice
violations
radio
cease
raw
develop
recognition
prove
draw
##ous
conform
returned
strong
participants
insurer
east
disputes
drawing
desire
renewal
identify
ml
da
validly
experts
1933
profits
precedent
computer
transferor
sp
ix
authorize
inquiry
lending
named
furnish
proceed
dec
consisting
clinical
asserted
receivable
113
settled
modify
measurement
decrease
108
gave
floor
attributable
discount
banking
interested
observes
justify
green
bonds
tri
mo
simply
despite
trans
media
surface
link
initiative
allowance
mandatory
waives
ensuring
constitution
detail
fisheries
cancellation
heat
effected
supplies
waive
enforceability
insufficient
royalty
liberty
reliance
box
implied
owing
annulment
charter
undertake
processe
promotion
lines
identity
promote
distributor
founded
grand
arbitrator
admitted
controlling
linked
consultation
index
deduct
115
coordination
specify
better
deleted
sources
organisations
accused
derivative
threshold
limiting
po
remand
concept
exempt
operative
joined
farm
add
rendered
1974
deferred
tele
black
hard
package
expression
miscellaneous
appropriation
why
##it
mg
relations
collected
109
600
offense
therewith
gives
le
constituted
agricultur
start
denmark
solution
apparatus
attempt
word
admission
commissioner
belgi
vol
requisite
##968
mrs
recognised
referring
believe
himself
reach
studie
achieved
surveillance
aspects
hazardous
borrowing
heard
accident
xi
integrate
derived
broker
##8
##ng
180
outcome
things
sound
cure
consumers
shar
continuous
impose
determines
speed
prepare
ag
strategy
prevail
dealing
chairman
shows
buy
discovery
composed
ge
flat
store
suitable
became
blue
card
consummate
engage
machines
background
minutes
considering
redeem
canada
advertising
identical
container
assist
receiver
evidenced
organize
restrictive
contents
labour
exceptions
raise
und
deposited
micro
ta
geographical
offices
laborator
reserved
deduction
suspended
changed
exclusion
subheading
wood
advisory
propose
veterinar
opinions
supervisory
fail
guilty
daily
seq
reimburse
guidance
kept
effectively
difficult
collective
##6
smith
meanings
sweden
111
transitional
freedoms
eight
preamble
presentation
emergency
130
continuation
recording
hotel
lost
1972
around
block
taxation
misconduct
imposition
demonstrate
disbursement
subscriber
attachment
violated
##ler
substantive
invitation
improve
owed
debts
##ch
quotation
especially
medium
exporter
schemes
restrict
rice
compared
##son
promulgated
operated
press
cumulative
scale
118
repeal
conjunction
fabric
##ance
##mentioned
800
foot
composition
designate
relevance
rata
borrowers
pass
borne
auditors
economy
entering
performing
led
red
problem
help
apparent
victim
twelve
difficulties
late
seeks
romania
licensor
allows
citizens
##bank
avoidance
manufactured
mind
shared
disputed
appellee
119
job
valuation
label
budgetary
euros
##ised
associate
suppliers
traffic
connected
sitting
emphasis
114
lieu
##less
preference
qualify
reiterates
tasks
pl
practical
failing
similarly
quarterly
reviewed
ask
cap
preclude
always
grade
debenture
dismissal
yes
simple
pric
improvement
pursue
center
importation
allegedly
membership
##10
requesting
multiple
##lin
incompatible
statistical
successful
automatic
feet
manual
usa
minister
noteholder
panel
avenue
receives
para
harm
reform
mutually
cas
bulgaria
##ff
exclude
greek
suite
exercising
resignation
normally
fur
exceeds
consequence
park
cal
lessor
unknown
codes
##ville
measured
branch
willful
latest
lp
temperature
butter
glass
resident
debtors
acquiring
136
deal
initially
unreasonably
town
washington
sums
conferred
1970
declare
near
withdraw
inconsistent
2019
undertaken
statutes
comparison
enforced
enterprises
##za
mere
genuine
situations
authentic
exercisable
ne
approve
closed
conclusive
pool
confirm
enterprise
gen
false
safe
##01
falls
denial
stop
carbon
rest
allowances
tonne
indent
living
surviving
guarantors
manifestly
##ization
regime
reasoning
117
remove
powder
institute
revised
untrue
democratic
##be
calculating
machinery
fiduciary
bad
##ive
robert
population
split
1973
submits
assignor
issu
northern
remuneration
subcontractor
housing
aside
medicina
primarily
ecb
entitlement
essentially
james
incident
160
iron
availability
replace
invalidity
##oxy
prepaid
fibres
instant
seems
son
exceptional
139
121
modifications
route
transportation
123
promise
recommendations
concludes
indicates
handling
listing
dry
discussed
david
conflicts
generate
appellants
##menc
doing
marked
ancilla
commenc
gaap
cm
flag
ever
premiums
ro
inventory
116
worker
##lature
fin
1971
140
contention
commence
franchise
protective
methyl
fulfilled
told
marginal
##ington
recourse
mixture
born
injuries
resulted
demands
files
conference
177
distinction
privilege
##04
diligence
retention
exhibits
sustained
portugues
whenever
seen
additive
history
employ
increasing
alter
communicated
salt
auto
positions
##il
gmbh
counterpart
alleging
360
citing
render
evidencing
doc
confer
argue
civ
florida
complex
industrie
transit
digital
seat
technologies
commenced
underwriters
whatever
square
##turn
beef
con
alcohol
dissolution
look
acceleration
uses
wording
perfect
involve
subdivision
delayed
grape
war
worked
michael
1934
assembly
river
remained
electrical
capitalize
cable
opened
upheld
finland
forecast
cl
obliged
bid
transition
sets
mortgaged
adapt
installment
addresses
causes
trademark
vendor
minor
resolve
##ul
strengthen
distance
recommended
residue
mission
##ian
bovi
constituting
mechanism
forest
interpret
212
instruction
extract
imprisonment
accurate
122
numbers
ship
lists
planning
buildings
##up
shipp
mental
often
convicted
##men
situated
fit
proposals
opposition
mandate
figure
quoting
investigations
incur
website
petrole
young
fisher
yield
proxy
dispose
verify
leased
came
formula
##ner
substitution
eligibility
portfolio
whereby
impossible
ga
format
indicator
ended
select
personally
contributed
reflected
misleading
entirely
prevention
conveyance
initiated
farmer
##ship
efficiency
managers
developing
va
resolved
thomas
dimension
swap
shipment
criterion
counterparty
renew
maintaining
television
2020
sentencing
arises
customary
succeed
inclusion
think
127
rur
accuracy
earnings
collect
opportunities
task
sun
olive
plastic
acted
driver
##berg
statistic
territori
attain
assessing
deadline
llp
explanation
cent
load
room
excise
##ver
spread
seventh
competence
subjected
forum
pursued
contest
advanced
occurring
assurance
maje
secondary
legend
ha
signing
securing
revision
affirmed
accountants
##00
assistant
effort
impair
indicating
##way
za
withdrawn
comprehensive
deputy
vis
refuse
indictment
birth
detained
fraudulent
mother
spouse
influence
sanctions
quantitative
strict
university
quote
samples
##wide
wish
compensatory
explain
124
drive
vest
analyse
eastern
municipal
intra
efficient
prc
ohio
##coming
flight
few
southern
unfair
front
allowing
prohibit
discharged
bureau
intentionally
128
##viation
op
fifteen
week
tranche
input
mid
pertaining
anniversary
certify
afford
advised
pharmaceutical
believes
offset
planned
appealed
colour
129
172
##ard
assert
ti
nine
immunity
placing
jr
understands
##la
gr
illinois
sense
machine
presumption
##ex
ascertain
inure
145
registry
173
london
tank
please
managed
highest
earned
##ting
126
justification
instituted
chargeable
148
700
cotton
johnson
originally
ban
internet
communicate
##the
therefrom
stat
doctrine
ce
output
comment
brown
purchas
alleges
fines
##nnum
formed
equally
discuss
railway
lapse
intermediar
circulation
fulfill
irrespective
affirmative
welfare
appellate
stand
##ant
res
##ov
providers
everyone
hungar
fe
compatibility
ordinance
relying
discriminatory
reads
recently
135
traditional
strength
chinese
reg
##dium
host
leading
##field
fraction
western
precise
lot
collaboration
marking
delegation
wells
fa
preferential
elected
optional
mobile
designee
unlike
annexe
possess
revoke
zz
yarn
131
resale
permissible
dependent
nationality
email
##02
fifty
secret
covers
valuable
br
firms
tube
unanimously
savings
nationals
##ite
reasoned
injured
underwriter
##ory
monitor
tools
britis
recall
pennsylvania
prospective
send
##ou
circumstance
consignment
tort
nuclear
##ung
reinsurer
federation
pilot
cf
sustainable
inspections
czech
airline
138
venue
##ities
procurement
133
##serted
classes
sixt
little
junior
claiming
unreasonable
convenience
correspondence
respond
survey
move
##ma
reduc
chain
gender
bringing
save
differentiate
variable
affidavit
prime
##stream
deprived
printed
columbia
mainly
##by
wife
superior
integration
##ge
encourage
prompt
181
going
##eg
##ha
plain
challenged
rental
core
im
understand
expectation
offences
william
frozen
train
maritime
arm
nominee
servant
reinsurance
230
##wood
sulph
legislature
clearance
156
producing
##ham
1969
inadequate
describe
134
concentrate
dangerous
almost
execut
ra
certainty
##meat
appraisal
cert
involves
georgia
##09
##one
##ro
##ware
demonstrated
transmitted
##ford
wild
departure
900
##ling
cancel
preserve
exceeded
omissions
ab
considerable
##board
offers
settle
tobacco
frequenc
round
fault
pipe
169
##he
crop
hr
170
divided
##and
violence
##time
counter
gp
switzerland
##07
141
132
initiate
province
suits
##ter
##ted
passenger
increases
existed
subsidy
wheat
trademarks
mechanical
reverse
147
passed
solid
poult
govern
compromise
solutions
invention
ver
went
mailed
attempted
##0000
correctly
cells
moved
comp
severability
counterclaim
hour
blank
innovation
accompany
imposing
updated
gold
compulsory
formation
##03
sufficiency
mar
relieve
conservation
jan
concession
##communications
##id
proportionate
foreclosure
ascribed
egg
double
taxpayer
moving
##adian
178
cyprus
##nic
##herewith
solicit
km
starting
envisage
175
variet
142
phrase
consecutive
sex
wines
bis
marine
deems
privileges
absent
treat
210
weeks
investigate
promissor
expired
errors
fly
waivers
voluntarily
join
strategic
220
414
cycle
virginia
aimed
parallel
define
measur
arrested
highly
danger
seal
repealed
spirit
deem
##nd
##ka
exchangeable
tel
zero
convert
elsewhere
household
trader
compris
152
belonging
film
wall
protocols
labell
##ana
ucc
fo
##if
##302
organic
dk
conspiracy
sampling
143
proved
writ
adequately
contrast
adopting
201
solicitation
350
numerous
157
manifest
reading
280
punishment
137
750
207
milestone
##20
intercreditor
afforded
introduc
forfeiture
theory
questionnaire
skill
motions
rev
oct
intends
serving
cassation
mon
proportionality
toxic
sk
programm
##wl
adviser
1967
enjoy
161
secrets
##ica
strictly
spa
semi
deliberate
##mi
favorable
owns
##dominant
401
threat
med
convey
destruction
developments
stipulated
alteration
originated
chosen
infringed
##hi
williams
weigh
151
courier
verdict
162
endorsement
foodstuff
mi
leas
190
nations
appointing
organism
exhaust
contributor
irrevocabl
martin
defaulting
complying
whilst
dealers
bi
integral
running
inventions
closely
religious
allegation
interfere
tangible
disclosing
institutional
te
##feu
geographic
##ese
accelerate
terminal
parcel
preventing
declarations
146
overnight
calculations
tha
fl
rail
swedish
features
lo
choose
favourable
##rway
india
158
asylum
155
##methyl
postage
commit
lithuania
mc
regulated
enough
likelihood
variety
lawyers
completely
parents
heirs
1964
showed
insert
alternate
engineering
cat
##ova
159
focus
lamp
##05
##financed
signs
underwriting
constituent
desirabl
sites
message
seem
pieces
appeared
useful
play
##me
doubts
skin
##fsp
##11
185
kilogram
gd
recovered
regularly
functional
announcement
occasions
libor
behaviour
consistently
repay
mention
breaches
fix
xii
surplus
trigger
safeguard
receipts
assertion
critical
enact
149
concert
credited
ninety
father
ultimately
correction
ch
began
bag
signal
worth
defect
mining
soil
##state
distribut
harvest
initiation
candidates
mineral
candidate
signatures
ba
alloy
##08
specifying
distill
hydro
organizations
154
deny
involvement
168
##li
165
unsecured
jv
multiplie
occasion
suggested
negotiation
likewise
declares
delivers
identifying
pledgee
challenges
brand
involuntary
mill
forfeit
aspect
incorrect
accrue
pleadings
foundation
mac
australia
deductions
##zer
paul
strasbourg
strike
##am
ineffective
armed
royalt
investigator
##va
domain
accepts
strip
sublicense
eighth
mutandis
suspend
grain
ceiling
depending
lesser
conditional
mutatis
min
murder
investigating
affirm
##ification
knew
distinct
adjust
revocation
cargo
croatia
database
postal
extra
aforesaid
ongoing
asserts
shell
coming
les
releases
break
167
##mann
##sia
1408
across
153
cancelled
##go
lu
spot
partly
anticipated
dutch
chicago
injunctive
wishes
necessity
polish
215
complainant
vary
reservation
disposed
prevented
transparency
advise
202
game
richard
##qualifying
234
lawsuit
aims
billion
withhold
video
observe
tier
places
impairment
176
drie
believed
prima
lump
shape
die
rapid
counts
denying
deficiency
korea
apart
ninth
##ja
essence
nas
sentenced
shel
team
predecessor
pocket
240
extending
manage
rubber
##9
1966
instruct
164
suggest
jones
su
##06
licensing
pig
eliminate
sexual
##un
hearings
coefficient
periodic
deficit
track
204
##002
comprise
203
flows
questioned
away
prisoners
##0805
nevada
japan
pic
302
examining
##om
techniques
organizational
dump
270
##thwith
husband
163
views
controversy
clean
doctor
village
generation
roll
latvia
##de
tac
reject
independence
applicability
intangible
municipality
stamp
pleas
corporations
cast
sand
image
variation
ruled
morgan
torture
exhaustion
consultants
interview
fractional
crisis
delays
fairly
severally
citizen
catch
appearance
##12
fargo
irs
contend
##ko
##attn
hence
187
super
explicitly
##ang
reporter
337
suffering
apparently
started
auction
continues
171
disciplinary
compete
originator
999
##ga
command
broke
##ira
get
climat
complies
competing
extensions
dismisses
182
supervisor
carriage
404
allege
cooperative
reimbursed
##pa
directorate
##19
##ble
preventive
exact
participated
erroneous
arbitrary
visit
pollution
severe
erred
189
##upon
365
refinancing
repeated
delivering
retroactive
cpa
slovenia
drugs
intend
methodology
##ghs
territorial
deciding
001
segment
railroad
causing
mix
associations
bridge
hydrocarbon
freight
##990
forces
166
insofar
immigration
signatory
trustees
recommend
simultaneously
occupational
packing
bylaw
sky
destroyed
cz
pain
ph
alcoholic
survival
patient
179
assurances
promoting
module
turkish
redress
understandings
introduce
constant
184
incidental
unemployment
improving
visa
reputation
##cured
jersey
cod
wages
omit
privacy
slaughter
lock
bargaining
##ring
expire
hong
breached
liquidated
em
pages
##tic
winding
##ier
rejection
subordination
pacific
finished
preparing
invited
##ice
permission
mortgagor
pump
usually
marketed
##nia
174
pattern
##do
confidence
##45
correspond
anyone
dep
##oper
danis
phone
saw
301
deprivation
205
intermediate
conducting
swin
miller
calculate
enabling
forty
1962
warehouse
approving
raising
distinguish
administered
improper
decisive
cp
print
exhausted
priorities
invest
leaving
traded
precisely
stresse
li
facie
display
victims
relatively
purchases
brazil
mexico
450
##era
keeping
blood
eag
success
hot
##ella
cultural
lawfully
clearing
##eesc
certainly
209
unnecessary
##ig
verified
forwarded
pertinent
##woven
208
pipeline
processor
suffer
lee
chees
zones
translation
acp
cold
incremental
extraordinary
hazard
autonomous
magistrate
nominal
dem
assisted
breed
imo
evaluate
maiz
docket
custom
malta
passengers
creating
##written
obvious
contended
driving
thick
narrow
difficulty
issuers
appreciation
closure
treaties
def
388
catche
406
dealt
tar
##nish
empowered
wind
irrelevant
rod
chlor
wholesale
holiday
193
establishments
integrity
##well
royal
025
##stock
fla
announced
confirms
268
##14
aforementioned
##ular
neutral
scott
minus
barred
max
248
advisable
##back
reliable
amounted
concrete
entries
225
begin
session
usd
renewed
preserved
ja
ar
216
poor
abl
##water
maryland
hire
fields
235
sch
typical
206
##wealth
negotiate
355
##cao
214
ohi
organised
##46
310
299
update
ceo
bulk
misrepresentati
conveyed
atlantic
quite
##ida
##ent
technological
stipulation
##port
additionally
refrain
vertical
belong
reviewing
defects
supplements
##com
##005
pet
votes
probable
landing
hair
endorsed
tx
heavy
mine
218
rapporteur
efs
211
arms
discovered
spent
austrian
attend
comes
protecting
distort
183
equality
authoriz
##ish
depend
##bility
entertain
lawfulness
match
##010
clients
ultimate
passage
extensive
restatement
ingredient
suspicion
analytical
publish
213
acute
kong
commodity
recalls
##star
##ong
ru
reit
depends
226
upper
704
addendum
platform
##net
191
posts
wage
executor
##sen
loading
sue
224
cc
##ara
deutsche
sustain
hedge
pi
mailing
##ani
##nix
intentional
root
slovakia
192
estoppel
swiss
elections
unfounded
engineer
unconditionally
##specially
gear
los
achievement
##ivity
synthetic
star
jobs
##ut
repaid
establishe
appliance
unsuccessful
universal
##stored
potato
mechanisms
utility
moment
shift
ou
bone
1963
ray
centres
king
##ho
bankrupt
cars
notably
admit
custodial
rear
davis
starch
rock
carte
monte
induce
levied
253
infringements
printing
habeas
merchant
discretionary
compensate
estonia
esq
260
dur
growing
##disproportionate
cooperat
##tal
333
##003
couple
mode
##ney
accommodation
residential
divest
null
unique
hu
aquat
door
bay
dis
bell
##les
crude
tried
mal
##ipo
312
303
mis
replies
bona
refusing
crimes
##mb
diseases
wrongful
##mp
apple
deferral
186
228
##ated
negotiated
quick
##ster
smaller
##ative
horizontal
scrap
procure
hill
carolina
switch
annually
cloth
thence
##ets
confusion
##per
##ties
318
forced
stone
##con
1965
##ak
ease
charles
221
causal
##fer
residual
pure
222
resign
fitted
ships
implication
lands
##will
bind
sensitive
236
maker
accessible
##tech
inherent
residents
distributors
punitive
lodging
##ano
knitt
governance
resolutions
litre
authorise
pan
warning
capacities
188
320
##001
##idae
profession
inside
breakdown
##of
joseph
##dg
navigation
msc
terrorism
culture
defaulted
tenth
fide
ceases
##stone
assignments
improved
consultations
successive
wrong
determinations
frontier
den
pensions
paris
347
protest
instructed
crew
undermine
dispatch
knowingly
merged
sheep
submitting
195
purely
que
reparation
fell
relies
disorder
expect
night
distortion
501
harmonis
circular
width
ethyl
massachusetts
kw
valley
##niture
plural
adding
239
##veal
band
##oxide
suspected
ob
##004
usual
hedg
african
newly
installed
##18
424
sh
##fen
swing
tsi
mu
jurisdictions
belief
constructed
##ethylene
217
jean
rep
artificial
payroll
disregard
protein
male
ka
firearm
boy
depreciation
##tex
redacte
forming
0001
##op
indian
declaring
citi
suggests
cohesi
##ten
interior
concurrently
fibre
harmful
deposition
appearing
223
observance
novo
freely
##28
rsu
clarity
bears
educational
exploit
cv
float
george
expand
presumed
305
guide
merit
extracts
student
parameters
entitle
inspector
251
historical
macro
lives
achiev
levie
194
web
biological
fitting
attributed
whichever
prospects
potentially
equipped
pr
##bus
265
deficiencies
232
sanction
##chlor
prohibits
remarketing
stake
fight
tra
medicine
ko
sometimes
val
joinder
concluding
aero
channel
temporarily
231
apartment
disable
inclusive
meal
foster
frequently
treasurer
wheel
##21
alj
irreparabl
##16
##4064
325
conditioned
fleet
gb
340
nation
supersedes
ci
expansion
##air
beverage
objects
fill
michigan
az
016
gun
frank
##stuff
##ez
##0301
decides
opposite
frame
##reclassification
gravit
242
investigative
college
prohibiting
altered
defective
corrective
stages
irish
passport
suspect
answered
hear
terminat
diameter
coast
275
larger
338
198
unrelated
ceased
lake
timing
pe
editorial
sir
##holders
inability
let
##adequac
reasonableness
explor
salaries
##304
proven
##2000
241
256
solar
automobile
illness
harmonised
documentary
##iland
wool
copper
##ial
truck
significan
steer
chair
197
##rolled
anderson
transferable
genetic
irregularities
societ
welcomes
reversed
easily
coated
alumini
255
recognize
hydrogen
decline
impaired
##iness
362
satisfie
approximation
298
##side
minority
247
199
surety
opposed
0000
indicati
550
454
computed
tool
ac
##que
chill
exempted
utiliz
281
scrutiny
282
405
##ola
reaching
sar
trailer
appellees
##out
prisoner
replied
skimm
249
subcontract
accruing
rose
occupation
1234
##more
fixture
arose
nov
preparatory
330
##40
543
196
atty
unconditional
##efta
319
335
moratorium
aff
bracket
ter
hydroxy
accredit
##ole
ndeg
##bach
casualty
290
accord
308
eye
spring
merchandise
unrestricted
demonstration
##ocational
tape
##care
xiii
goals
undisputed
chance
cy
bilateral
##im
arrived
smes
safeguards
louis
colorado
##ada
plates
cards
238
profile
differ
##je
tenants
uncertainty
##healthcare
expertise
219
height
singular
sentences
##rolling
tetra
describing
entrusted
telex
layer
##ices
confirming
262
leg
secretariat
von
race
invoked
##propy
derive
chase
middle
geo
fear
##50
##ll
##ose
252
##amide
negligent
purported
brake
227
wait
missing
263
auditor
bia
313
adaptation
267
ap
possibly
233
birds
observation
strategi
cor
subordinate
##off
375
esp
ready
bankr
fda
inmates
297
guideline
outset
distress
229
xiv
detection
benchmark
mitigation
mezzanin
245
visits
accomplish
easement
inspect
testify
##ochet
transferr
assumes
detect
hybrid
clerk
recipients
mel
##ommercialization
broadcasting
##daq
undu
channels
##for
authorising
recoverable
england
##cious
twice
clarify
terrorist
carefully
exit
wa
261
pooling
var
instances
operates
solvent
cite
reaction
acknowledgment
accrual
lodge
rents
##25
intervene
510
restoration
357
enforcing
##wear
engagement
addressee
tissue
continuance
##ist
##ici
families
243
ombudsman
257
259
urban
graphic
subsidi
mood
compel
rico
complexity
resort
authenticate
trend
citation
incumbent
arbitrators
patients
396
015
indemnitor
deliverable
gap
remic
col
317
saint
##ach
ccp
africa
##goes
##glucos
415
##tested
uni
permitting
finder
307
dissenting
credibility
transparent
raises
amortization
firstly
leather
condemnation
vacation
650
projection
corresponds
degrading
315
defin
##tz
detainees
packages
moore
contributing
diese
402
utilisation
usage
discover
dilution
restitution
##hai
bars
transported
ought
mit
resource
harris
304
gi
##mo
arguing
##filled
314
cutting
stolen
##15
asserting
1961
unilateral
pu
missouri
curia
seizure
quashed
enjoyment
citations
##enforceability
complain
peter
477
258
343
compensated
computation
##charging
attack
monies
foreseeable
##ncb
challenging
nonetheless
stressed
tail
bus
defines
revealed
abandoned
payee
marriage
realized
##ale
295
recycl
##ical
prosecute
mot
##13
migration
disregarded
thought
nim
328
compare
theft
schen
systematic
468
384
map
valve
##ates
523
interface
silver
425
##011
continent
##den
##008
coordinate
monopol
gase
enhancement
288
flood
cleaning
##mer
combusti
327
contacts
misuse
##ene
296
sweet
gar
eco
har
##ides
horse
inhuman
050
female
##much
##17
epa
religion
outer
##head
322
##glyc
##recapitalization
tyre
entail
ibid
gmin
dip
311
inappropriate
mortgagee
liver
##lton
daughter
##her
##kin
271
spectr
ke
relatives
nominate
actively
##0406
285
##350
1958
speech
angle
##ew
exposed
invested
tex
349
evaluating
ebitda
##ell
win
accessori
391
satellite
bo
club
truth
mono
liquidator
surrounding
##006
goat
##authorized
##tel
##active
perfection
specimen
stayed
alliance
##rounded
chi
seriously
lv
804
agenda
sal
##edible
unavail
rich
larges
contemporaneous
##ester
buil
oppose
army
##fal
merc
generic
unvested
244
multilateral
psychiatric
symbol
##hz
broadcast
repeatedly
##22
commander
encounter
##mar
impugned
indonesia
permanently
hall
##shire
bg
sur
254
reliability
294
266
nav
securitization
284
confined
cit
reflects
287
jackson
filter
diversity
students
outlined
enjoin
remit
ho
283
connect
examinations
behind
drilling
player
annulled
##lk
plc
1960
##007
changing
jet
remanded
peaceful
sending
meant
insolvent
infringe
recruitment
orange
273
lift
borrowed
dental
##burg
season
stanley
bat
contingenc
fairness
don
countervail
##ze
want
tree
deceased
##cc
sickness
##due
tractor
officially
engaging
nearly
enhance
ij
##2001
nitrogen
proposition
##ski
0207
363
368
##ska
pigs
corpus
examples
tu
faced
avail
petitioners
##mm
occupied
##eib
##0030
earlie
rejects
dialogue
mistake
newco
sunday
wal
indiana
suc
237
nuts
instalment
color
272
264
reside
franz
stakeholder
documented
photo
louisiana
distinctive
felt
pack
354
847
remote
pursuing
helle
whit
##0010
evident
dairy
juror
flower
heads
370
##ow
girl
parking
##attle
paras
306
visual
largely
physician
migrant
arrival
constructive
movements
nord
weapons
promotional
pleading
principally
##frs
hinder
ri
336
ali
plate
goal
proving
sw
moldova
358
las
restaurant
aids
grace
yang
arrange
##organ
ceilings
consequential
##berrie
##rum
wilson
deep
checked
learning
experienced
pin
peace
##pore
316
prudential
alert
##alities
433
willing
transmit
tolerance
scenario
jpm
pfi
attempts
spin
1006
collecting
indefinite
bas
rape
clark
evaluated
plead
possessions
coco
disabilities
rebate
rescind
cu
moscow
imposes
inference
mobility
292
wi
430
mixe
occupancy
remitted
disseminati
cream
miles
extradition
rulings
321
preservation
##gericht
cocaine
reproduction
269
442
incomplete
comparative
##nda
hands
alpha
serial
356
chloro
harassment
coupon
taiwan
malt
antitrust
##seas
412
abroad
israel
mas
remedial
foods
passing
basket
conventional
fluid
garment
cct
fuels
mediterrane
precaution
##amt
metres
optical
kansas
clarification
formally
oxide
observer
##062
farming
395
asking
texts
pour
trace
daniel
##iv
331
540
403
respondents
church
reflecting
mediation
341
##fluoro
guardian
291
facilitat
disadvantage
acknowledgement
##ke
293
278
valle
viewed
416
build
accorded
##chi
##ological
bottle
mem
##tory
separated
axle
850
diagnostic
founder
mountain
##amine
franchisee
309
publicity
subsystem
spare
rejecting
brokers
##ating
newspaper
iceland
rio
##vision
##36
branches
366
notifies
gm
sort
hoc
324
today
corrig
defaults
462
374
subrogation
polymer
iran
alien
pm
##rmal
sud
##capacity
##ism
cook
traffick
banker
addressing
resistance
initiat
411
279
effectuate
extremely
elapsed
##nie
422
inquiri
ventures
restore
enhanced
holdco
objectively
formulation
unlawfully
objected
246
##dollar
lad
323
silicon
else
toilet
stable
camp
steam
##stein
readily
352
hi
410
ferro
interruption
doctors
earth
453
analogous
familiar
##validation
440
stress
crucial
##eta
declarator
bought
palm
interconnection
links
##rose
329
outlet
##ado
treating
chronic
ordering
##aux
##ki
##nes
dye
276
peak
sme
stands
edge
supersede
analog
investigators
overlap
idea
seized
unused
omni
juice
simplified
##vard
adjudication
##gg
hir
649
piece
sued
1940
1957
purport
probably
##301
brokerage
elimination
consistency
supervised
consign
weekly
443
administer
351
crossing
rec
##ile
380
furtherance
virus
##residing
declined
selective
forma
rodriguez
##tes
390
intervals
ratifie
discontinued
fever
entitlements
reconciliation
convictions
##wa
advertisement
felony
deprive
expires
prudent
incorporat
##sky
502
##eau
rendering
serbia
houston
forensic
directions
286
##ala
326
currenc
quantum
career
noise
rational
ports
stem
banc
corrections
conceal
dedicate
##elles
offender
sul
barriers
##tte
eleventh
hy
274
##ego
drink
jose
conflicting
practising
restraint
brother
santa
retaliation
289
screen
citizenship
doe
music
tag
denominate
proprietor
feature
ammoni
sovereign
575
##30
##relocation
pursuit
replacing
stipulate
furnishing
ensured
shortly
##bar
morris
taylor
obviously
exchanges
youth
345
flour
364
duplication
surveys
habitat
moral
something
predominant
##indemnities
zinc
abstract
asbestos
edward
timber
trials
gu
distinguished
laundering
332
ww
wrote
##sch
277
sublease
348
sure
severity
nu
##709
disclosures
##endum
contaminati
coordinated
eeo
##urgenc
524
548
##all
unload
saturday
utilit
escape
window
amino
##410
deportation
speak
tomato
432
ky
reinforce
sports
deductible
slovak
##ssier
rank
leaf
mature
tower
dismissing
pri
toward
##ote
659
corn
baker
arizona
arc
##irl
bundes
governor
##ck
accurately
injection
row
ambiguit
builder
explosive
boxe
acquis
##0808
responded
408
unlimited
precluded
lots
evidentiary
commonly
authentication
vital
ministers
adjourned
kar
opt
gram
douglas
highway
says
##tia
subpoena
##anana
implies
weighting
perhaps
harmoniz
##00000
##phenyl
boston
iowa
underline
parliamentary
mouth
ox
dose
posted
##2003
unusual
schools
successfully
##pdo
420
kh
574
ryan
cement
allocate
digit
ki
guard
bosnia
sphere
371
##rue
bottom
##aria
lie
chambers
##led
552
##zion
inferences
afghanistan
##gistrarpresident
beam
repeat
##xyl
tim
##pinco
allen
950
376
deviation
salmon
killed
##fo
429
wanted
520
lit
merge
sides
##ber
353
##ix
attach
##unconstitutional
##admissibility
wilm
desired
361
morocc
watch
utilized
accountant
359
##enko
died
flavo
475
pur
tennessee
##23
atomic
write
inducement
1605
uruguay
putting
ball
##0101
voltage
amongst
334
346
plot
pulp
certifie
explicit
373
foreseen
assault
thing
lacked
##ethyl
publishing
##space
nickel
securityholder
earn
##national
339
syr
generating
tend
combat
1959
##ria
assure
serves
423
exploitati
guilt
##ert
affidavits
sit
jurisdictional
abduction
divid
##axis
rehabilitation
##ball
confinement
##bean
##annual
dynamic
suspending
aug
refiner
607
dist
motors
launch
possibilities
minerals
leads
aquacultur
kentucky
378
ward
feb
annul
shop
unspecified
transcript
considerably
honor
oklahoma
mor
headquarters
##res
lasted
##hu
pose
invoke
oversight
##jsc
1107
cylinder
avoided
stephen
minnesota
incidents
brak
flexibl
adult
logo
minimis
xv
prescribe
dan
reiterated
##rel
##tra
invite
bu
denominator
##gh
gaming
adduced
1956
asia
sublicensees
mitigate
tech
367
reality
absolutely
shield
perspective
##bert
subscribe
demonstrating
sic
science
##po
ratabl
##ari
lewis
urgent
nova
delinquent
japanese
acquiror
470
convincing
abolish
batch
528
1954
##ru
diploma
hit
387
innovative
##iz
disagreement
pesticide
peer
nomination
compar
bases
##lar
ethan
##317
hectare
undergo
506
386
emotional
cobra
lose
psychological
specialist
648
436
setoff
nitrate
##uc
meth
480
sublicensee
explanatory
##0020
disruption
2204
##rie
mol
imply
discriminate
fashion
committees
805
ef
##ost
oak
382
civilian
426
immovab
jordan
342
lett
carries
uncertain
debit
debate
prop
learned
tuna
##ken
turning
##tan
detriment
vacanc
specifie
435
por
##ich
standby
origination
herzegovina
504
##beet
coffee
rub
460
tab
calling
379
eliminated
shortfall
minute
ways
disturbance
depth
facto
parity
##itrus
behavior
enjoyed
questioning
defeas
impartial
gathering
##38
##ovych
dam
brands
407
392
controller
##mont
extraction
accumulated
##vi
pen
remittance
ku
log
domicile
##oma
compelling
routine
##ries
625
ocean
deterioration
corruption
malay
##ius
thorough
##actors
344
picture
heart
##mes
9000
383
mart
541
pleaded
1260
justifying
1000
securit
winter
##bra
gift
##ines
violent
vine
threats
wider
##sten
##varti
roma
exactly
##009
pollutant
precludes
413
generator
robbery
512
parole
continuity
471
characterize
drop
##51
warranted
cessat
posting
##ostat
amounting
improperly
729
balancing
francisc
##aire
eighteen
##zi
slightly
teacher
han
demonstrates
unjustified
417
developer
bodily
intending
intervener
craft
##gsk
##ovich
hypothetical
respected
numerator
specialised
diminish
excuse
impartiality
kan
bl
multiplying
preemptive
##ker
vacated
##onate
bruce
1701
040
lies
##26
regulate
385
##wi
##809
humanitarian
trends
pakistan
##azole
exportation
singa
##hoe
disappearance
coastal
372
intensity
##fin
hired
377
gradual
##S
penn
##ag
pari
reset
examiner
##thio
voor
##band
veteran
lived
eric
disagree
dual
466
retired
493
pair
macedonia
voice
##han
europo
##ped
##are
cab
therapeutic
penal
rad
virgin
probability
tell
1955
vulnerable
ante
##3000
serv
prescription
##arily
##uan
conduit
borders
##fish
architect
##eller
expulsion
differently
yellow
##ston
tract
##jo
carb
electro
enrich
comprised
manda
jo
alabama
##life
jun
720
##cases
arrear
##014
mont
credible
dioxide
ran
informing
billing
610
destroy
scene
662
automated
##eur
percentages
##tial
conditioning
822
discipline
formulate
nat
cong
referral
##cz
thread
lynch
##ral
denie
lane
966
cord
contravention
explanations
norwegian
522
characteristic
ser
##013
bayer
adjacen
endanger
densit
transpose
397
467
consolidate
leader
xx
duplicate
##ett
wholesaler
eventually
grievance
prosecuting
ger
ferment
concepts
##cia
##exe
transposition
pub
##alo
sever
##urges
weather
##iso
##nik
sensor
fulfilment
##pol
breaching
retailers
trip
economi
sequence
equ
unchange
gbp
1001
##urs
summer
disaster
bailiff
##ible
389
abandonment
##ven
inferred
yugoslavia
coating
sha
backed
cont
brita
visible
stopped
525
bor
516
##ascar
template
substitut
wisconsin
marshall
friendly
obstacles
##down
fixes
wished
##43
prejudiced
kn
515
sow
1702
struck
##atory
570
##mmunities
pine
wright
yugoslav
zu
857
601
ratification
##schler
##cal
leverage
caught
sharp
428
big
forbearance
enroll
##system
445
eradicati
##24
##bury
369
naphth
431
instrumentalit
##una
threaten
##39
##zo
incorporate
lan
refin
annuity
comm
outbreak
sac
horizon
shot
arranged
straight
bore
conceded
identifie
beta
corner
intelligence
curve
exhaustive
auxiliar
phillips
##cetate
##eij
##esters
racial
prospect
##32002
##rada
##potass
##400
##ania
fdic
linea
notion
##ray
023
##wick
yu
reinstatement
##precision
arts
sept
steven
attendance
xvi
overhead
philadelphi
ze
dear
##point
psr
ideas
concurrent
461
455
##town
612
guinea
harbor
god
rightly
driven
511
##capitalization
infring
disburse
summons
bab
antibod
ok
chart
sealed
heretofore
gulf
xvii
guarantie
physically
subjective
inapplicable
vacate
numeric
inmate
restraining
aggravate
##met
lact
##ok
gonzale
theoretical
490
subservicer
complet
calci
439
unduly
rectang
##factory
##inger
reconsideration
##een
##hat
appraiser
notary
extreme
860
exclusivity
emphasised
epi
probation
crack
screening
fast
recognizes
disc
560
mills
##ometer
impede
cha
angeles
wagon
andrew
stabilis
##ions
393
hygiene
508
##group
##ute
path
##cha
utilize
asst
opposing
roche
##unaudit
##take
##tar
limb
crown
segments
confederation
offshore
ceramic
wastes
##alogue
##work
decimal
philippine
##matic
publisher
arranger
##its
haul
cosmetic
journey
author
telecopy
thompson
##ric
impression
moist
solvency
vitamin
##34
444
465
tbe
##pro
woman
tribe
commodities
482
logical
##gli
campaign
try
versa
hourly
609
solicitor
smart
438
rem
keyword
##mark
##ibility
enactment
overcome
walker
##ros
063
449
kidney
hamburg
devote
deck
mara
leasehold
dow
509
464
succession
reception
remedied
##adi
delete
servicemen
reveal
##0001
philip
radiu
assemble
cia
mos
cif
connecticut
kon
503
handle
refined
complement
somewhat
473
boil
composite
bail
neu
##ct
1951
attempting
##0810
507
democracy
intervening
##weg
437
452
ranking
invalidate
argentin
##prop
vendors
constraints
equivalence
flights
herself
##27
provincial
421
proviso
bru
##pr
427
chattel
depart
finanz
finn
hungarian
hydr
phenyl
begins
denominations
played
##ub
eighty
mag
680
stor
##cap
grass
514
419
##ase
##lich
identifier
469
457
##elux
circle
##dale
photographs
compelled
##33
hor
399
##oli
careful
zon
someone
dallas
motive
sanitary
toll
##uk
881
thi
aeroplane
married
024
cote
howard
542
encouraged
547
441
boiler
recognise
rip
mercur
sig
530
threatening
##form
mich
prejudicial
briefs
##nnage
structured
suppress
suffice
381
ends
certi
dead
meter
compl
diligently
ukrainian
##100
##sel
##hua
479
##enne
544
random
##ants
1950
727
diamond
discontinue
fourteenth
aliens
##urism
endeavour
675
incurrence
definite
modern
rescission
evolution
personality
sep
555
580
##ivna
filling
513
##rate
mil
speaking
1104
ste
capability
rome
glen
predict
##cker
cancer
secrecy
inaccurate
394
isolation
trusts
##eligible
##0402
##012
mio
weakness
##ful
contacted
451
convinced
mesh
661
551
418
434
853
extends
moll
defer
electoral
romanian
campbell
consisted
administering
patriot
happened
alloc
absorb
##consistency
enquir
intercompany
defam
##mos
enclosed
cfr
memor
##mond
parental
honey
api
flexi
hexa
##831
519
fidelity
##ku
##1994
##usc
##806
##ement
variance
gatt
##ott
cour
coil
##ique
substantiated
505
committing
smooth
puert
##sio
dkt
##uring
##therapy
removing
morning
##ula
##corp
restrain
sterling
496
484
deeds
398
mer
forever
monitored
divorce
##kov
##use
gate
##ward
792
diet
##amino
computing
regulating
##eti
segregate
##izing
gal
allocat
virtually
eleven
proportional
wear
char
minimal
##kins
interpretations
diagnosis
berlin
counted
prosecuted
##tus
bulgarian
flu
incapable
easy
attended
awarding
obstacle
silk
resist
acquirer
bench
565
##itis
translate
##rdam
549
##mus
compartment
detrimental
arab
##ami
taliban
esc
meaningful
##total
shang
extinguish
straw
prepay
clarified
oxygen
##pl
##litre
infant
prohibitions
visited
configuration
kin
broadly
concurring
sap
615
611
##dam
##ches
715
##bl
erd
458
predicate
##cher
##recht
##ico
talk
radiation
complementary
downward
##ierra
conversation
della
dissent
produces
persecution
##body
613
enabled
##wing
##975
517
boule
semen
nitro
rehearing
telecopie
gor
##lic
##oda
617
undergone
robinson
timetable
vaccine
bur
violat
030
ada
knowing
ameri
sister
remember
##cor
sam
##tif
cre
criticism
##chloro
##47
dissolved
cpt
hop
surcharge
feasibl
strain
differs
1953
604
subscribers
##fully
841
garcia
mayor
478
balanced
slight
abide
sight
christopher
muscle
481
bias
inner
##151
922
filament
##acea
plenary
cede
##novad
roof
moot
got
telecom
##ising
exterior
verifying
encumber
suggestion
521
mellon
indispens
##ict
797
448
informal
597
rationale
henry
professionals
##soft
##52
0401
detainee
plausible
innocence
brothers
1602
preempt
macke
459
##1992
447
inflation
713
##ju
supposed
533
score
franchisor
albania
upward
drew
##ger
kr
killing
nace
##car
volatil
##071
merrill
retir
463
carc
seriousness
regulator
identifiabl
##aro
##incorporated
wis
##111
ascertained
loi
##lina
movant
725
456
grid
tie
ordinarily
fu
020
##via
lawrence
stringent
660
quor
wrongly
amste
##inous
prolonged
##economic
701
highlight
apr
golden
##tro
##view
carton
handled
##1999
twentie
kinds
##ran
ethnic
##ret
602
adams
ave
666
fourteen
jack
emphasises
teaching
appreciabl
fcc
##ether
##tion
subi
667
##ire
##urity
##link
702
620
pick
disqualifie
entails
waiving
gained
488
homes
buffer
soft
##cu
sheriff
vague
periodical
derogat
defeat
slow
603
reaffirm
travell
hart
##older
descripti
utah
progressive
react
hub
668
mitchel
unitholder
injurious
insure
differential
searches
##sko
appended
dell
novel
483
install
2021
century
attitude
pgi
487
446
brass
solidarit
metric
##bel
##illa
hardship
unclear
474
bids
486
##core
rescue
546
onward
susceptible
##flower
##che
combating
##ali
##house
##ete
616
##gel
pas
smoke
##day
otc
##601
presenting
subsid
doors
equi
495
##mounted
642
realt
librar
##gage
restored
cayman
gel
envelope
inaction
feel
battery
sulf
608
capture
mile
adr
pat
pac
##petition
665
consorti
489
nap
shortcomings
clock
fan
##49
diluted
590
##gram
##ground
slip
reciprocal
##stop
fired
##ette
zeal
539
wil
##arley
##sta
plaz
mary
##zone
accumulation
##set
characterised
valore
displayed
595
plat
immaterial
camera
passive
medicare
releas
pears
sara
theretofor
640
subscribed
472
lengthy
algeria
924
montenegro
ross
airway
mould
606
lend
fra
485
resumed
reveals
abolition
symptom
##gnition
mie
1949
556
titles
536
##ories
##ske
owning
adhere
pretrial
1947
socio
##cio
privileged
mv
hague
hect
630
focused
attract
posed
greenhouse
neighbour
topic
beach
1952
albeit
cooling
inquire
baxter
##turned
frankfurt
liquor
vacuum
choosing
silva
donald
##cho
##can
lini
fox
delet
medication
coordinat
resolving
ministerial
manuel
531
reseller
875
attacks
##nce
##1948
##ssen
unacceptabl
##gas
bargain
convergen
til
abandon
lamb
694
lei
magnetic
499
retains
facing
624
coherent
706
widely
logistics
server
476
760
605
admittedly
ahcccs
pepper
decedent
irregularit
ye
##eni
lime
##ylene
simpl
judiciary
##acion
##idine
gul
excl
liechtenstein
alternatives
851
Sh
fluor
prosper
grave
##ize
chose
052
##5000
yard
##red
confront
indemnifi
cigarette
varied
lab
hami
voted
duch
730
##ero
bal
agri
reagent
rooms
##we
##1990
bread
qui
metro
prevents
assignees
chen
warrantholder
##29
warne
senate
marc
703
agreeing
reckless
summarised
congressional
preserv
##ux
transact
##uri
hope
contravene
hud
lique
expressions
div
lincoln
ontario
isolated
ros
rat
etat
585
569
021
538
##orari
529
magnes
sci
2052
##hin
captain
recruit
532
##min
027
countersign
dignity
nonassessab
##west
##1998
oz
sat
707
deadlines
##ainless
bloom
##ertificateholder
671
##passu
##hand
768
staple
presentment
iz
explains
kor
##mix
align
proxie
##110
windows
ram
518
coupling
fluctuation
herring
evans
##315
slaughterhouse
4253
gray
franc
##ically
1766
545
slot
526
iraq
dust
supervise
621
553
##seed
really
abnormal
##eck
alex
maria
gauge
comfort
eagle
warn
721
professor
##motive
723
492
561
##ious
770
##az
1939
overriding
wash
##oxo
674
wafer
##ura
clinic
delta
651
egypt
##hang
opp
856
ratione
divestiture
adm
memo
ober
reissue
571
superseded
777
##cidal
infection
##rich
gl
reynold
matern
##yan
sick
##ika
vega
circumvent
swift
619
phantom
futures
enhanc
689
##published
takeover
577
852
creek
endorse
494
sink
upgrade
##rak
freezing
interrogator
##ram
jeffrey
unambiguous
pertain
enlargement
##0016
cultivati
adversary
organ
partnerships
491
judicata
gro
terry
refugees
kl
##1993
sri
##411
transformation
combine
resume
lacks
truly
receivership
acres
##compliance
causati
##adea
535
emphasized
confession
##rope
cooper
##lia
qualit
construct
phosphate
taxpayers
furnace
hsc
562
beer
surgical
pis
speculative
encompass
technique
esma
bit
584
##48
encouraging
impregna
##ere
christian
zur
##illo
negotiat
moneys
676
waterway
tea
##340
interlocutor
##ph
##row
##odi
##319
##feld
boeing
lloyd
casino
##evich
portable
##ben
reversal
##ites
interaction
##elle
##sey
gone
updates
##051
revise
##still
collin
premier
tec
classify
movable
fertiliser
##xis
polo
disallow
##052
752
714
inconvenien
726
particle
irregular
chrom
saying
globe
correlation
sprint
##llo
calibrati
##0502
##azine
pover
notional
influen
deriv
##103
##gin
promoted
636
##dehyd
empty
possesses
partition
unsubstantiated
approximate
spite
##wiecie
##ele
cellulo
refugee
##220
##pen
grower
owe
imp
boundaries
##nyl
ski
905
kai
##2309
zoo
complian
nam
shortage
disagreed
626
bow
ambit
minimize
655
europa
disclaimer
##iya
undoubtedly
##polymer
wald
shore
tunisia
empower
801
586
##heim
summari
enumerated
##berger
comb
weapon
##institutional
sweeten
blocked
810
advancement
##ison
mississippi
##van
infer
acet
rmb
abb
vacant
coke
efficac
conn
phosphor
670
##ylam
siemens
##rra
##332
##melon
assertions
##053
foresee
765
infra
##130
blade
complainants
conferr
mou
bulletin
poll
bidder
##vin
jail
951
deliberately
498
costa
retailer
newspapers
logic
parker
audio
narcotic
bms
sca
settl
murray
nyse
cac
##zen
tur
##titude
walk
quasi
organs
dock
527
prorate
596
liberal
##ged
pounds
775
rac
antonio
780
regret
sew
barrier
brook
wo
feasi
537
bou
subsistence
chap
854
##currency
658
worded
##oz
ambiguous
635
spray
academic
mat
vaccination
##ees
564
732
mun
628
jp
belt
liquidat
##cion
incurring
##our
678
##31
pledges
sq
probative
construe
##rat
1946
closer
enshrined
reconstruction
##116
captions
##meters
##onia
err
mutilat
679
##53
497
canal
silent
##burn
740
renders
##mas
alexander
##ender
olaf
notation
825
##employer
reproduced
573
prong
lifetime
sport
##any
shipper
##certificate
atlanta
aus
820
##ello
walter
614
accommodate
##thy
thirteen
consumed
##dgr
705
sake
amalgamation
557
honour
affiliation
633
infringes
##lan
wale
598
recognises
652
hydraulic
originate
690
##ych
##0002
1308
occasional
840
reopen
wfb
unanimous
##1996
contempt
##412
##uev
libya
granic
correctness
##314
reinstated
684
exh
syria
563
##ayev
computers
dress
##inate
simultaneous
boat
ren
unjust
discharges
534
##hattan
phoe
##path
583
organise
arrive
consignee
assured
broadcaster
ref
##low
558
##tek
sad
lopez
bicycle
jacobs
graham
745
ju
bny
herita
motivated
trucks
572
593
631
surgery
##misappropriation
str
remark
greenland
imminent
##1991
veterinarian
endo
##mount
paint
yyyy
##021
orientation
##105
embodied
mirror
avian
inspected
eps
arbitral
1255
spe
reopening
heavi
592
hunt
classical
##120
##art
practitioner
alarm
901
##ference
##uci
622
ambient
##vent
donor
consensus
##063
656
experiment
##cutting
outline
##139
magazine
##appendices
attestation
static
eliminat
perceived
##ug
639
persuasive
##mascu
##worth
dna
579
dwelling
##1985
torre
##1995
excessively
oregon
709
correctional
propan
2454
##lu
turbine
convenient
compile
692
##suring
apa
affixe
mur
##wo
lifting
##iere
sil
dia
bath
##eu
austin
je
kitchen
sup
jha
istanbul
signatories
influenced
clo
premise
554
survivor
memorand
neglect
defraud
soy
horn
9100
##bre
voyage
##rtel
##accuracy
platforms
deliberation
prod
##35
qualifies
luc
##madri
##60
2913
accreditation
kelly
aromat
##uta
brian
fried
integrat
berg
##pta
reproduc
880
attaching
##ily
623
##102
##cq
kara
567
effecting
815
mitigating
deployment
##olo
epc
lasting
081
benz
qualitative
1049
conversations
inflicted
785
actuarial
miss
exert
##but
##eri
##ural
hostil
654
pra
electing
plainly
664
ivan
##rica
883
remediation
882
##331
kam
cabinet
mlp
904
1035
##0019
803
pip
##ris
quin
attractive
##azion
638
collision
802
##ama
653
##dia
731
audiovisu
alignment
##0040
confiscation
##312
974
##rine
582
eth
sevent
remission
exceptionally
##odder
##light
##bm
discern
punishable
arkansas
assisting
mai
##rim
685
##gue
568
816
##ima
lou
vienna
adopts
pregnanc
##anas
neck
##data
lemon
zip
synerg
1942
propos
645
mk
draws
foreclose
711
rel
##dorf
2200
3223
##unto
##eous
encourages
920
657
habitual
##immune
787
kenne
##42
disclaim
transform
sharehold
646
060
stein
insider
842
##ceding
muta
1103
sovereignty
lac
imputed
kim
congo
##section
unemployed
alan
798
0303
##media
csd
voter
##1989
literature
##onic
##500
##rag
1005
adjudge
##press
907
recreation
withdrew
drinking
benzo
tied
gil
nlr
##0601
cow
pad
ear
plai
ignored
dispos
loc
##born
rig
cam
hypothecate
stewart
641
produ
che
bac
##tai
##ovic
nutrition
panels
meta
xxi
xxx
await
brom
bermud
735
591
##wald
flask
deals
##1988
##039
##quarters
unf
stream
##zyme
080
743
gut
##6204
594
581
##cock
fragment
privatisation
tuberculosis
846
denomination
587
##330
##nci
##tri
tw
pln
wheels
576
##318
##munition
2658
##nian
##121
italia
##inated
##uana
haupt
##300
##force
##125
attributes
##bster
688
helicopter
589
banknote
realize
inventorie
expeditious
numerical
##tat
safeguarding
kirch
578
##sulph
syn
fulfils
stopp
1945
778
##ured
##lay
obligator
prosecutors
pos
adjudicated
737
azerbaijan
##elli
559
divers
chile
acre
##lla
vinyl
endeavor
handed
innocent
ker
guards
cyclo
physicians
bleach
1122
frequent
##8542
vin
##green
undertook
686
anthony
599
atla
postponed
verbal
gathered
undivid
##ude
##ception
mcp
##payment
tunnel
interviewed
promoter
738
866
experimental
nels
##ky
755
reed
preferabl
claud
negligibl
conseil
##orough
deploy
980
rus
roads
pursuan
##strom
##case
soldiers
substantiate
##end
588
##ante
##1987
ignore
716
cad
recogniz
663
clay
commercialize
weak
710
srl
960
##sulf
marij
##ltip
gregory
##enburg
##buty
savivaldyb
reconsider
nach
728
relinquish
denver
parachute
##1986
metropolit
supervis
strick
contesting
##credit
gazette
ferc
##gate
caution
910
##proportionately
##azo
elastic
urged
hole
contradict
##945
##osi
871
##mex
medicaid
gasoline
kre
##sson
converse
collector
leak
vietnam
806
ev
##iesel
gary
677
696
987
recorder
##wen
##335
618
##erie
anticipate
643
##profitable
903
fir
931
pictures
717
##483
workshop
mus
##311
gluc
##wise
disseminate
##ager
mari
693
##del
reimbursable
lacking
751
767
referee
lithuanian
declin
sons
##lene
drag
##bec
754
##ota
pea
patrick
##let
673
assay
##livan
knows
718
##ende
741
vast
suggesting
##32
constru
abd
updating
ctr
687
##ves
tre
##mpa
##mfi
wound
##rzez
##rins
691
kas
##gan
alumin
870
disturbances
##ergy
1944
##ably
821
##ols
794
genentech
##iva
strasse
695
rigid
627
conceived
consequent
##spending
769
ethics
734
carr
unauthorised
premature
oath
insist
abbot
##glomer
##hill
semiconductor
##68
793
911
lid
dies
761
1941
817
##ien
diplomatic
attending
preponderan
##65
attest
perry
ballot
##berry
ultra
952
dept
naf
##0102
sensitivit
apportion
##lus
gordo
coordinator
##urea
abatement
1612
gra
##204
##ela
##ila
##109
fig
blanket
##straz
linen
overpayment
rye
637
preceded
blv
##etta
caption
634
dean
pest
##stat
explosion
rollover
##med
condemn
resides
699
devoid
style
hunting
vene
##enberg
nederland
presuppose
833
capabilit
##050
increment
629
launched
allotment
peas
##some
##ume
756
walls
##307
crystal
revisions
kosovo
##phyto
843
##nts
washing
persuaded
sto
arithmetic
mess
overruled
interval
##ille
murphy
##see
pellet
reviews
pie
749
dennis
##law
##hum
acquittal
illegally
844
##oil
##inter
bright
pod
##cities
1291
ridge
workplace
hay
1937
mechanics
accessibility
northwest
oem
shock
sens
acryl
##zy
heater
pathogen
crush
grading
jrc
unaware
mir
764
##strasse
cvr
burdens
##zia
757
hol
trying
dissolve
chairperson
848
loop
##ever
branded
arche
peters
activate
865
722
cur
##41
dropp
845
differing
cons
reput
kit
gw
##accountability
566
708
attribute
begun
681
hiv
rib
753
approache
896
##urus
summit
gene
roth
denatur
##dis
anywhere
miami
flash
interrogation
647
cardinal
temporal
##320
##har
freddi
##0080
chicken
##los
verizon
885
smok
prisons
##zoll
striking
diminution
alias
cycl
reconcile
crim
leon
cherr
##kh
proves
contemplate
obstruct
richards
724
wolf
dal
dispositions
##tera
902
##craft
bribe
approached
##030
diligent
rectified
683
906
cmo
682
##apoli
overview
hull
blow
796
1907
##roy
petro
depositions
sola
carl
##hen
grey
##las
795
##osis
##mixture
lind
fri
confine
madison
ventilation
codifie
belarus
1938
762
sz
##usa
besides
##gesetz
restate
tear
liaison
##essen
signall
outdoor
uphold
##115
intervenor
subsidiar
thin
##imi
catalyst
abusive
tso
derogate
perpetual
##ovin
scot
martial
mut
discloses
entrust
632
klein
diagram
peel
##dra
##idi
seminar
812
hsbc
834
suspects
890
##rick
cooked
organiz
complaining
landes
intensive
790
##erson
##aho
systemic
kazakhstan
decl
mason
appraise
##rise
catalogue
houses
697
deficient
colombia
kenneth
##dar
stemming
##225
glove
subpart
presidential
sail
russell
opco
##0203
849
lang
##iers
791
sav
855
alt
bro
##rus
##ige
##duced
milli
wit
reinvestment
##101
unfit
##ology
purchasable
##hipment
##531
liquidate
##iel
884
adam
2933
resins
suppression
edwards
cape
891
urani
sewer
##owski
837
solva
simplify
##bro
669
jud
colony
rain
fatt
trouble
970
reward
trained
carbo
811
turner
##0404
expended
everything
dol
libel
assize
##qui
reaches
sim
mada
tir
drafts
772
##bridge
pull
transporting
lanka
overcrowding
799
##organic
grievances
armenia
bol
2201
0003
dsm
liberalis
wynn
hughe
offeror
expropriation
converter
##dan
laser
##ridge
happening
equit
788
terrestrial
exchang
discard
litigate
##eva
672
830
impacts
assemblies
##shares
spi
borrow
895
autonomy
##ili
sarban
widow
barge
bearer
hemp
##104
matur
026
##0403
raad
contaminated
tenor
alaska
recordation
##sol
##afr
strikes
070
##grown
rein
rare
##pu
validated
##just
dispatched
cohen
##chus
pendency
##1984
##eel
##ische
##uce
spend
pyr
push
dea
##tening
peculiar
overlapp
discrepancy
suisse
brig
##cci
asterisk
sixteen
crane
dev
rosen
##ther
##1982
dictate
methodologi
##aya
aci
##1981
##far
994
2710
contradicted
sys
gad
collaborator
925
peru
##ados
985
controversi
headed
pol
cfo
##nium
beaten
##509
foil
roberts
818
minimise
secondment
chroma
wh
tuber
sudan
ecological
##idding
cabbage
deletion
##constitutionally
vor
774
808
arguable
wm
gov
##ient
minne
##rough
implicit
##1782
concedes
adss
814
insisted
773
kevi
garden
930
858
roe
##fusion
##0702
mask
733
inevitably
carbonate
748
##val
##opa
proc
##1983
##373
soviet
pir
894
viewing
736
##80
dakota
proximity
thor
teu
postpone
saving
petrol
##eneca
##nica
1905
frequencies
zo
assent
##rque
975
kraft
wy
sol
malicious
precondition
frf
##tive
warsaw
brewer
retaliat
flak
909
membr
counterfeit
##ator
descen
pes
867
distiller
governors
##045
##und
746
particulate
scheduling
##exo
##10000
impurit
##140
##long
1943
destined
diagnosed
coherenc
maj
warnings
locate
cop
##gar
##characterization
discharging
pound
inward
##ethane
rom
compensat
emerge
##ador
##lock
clement
gib
casting
##uch
pel
1930
ronald
bancorp
807
747
933
##issued
array
940
prince
ppm
encumbered
##berge
pulse
photograph
moderate
878
leban
##207
och
eyes
##919
##108
pag
##ensi
perpetrators
##31980
742
adhesive
denote
0210
wir
##tant
ark
781
believing
##107
##var
874
balti
bryan
realistic
gall
##032
flex
apollo
pcb
##oj
##mine
##57
allie
644
##anti
pierce
evasion
712
friend
pharmacy
090
ellis
cho
789
##833
##rado
roman
motorcycle
##carb
refinanced
straddle
##2004
hoffman
##ery
anticipation
##hur
##nel
##produkt
##oxa
##nio
766
guest
storm
chocolate
acknowledg
pak
##2010
cows
sta
contradiction
carter
2255
oversee
lam
cusip
nonrecourse
arriving
##crp
healthy
823
lakes
implicitly
toxicit
brick
tablet
##osci
mistaken
786
##034
journalists
stabiliz
discrepancies
##erol
mehmet
canton
hearsay
tropica
patented
abdul
matrix
998
2254
teams
airworth
921
gla
obligate
779
##responding
mall
corps
##gni
##ments
graduate
fbi
longitudinal
formulae
hatch
frivolous
absorpti
spill
##ucci
872
cypriot
concur
##ives
pace
##ash
##6203
iris
receptacle
pharma
entitl
1101
nursing
victor
preclud
sparkl
vincent
pile
813
ccc
##len
uzbekistan
fanni
emphasize
affirming
buff
868
dishonest
acquitted
6403
reinsure
##uma
##rosci
advising
##type
shi
##hart
809
##pour
771
wallace
summoned
cup
milan
feminin
basin
##413
presidenc
908
belonged
##069
sofia
resp
cox
compressi
##ick
nhc
##503
##jet
reinforc
pillar
##eman
877
##031
##ups
traveller
965
enrollee
abu
##1979
##ovo
nad
snow
##yrene
incurs
##azol
maurit
redundanc
##iki
interventions
##hovna
variant
conservator
##ency
stamped
949
##benzo
828
##dex
estimation
printer
913
authors
anhydr
sciences
lord
719
tap
captive
##351
nil
fringe
782
shoulder
744
ago
##119
917
##704
tip
pointing
visco
918
##cyte
exemplar
dark
##tron
##istic
cataly
judicature
subsidise
prerequisite
exhibition
monday
propagat
##amento
##igna
##37
##igm
lim
859
schneider
##31997
897
transmitt
##account
arti
cruz
recognis
parameter
dar
##112
harr
##jan
urge
incorrectly
##0200
infected
bog
stevens
##mon
hersh
##willingness
summarized
##uti
commune
nurse
972
minors
acc
##56
capri
##sche
arbitrate
758
##ener
##kan
proration
kill
garage
1249
colo
##mac
##215
aque
announce
##nma
unavoidabl
triggered
adjournment
##0501
##marty
wax
##rad
laminate
celgene
##226
contradictory
payout
##lov
836
##power
distillate
illicit
##106
orphan
rotation
cole
realise
##eme
simon
##gard
cool
##020
recite
shaw
##7208
##productive
binder
occupant
915
leadership
##loc
sworn
traditionally
763
severely
postponement
coloured
molecular
analys
##ech
gambl
strand
##042
holly
speedy
##0006
##bu
##wet
alta
##aki
modes
919
lip
tro
##conciliation
persistent
##361
kier
inventor
##othy
recovering
759
##pre
bark
tes
##542
authenticat
##rought
analyze
shipbuild
##ancy
##skiy
nie
##99
designat
chartered
##nor
##zz
0005
mca
andri
cec
croatian
ticket
1604
disparit
5208
827
##cyclo
pink
americas
judgement
sleep
advantageous
wave
presumably
subdivide
##oti
##1301
universit
raymond
##083
campaigns
876
flaw
promised
infectio
sherman
shooting
admitting
1017
lis
##mis
portal
##0027
foundry
recurring
##44
psa
baby
handicap
contaminant
##genic
fallen
3553
kra
afterwards
doubtful
convened
claimholder
numbered
973
861
strengthened
##stadt
##523
story
marg
##helpful
fische
824
stood
friends
specificity
vo
##cie
calc
##611
cms
impermissibl
##hexa
throw
##lui
spice
pioneer
ranging
929
nielsen
charitabl
saudi
qa
voucher
##solubl
clothes
institut
##072
spoke
comun
villa
##ubs
occupy
biod
mj
##egf
learn
##kel
##0005
##ibc
engages
rajon
##tti
##werk
erect
hippo
sym
fowl
novation
remind
##306
##drome
thoroughly
##este
emc
ensuing
aba
##ade
whereabouts
imperative
arabia
informant
bre
shaft
mexican
gentlem
mobil
quashing
##66
turns
##where
##rna
##aires
776
intercept
blind
emergenc
##tura
##9000
lap
cleve
##psc
cater
jj
##folk
mushroom
##droge
##ence
##nton
##ario
progressively
marie
##front
##lle
diyarbakir
aggregati
##unded
##333
##rotter
971
cinema
truthful
inconsistenc
skilled
##ges
##imo
698
##rod
1924
lehman
precedence
emerging
unw
barclay
fold
##ifier
lockbox
activation
weighed
##vis
##nuts
##chenko
##431
##while
ample
tug
##nina
proffered
transpos
goldman
jer
##holder
832
gui
tenn
##ren
stick
##iter
##mps
undisclosed
fond
##tree
shopp
retire
##otic
kos
dob
geneva
gang
foundations
aged
dans
pkk
bnp
accidental
easie
unter
##agne
plum
recoupment
##elo
fsb
##par
##326
justifies
distinguishable
fuji
capricious
1303
scan
899
cyber
##hall
##334
wagner
912
buck
compact
784
##thur
entrepreneur
978
955
ftc
propulsi
marshal
tourist
succeeded
##plc
trainee
##acy
conscious
embryos
936
articulated
jeopardise
sars
##iro
advertise
michel
926
untimel
metaboli
friday
roam
##uro
sudden
enzyme
##ycin
superintendent
snc
888
##gra
honest
jurispruden
criticised
889
medically
##ste
##ifying
##lena
##eng
widespread
##key
##414
whe
##rey
##lamine
##0230
aggravating
oriente
##step
sardin
appel
consultative
893
##114
##ssi
935
upholding
grande
aleksandr
##salle
trail
934
roller
communicat
##sibility
syndicate
hills
##rock
sali
ethical
##117
juan
compilation
immune
sess
##ark
springs
liner
##kow
pipelines
detective
volunteer
##0012
refrigerat
2022
perez
duck
##owell
##gradation
soren
nebraska
hide
designates
stan
869
1935
sorg
minn
carcass
deter
memorial
sco
819
##ault
cer
centers
961
##borg
negoti
##cis
tolling
##anol
##ugh
##201
adjudicate
886
963
grind
confuse
rogers
dig
transporter
##phos
##husk
sham
bran
entailed
warren
gy
826
platin
hep
##ente
organising
missile
restructure
practise
rectify
bros
##122
0707
862
tickets
941
##ista
baltic
##onej
##711
954
gum
pearl
##zhou
montgomery
matche
polu
##360
ecosystem
##067
coin
eviction
carne
##aging
##lli
watt
##ralta
drill
entrance
spark
boats
##065
##047
punished
psu
dun
838
fmc
earthquake
unsatisfactor
vicinit
evening
cadm
839
028
##yev
##pin
subscrib
interception
monolithic
restricts
varie
hk
resell
hawaii
923
lug
insulat
##0060
briefing
##pyri
satisfactorily
##nderson
##jer
collusion
chem
pot
lazar
##113
edis
procured
##041
937
tackle
eba
brain
barrel
penta
golf
disk
resol
corr
lar
tailor
##0220
928
cameras
photographic
##chen
831
##zona
gill
sai
tru
probe
##tate
hernandez
suicide
wats
tracks
telegraph
995
phenol
combin
fiber
mala
khan
1901
droit
icc
wilful
##1162
##905
album
intrinsic
##sburg
atmosphere
readjustment
##metric
##stra
0007
##cip
##vesting
739
hunter
abr
783
kol
aggressive
##eichen
##latin
dor
bitum
##421
humid
jar
mda
##ipa
914
blend
umbr
bare
shri
##077
repositor
##247
peg
##pansion
988
##541
phenomen
##lisb
##ssel
1493
##pcs
1785
coincide
lobby
##rio
presiding
##haus
##holm
sergeant
0008
deci
##lik
##cept
##dom
bon
916
0011
##199
wearing
expensive
brine
integ
noble
alba
##lair
unfavourabl
##polis
##zh
1936
##0050
radar
shut
unlawfulness
agr
829
##fax
##803
##anstalt
gan
vitiated
##nus
schu
inadequac
trunk
mau
receivers
communaut
##inski
elder
##acryl
municipalit
mann
sem
2208
embassy
##ike
##vat
appare
narrowly
##321
##brook
shops
nur
945
##54
wyzna
observing
sachs
proliferati
screw
##rina
earning
##372
pregnan
##cycli
sid
986
##flu
##hal
leaders
manipulation
##ija
##nde
hamp
reproduce
##mat
facial
subtract
flora
quo
##yer
##char
delle
unexercis
##025
##hip
balloon
bird
tas
ripe
vet
coach
##tina
sho
tari
landfill
kv
##422
interpreter
##tta
2023
##419
loyalty
complicate
##bia
decreas
luis
##20000
##nam
##830
indicted
992
##ava
happen
1224
deutschland
mul
tun
abstention
##disqualification
saar
neuro
rot
##018
948
##compatibility
##0028
##finanz
depot
latin
trap
835
989
illustrate
legac
3920
perception
kap
consolidat
midland
##lis
gre
cubic
##rton
admin
bullet
##propan
892
##carbo
bioma
##519
lux
adversarial
len
##mature
propriet
##mel
pressing
anchor
spo
873
##511
3824
displace
mod
##054
southwest
cic
detailing
927
rebut
revaluation
dwa
##033
craig
affix
auf
shoes
dictionar
exculpat
##iccat
997
lung
apportionment
tension
943
hake
polno
maca
##away
penitentiary
##clear
incinerat
melt
##889
conspirator
orlean
bull
condominium
desir
preclusi
##cee
chrys
flammable
meyer
hilt
till
chechen
##clo
##bromo
disapprove
kirk
corridor
hali
996
##hause
inheritance
speculation
wr
latvian
bradley
##ijos
017
shipowner
##uda
impediment
wei
athens
879
earnest
adjustable
tann
fungi
##303
##471
##xia
huds
plots
##hk
determin
tam
timeshare
984
##ists
##actor
##grad
##itol
transmittal
divert
##atically
emul
reviewer
toyota
##84
0010
emir
voda
##hare
953
sunoco
##uous
983
##fte
seine
probationary
##rtc
0002
perjur
kur
thermo
curr
tanker
gmac
hv
woods
##0029
##082
arch
##une
##not
rptr
finishing
malfunction
##eached
##sanitary
layout
pop
locked
enlarge
highlighted
##ema
tenanc
arrow
##zel
##205
pit
977
misstatement
infliction
trac
refinance
reduces
slate
porc
##183
cabin
brun
embedd
psycho
hind
venezuela
##gne
syndicati
splits
##281
##card
intersection
991
handels
homestead
##ublin
caps
foss
##ode
matthew
bud
##87
disparage
##090
##period
competences
993
incorporates
##tie
##gio
##issa
abs
0006
pittsburg
##difference
##ingen
evade
martine
##208
indus
##aylor
fuller
granul
##gebie
##att
967
##carbon
alto
neuter
researcher
nut
corrupt
##0405
##30000
litigant
##fruit
obsole
##ace
cust
bmw
##croft
1501
##479
barros
##433
1915
nice
punctual
0025
##0701
0014
epidemiologic
belts
##cent
##etti
2030
tire
legitimately
trier
##abilities
##512
864
##123
cba
gifts
##heng
spr
pau
insists
therapeutics
##technical
tradition
957
0015
##lamp
##lone
##nte
##adish
##705
breath
segregation
0013
insignificant
chevron
##406
##tacean
##nati
fob
bil
makers
##417
resin
sublicens
interveners
totalling
939
##die
impeded
alkyl
##sac
wayne
productive
rozakis
cloud
league
retrospective
corte
nano
lyon
mate
toshiba
depriving
acquiescence
carib
##222
burn
##708
fred
##ified
queen
956
honorabl
981
##oco
##049
mold
##ifer
connor
inevitabl
##mouth
##58
abortion
responsive
##dock
myers
metalli
pretext
jas
brooks
biofuel
##cast
invalidat
hypothecation
nutritional
##ibm
##573
##256
##ket
022
pier
wrongdoing
conceivabl
3072
##403
##804
somalia
carpet
horses
registrant
##070
rhein
##cumulation
##iou
##uel
admiralt
crus
##cini
##pont
863
dispositive
gran
##together
vladimir
1784
desk
temperatures
##3010
handbook
jul
jeopardy
drain
nepa
##415
nai
coins
falcon
##lying
shelter
beliefs
disadvantages
avi
sel
albert
##sco
##0043
##074
##602
phen
##0401
tanta
##eaches
932
kro
confrontation
adherence
rea
brad
938
roast
##oats
##artikel
presume
##amount
##ingly
##stituting
tendenc
##chy
969
entrant
##gill
sanders
francais
lill
##troit
944
reassignment
0022
##322
##217
##161
1102
##cendant
puts
islamic
##59
attache
##lets
triang
refute
homogene
architectur
genu
##060
reorganize
1251
898
warm
calve
weiss
##zano
ken
1580
tour
native
##diversity
hartford
dgc
##tric
hon
holland
trips
harmon
##lach
##rofo
jeffers
##balt
##64
##graph
dihydro
##enza
motorway
subcommittee
hypo
aetna
bend
sabin
lev
demanding
occasioned
verifie
tips
competenc
rene
gru
moldovan
lion
spc
fisch
2106
substrate
hal
##borne
##rising
##9301
##auer
##325
##378
##ayton
##118
encompasse
agricol
retiree
kel
eq
colleagues
0009
suffers
##999
wein
fellow
knee
weld
##517
##ulu
dana
##061
##oci
burns
discourage
075
diaz
##alysis
##aries
##hem
graz
detector
##0004
unbl
irvin
greatly
##882
earmark
passe
unto
payer
##ack
##phenol
subclause
##itz
##bis
##159
nonmov
attesting
1290
##2505
elevator
##roughly
nar
1301
mammal
syrian
czesc
boost
closes
##zu
freeze
##787
##done
##oire
nec
##617
##aker
stricter
##works
gibson
958
sla
##quin
##och
imbalance
##hra
085
##rell
quarantine
bot
##221
disrupt
##194
##fel
guided
insect
##1020
coleman
fibro
bucharest
hid
correlative
fatal
chechnya
collar
compressor
scar
corroborated
dpr
964
allotte
mitsu
##231
siren
962
obstruction
suited
##243
impracticab
valencia
barry
2903
959
accommodations
1601
worn
authorship
pla
##dac
uniformly
018
##mr
##0210
##gat
##apple
stamps
##ents
neighbourhood
foam
##mu
2081
stern
0004
arguabl
kay
karl
1902
##190
zi
barr
##527
##zzo
bolt
mcke
0012
brady
##culture
##opi
nigeria
##023
knight
vitro
counting
quart
mcc
terminology
prominent
2377
##sporting
oxid
##ider
rocket
##olin
##anmar
##llc
##nier
0202
1100
1918
##verordnung
chains
##195
lumber
rosa
##hydrate
heroin
illuminat
##4301
##post
legs
sorb
artificially
cork
norman
##oglu
##0070
castle
887
morals
hosp
intentions
##158
##eco
pled
mali
##lson
##chez
##660
impossibility
colonel
amd
reactions
mediator
fle
##543
##chem
forbidd
##rah
socialist
ernst
##decyl
dispense
casing
chest
##036
##iana
##nexion
isomer
084
adduce
drum
##308
tenure
shower
##299
##phen
juvenile
nutrient
##389
##202
##55
finalised
##page
##456
##fall
##2301
fran
forordning
imag
apo
##465
mcdonald
##462
luca
##gesellschaft
cock
bred
kidnapping
nash
standpoint
##inus
epp
##wei
sen
rob
circumventi
resistan
##606
##sti
specialists
sludg
947
##bound
rebutt
##hia
##alene
##wich
##tre
imbalances
duke
depression
##ils
##pte
impa
exxon
reuse
timeframe
ngo
jay
##nar
2727
bos
##losing
##lasses
1401
mfg
##epe
1920
##log
##oba
anonymous
##61
##gene
##gloss
bernard
##405
unwilling
##idin
##341
voi
revert
kak
1806
naval
fingerprint
keys
0201
deterrent
stadt
fate
illustrated
1003
cercla
walking
unforeseeable
##nqualified
midwest
reservoir
chassi
##get
disturb
##loo
##615
##lea
##nac
shoe
##089
scr
migrat
pou
aventis
##pay
##209
cet
##iang
magn
bailey
fence
##wave
##msc
balkan
##kpa
vu
repression
##477
##144
##ule
scotia
insertion
##5829
##529
adv
amaz
marital
mers
pursues
immuno
##rino
cytom
recurrence
reorganisation
##els
##oven
035
algorithm
klass
##ead
##242
sti
wrapp
##459
##looked
berry
fenne
##ovna
##214
##vich
1002
marker
sip
##hold
##058
wmc
dog
elec
electromagnet
##kas
agro
tortious
1932
helping
radical
vel
commensurate
departing
##oya
##138
parish
lean
cbs
nest
francis
##quat
revolver
yan
requisition
invoking
thousandth
logs
##mesa
ramp
intelligent
tribal
##aud
##arable
gia
dime
##210
##gie
1925
sediment
unsuit
abscond
delinquency
undesir
samuel
976
bennett
consultanc
##osco
timelines
terra
columb
damag
quotient
982
recapitali
##kyo
gem
##elective
visitor
##0090
interactiv
guns
offerings
mounting
979
##133
##0820
##uit
mack
heinz
lub
##67
ret
pav
tyco
##hong
##944
##pel
##sar
flo
jonath
aggrieve
twin
vald
##kreis
##oke
1254
##vel
payor
akz
##0033
button
roy
##3020
##schaft
attendant
##085
##0110
analyzed
scrip
##yle
gomez
##now
##xy
mangan
##anne
##igan
flee
##vet
linguistic
consumable
embrace
silence
corresponded
##irc
offensive
declarant
dire
unre
intact
declines
ris
##532
lords
##erc
longitud
4999
tall
donnell
##else
joe
dex
##tyl
gainful
mrj
##wall
##239
erik
wrongfully
##482
eminent
mort
##056
thu
##86
sie
ledger
clerical
##132
shipyard
##cum
##aca
barber
##phthal
kreis
chemist
kil
drainage
stack
intel
##193
verde
sizo
##diol
##pack
1108
pct
pik
relocate
usur
renovation
##iyev
##404
##0901
##werke
##ago
gateway
##079
##178
aiming
sack
discontinuance
##max
946
devise
amt
##213
##667
registr
##6000
beating
impart
##gmo
##xi
fortiori
merl
reassess
##ehl
##516
starts
swan
##kite
technician
expedited
mcg
##minsk
awardee
##cep
##practice
patentee
2035
##ungs
appreciate
assoc
##097
saf
inactivity
##8501
brochure
alban
inherently
##ierre
cruel
unfortunate
younger
getting
tsp
triple
##jiang
##pty
082
overrun
poul
1898
seventeen
escalation
telegram
compounded
slovenian
##903
pharmaco
roubles
##making
tacit
##iba
underpayment
unreimburs
##oyl
##isco
##0720
wang
creative
##439
##this
twelfth
titl
##ense
##illus
berk
motorola
mdc
mirand
##chester
##stelle
##etto
##084
charterer
##310
quash
1926
##smann
interfering
const
##date
##duct
excus
sender
##witt
dix
journalist
montana
##nintend
##kon
cruise
##258
##1200
goc
choices
##udi
arbitr
##027
0018
persuading
lighter
rack
intervened
armstrong
mortalit
neb
##rov
##unt
kenya
tert
hollow
porto
legislator
lor
##pra
venturer
criticize
necessitate
implicated
temp
##diverse
interchange
unbound
mats
futil
persist
##187
##satisfied
facult
equilibr
circumstan
##024
vineyard
felon
jeopardize
analyst
fif
weaken
disappeared
batteri
indians
impeach
defender
##494
kal
loose
numero
##0310
crest
thousands
won
##chuk
##0032
##467
1913
##141
lupin
##wy
##mato
span
pallet
##tique
seekers
outward
##271
correspondent
##grenz
pmi
kun
##783
##186
##252
##screen
##atkins
##tronic
marketplace
lau
airbus
leakage
anchorage
mob
tamper
##621
lec
##fil
##sdorf
griffin
1927
tight
kru
##deputy
susan
##129
##plan
helen
slide
finish
##chod
##vik
##doc
##530
##dwell
academ
jim
bomb
regent
##unku
dick
##esti
subsidize
##generation
0017
##aprico
##ulin
942
jon
fil
miner
##exhibit
ruiz
drawback
##skim
smuggl
##amate
##affected
##418
wake
unsupport
connector
pont
upgrad
##ood
mare
kp
##fat
##729
objecting
cfc
##gle
##astm
##142
equation
entre
##rone
poste
1931
lieutenant
##ronto
interpol
##ales
##167
jackets
echo
5407
##458
##232
zakon
sab
##156
twc
alfa
surfac
##nsis
ferrie
whisk
fog
uz
relay
collaborative
1095
##bot
##rhyn
kilometres
##amo
inadvertent
matthews
##ast
csc
coercion
8528
wooden
##title
conceptual
moor
frontiers
charlotte
##rings
afghan
##under
prototype
029
irri
piggyback
##910
##90
soap
7304
##unta
halogenat
chemi
##shore
arbitrariness
##0003
warden
unequivocal
colon
roger
interrupted
##lome
haw
##044
herb
##zyl
##otte
plaster
boel
##losis
bla
porter
ops
##ouris
unidentified
##254
##0201
token
##affin
explore
cheque
contemplati
interfered
elizabeth
expiring
cultivate
mariann
##369
disposable
qc
##cyan
##ermost
##614
linn
xxii
##211
prefer
burg
##ndi
##524
##428
meridia
##ban
##3030
##zore
##461
##269
commented
##kar
##ouver
##043
surname
acu
058
##260
literal
divide
ignor
barnes
reopened
pins
unequivocally
##0013
fml
kle
##lam
##cetyl
rud
##igen
bak
##035
##127
titani
seni
mario
reglement
seasona
##avo
martan
##affiliate
lenienc
revers
##zhi
papa
amends
litigants
ornamenta
disparate
lateral
##093
##gal
telephony
unforesee
1272
##alis
##zon
touch
##603
1445
tung
cra
0206
americans
##pharm
plumb
##xp
heide
##yna
arnold
##iko
berth
##vigilance
##icus
tucker
##095
##security
##497
##evo
fernande
pact
pisto
uninterrupted
zagreb
modalit
##480
detain
bundle
camero
wien
coat
##kwh
earnout
abc
##153
##dine
##175
##000
disagrees
##ave
##dated
##150
##iser
##eli
##tiles
##000000
##vie
rectification
##0007
##ill
misrepresent
##drawn
##694
##iri
amortis
##book
##dolph
hyper
summ
##85
pbgc
qua
bass
drove
sele
fastener
granit
##811
convict
aig
arbitrarily
1037
norms
##241
liu
illustration
proximate
transformer
##255
pitch
czechoslovakia
##ehr
indice
##iga
##asco
carve
##tracking
kb
duplicat
historic
imitation
tdc
##088
anne
##linger
budapest
##erna
##pine
##bal
expresse
download
steril
witnesse
##tum
##amid
##285
##gr
##703
##staat
##eren
tram
##kes
##0900
##583
7209
##mor
carpenter
##128
##455
##191
stm
##295
##713
##anov
##786
##peptide
054
allstate
som
warned
psychologist
##imid
motivation
##714
##voluntarily
dentist
kyiv
##amber
hum
##rett
string
wol
pronouncement
##fica
det
##9300
jewel
1380
booking
absconding
##isse
##des
panama
hens
##022
##eria
coor
homogen
asian
dale
deb
##above
hamper
aggregat
love
##apt
paste
median
tcc
bailee
bbb
1257
##bieg
curtis
frei
##uck
reallocation
beck
prze
cola
##tran
virtual
oblige
kri
##oll
jin
circ
expose
sophisticate
reaffirmed
1209
artist
displacement
celo
leonard
info
0305
##market
##tig
maas
##pti
##270
chic
marino
##run
##064
patrol
interrupt
lon
restor
pal
courtroom
1007
intern
##510
forthcoming
flsa
eng
liv
##bau
leaflet
decentralis
##insurance
##oga
##540
rigorous
##prime
vir
##ginne
##206
insulati
##63
##073
jos
elan
##257
##vest
##iber
sleeping
vas
bechtel
nondisclosure
reglament
spence
##modal
##roid
demonstrations
indoor
hood
wacho
##lot
2423
##ylate
frydlender
berger
rhine
mrc
jiang
defamatory
pec
##rav
##066
##loh
cem
1929
monument
justifiable
emi
managerial
clubs
faithful
presidi
institutes
065
pistol
##inos
deceptive
restraints
##fit
workman
expend
chu
powiat
packet
sanit
expedient
##ppe
##653
##394
##40000
taste
##atic
qu
##814
cel
specialize
potas
corrosi
enclosure
##2020
nasd
##lain
pronoun
peripheral
gat
harmed
ferry
057
##lum
##cell
##validated
##qu
##124
##percussion
stretch
##534
monti
kohl
##237
decommission
##850
delegates
mci
##gated
##wan
attribution
suggestions
evid
##unda
bgb
##353
##processe
eventual
##wiesen
##264
##533
0020
pneumatic
escort
##182
waxe
048
##2500
##wartz
##value
##wap
##147
##idal
membrane
edgar
psychiatrist
fis
##313
unexpected
0021
sau
larr
##eber
staats
##joinder
gyps
unregistered
abstain
##893
##benze
targeting
attacked
##177
ambulance
tub
molecule
ideal
##481
##volv
lorenzen
1182
068
##094
##sberg
uah
keith
thrust
lag
buse
prolongation
##544
cen
##700
##luz
disparity
##0410
constrain
dca
##box
zimbabwe
##131
visiting
##ages
##benz
lisa
mount
victori
dosage
##cea
##assa
##stor
bones
##control
##174
##uga
zum
##eres
##choke
telephonic
embody
##eath
grozny
##75
redundant
myr
gmp
##clamation
##tio
electrode
##cott
##oge
##522
##valent
circulate
interchangeable
055
aka
##mba
kha
laden
##612
##gna
##ettes
##778
##ector
##endorf
##518
marsh
mead
##onne
removabl
##urable
benjamin
plug
##ult
rhone
bacteria
mentally
differentiati
##180
##dep
materia
nico
emp
##ovens
##epo
magnit
irb
utmost
nak
##eurs
burglary
unhcr
leisure
ipc
##294
bob
alexandr
utilise
logan
##0009
##ilag
deteriorated
##172
##423
##teil
##elecommunication
##inal
##eux
##dding
barb
lago
anna
##080
##192
##324
##ignon
hans
dunn
welding
##679
##328
bie
oxford
019
##chst
offending
demolition
##hydro
witnessed
##glades
##nta
spreading
dioxi
dill
gallon
kick
##enti
hus
fac
1600
##272
##076
speaker
punish
discontinu
grandfather
##eake
bratza
##464
##2990
nonexclusiv
punch
##rek
semester
##ovi
##isch
senator
##jec
riot
lith
##tsi
prof
appointments
##clad
rabbit
undermining
robust
##negar
contra
1829
##273
##kowski
##336
##sys
1331
##ege
pronounced
displays
oder
##075
illegi
cake
estonian
##nose
##rea
dya
083
cope
##bse
1132
fracture
verwaltungs
carroll
greg
perish
##585
picket
reflection
mini
##744
plasma
ribs
indefeasibl
##ident
##look
##worthy
##rik
##ern
sant
condens
##275
##ppi
##099
##dem
blocking
persuade
spinn
##untrust
switched
nrg
##vine
6104
luft
overwhelming
kva
ceasing
ratify
##916
reversibl
aerial
##qua
##lino
##203
affording
subrogate
##mcm
##292
##408
##iste
##057
alg
##comm
saba
solve
methane
retainer
retro
##017
##1000
freezer
##fta
0023
034
petersburg
##hou
1515
##297
dav
copie
##luene
##kla
##itude
boyle
##1101
bristo
koz
##7000
##inho
kenn
guy
shorten
##280
##812
##97
##arna
##lte
##1030
mad
##dienst
doses
1106
incompetent
volkswagen
##beck
habit
rid
centro
##aden
soc
barbara
consum
accumulat
klo
##act
poli
##hoff
nacional
locomotive
##ungen
respirator
##septic
crow
##arian
fre
##mina
##278
##corn
metre
worse
gerald
##436
##279
##0104
##lac
##385
066
hcp
helsinki
##mers
dures
xeno
piper
switche
##flows
##342
imperial
rand
phosph
stimulate
kyo
##149
telefa
protests
cro
torts
##kamp
edi
##ign
flange
##086
disabl
##309
optic
##italia
fitz
negate
severed
cla
haute
##fra
deduce
##enthal
##scale
sek
##lek
num
banco
dominio
##940
5515
beds
##claimed
##tica
germ
calibrat
##sulfur
painting
angola
##uen
cherry
sealing
boc
munich
companion
classic
chesap
incidence
deput
##323
##rac
embezzlement
excellen
##lou
##589
gay
lever
##enbach
figurati
viktor
yours
##rdic
##ops
hansen
##nti
audience
##asse
##170
##tian
hav
##7219
apprise
stead
##uli
anxiety
##arden
##oise
purportedly
mathematical
##478
outage
traces
##3301
kudla
graphite
##handel
reh
##gang
pep
unresolv
##669
##pharma
stora
##219
##nson
##rasmus
##rk
amicus
##competition
kent
rhode
##486
unequal
kul
ecli
##561
blast
multiplier
invasion
1083
kau
##efa
pharmacologic
resultant
##lee
gali
suspicious
sala
##hor
pcs
patterson
lining
claudia
##nick
jams
##service
##212
foreclosed
##181
##363
catastrophe
wyoming
##365
##604
0101
yemen
vera
1306
tolerate
##ltv
todd
collier
##1001
##sprat
dynam
##agher
inconvenience
##str
##inson
moly
penetration
lambert
canon
dish
##055
harass
rows
irreversibl
##non
norm
jag
038
mcdonnell
navi
##263
bondholder
045
##605
perpetrator
ankara
ranch
occ
staying
discrete
##rom
##aye
##kova
##kai
1500
##wer
psi
nail
bois
holme
consensual
##230
alc
##brand
##gestion
##091
burning
kom
ussr
rhino
rotar
##scow
##453
extru
##soever
bent
033
ferr
outsourc
##590
lcc
##kia
##omer
stuff
allega
tempori
crimea
##mir
regenerat
##frame
##umas
sincere
##0408
bale
burl
stateless
disput
##nect
##ality
##aid
antenna
##251
##master
9900
0024
frederick
##355
##esis
##nov
ortho
mechanic
grove
1333
##ual
shu
2037
##rma
##015
tint
champ
##waltungsgericht
kop
##omi
hou
summarize
##iger
sear
tit
##nem
##164
shippers
incriminating
##793
##162
faces
1307
belated
##157
magnet
reel
uncover
1060
##code
demonstrators
iac
##uron
ahmed
##1997
##092
##enomy
1520
##134
subsisting
##tle
172290
polar
##rind
##513
##265
##689
##minating
2847
##metry
##enta
pk
##289
questionable
harsh
seamless
lai
confectioner
zir
nichols
##searched
fortune
##kaya
##name
##126
hostilit
elliot
##nacle
worsen
##tiff
##mobil
nee
##bli
1111
##861
##081
##static
abn
1917
kla
skirt
exp
transcripts
3846
mild
reinstate
synonym
##ink
strippe
##cht
##liche
##uz
jung
amplifie
turbo
faun
convening
breast
downgrade
##wie
salvage
##ogen
dri
##661
##521
##ussa
whistle
flame
stahl
arr
fab
runway
##lingen
##tability
disinterested
inoperative
verb
disguise
wyeth
##por
conclusory
##horn
##ngl
##vail
ibrahim
gilbert
##563
disturbed
##cpa
##ubist
override
chang
coercive
methamphetamine
##merging
mutilation
##kie
##map
steady
##200
depict
fuer
098
dependenc
##gart
determinative
036
olympic
##acc
##352
zhe
##lake
##189
apprentice
borg
##nut
firmly
##ajo
dub
disseminat
westerdiek
##prom
##chev
##472
treas
alme
alberta
undercover
1928
aux
##560
actuat
##dre
regul
grouping
##aka
linda
gale
rider
##like
nep
##president
katz
inlet
##tivo
dram
##zio
avec
opponent
##dio
##stad
grund
##have
##cliff
shoot
pigment
southeast
##clu
blackston
##037
synthesis
civilians
##karen
secretari
underwent
##plant
##581
transpire
conscience
liquefi
##547
##wh
crawfor
flip
warehous
rick
##governmental
##tem
deport
##flow
bcbs
##olia
1093
##631
nuisance
##327
##lie
usc
wilk
##kom
##wasser
morte
modernis
worst
##457
scal
lotter
##89
##240
popular
##593
##087
staffing
##cox
##frans
##competitive
##nder
073
inch
turtle
dating
johnston
conductor
##tted
frustration
simulation
##mate
unscr
##856
autumn
##stance
lethal
oliver
ppa
##otope
##folia
prerogative
nullity
##337
##dina
resigned
##137
reunion
fha
##475
confusing
apprehended
##iza
##cef
##442
assembl
saturate
086
##eira
slu
sponsors
##733
andrea
chip
cvc
speedily
gha
##trans
##hrin
##282
tajikistan
##ships
0026
dressing
##ars
##opoulo
##1010
sprou
1150
zan
simmon
heli
##293
tamp
##155
2173
##castle
##lysis
fas
##mpi
adjoin
##uric
059
##liquidated
racketeer
criticise
##339
##nab
##moor
##283
dai
##iform
##reg
deviate
##bill
webb
perceive
retrial
pap
##squire
##1201
mbi
##vol
brushes
##196
uber
2548
substantively
##nej
hoge
withstand
##nova
##nav
##tag
dissimilar
##yaho
ssp
cmt
liter
##shan
vanc
##quez
termin
##stan
##pers
paternity
landowner
037
texture
093
zhang
digi
steiner
narrative
sequestrat
1011
hui
brien
consula
##mail
mislead
##184
##ummer
cds
gears
aliment
##424
activist
divergence
##fcm
##95
cambridge
loads
bold
##avi
##469
##83
kir
##gm
etf
##fura
heath
##rwin
##keeper
##sil
repr
##cca
concord
brew
##569
dishonor
zurich
harrison
incumb
kok
##450
##575
##oval
gendarmerie
reprint
cartridges
architectural
duncan
embargo
bap
hut
oig
arrang
sexually
##esco
frankl
##692
##lane
becker
##883
bri
##fabrik
passages
##late
versu
sanofi
soli
##mal
##mie
##enemy
kodak
curtain
096
checkpoint
montre
2025
curtail
087
sats
##ctic
##catel
byrne
expedite
##0041
procur
##article
##oxin
##ome
fel
##degrad
##oria
##0800
spar
harve
##label
landscape
amnesty
hidden
##223
sony
##ilo
cafe
quest
computerise
##572
##664
##sure
abducte
plays
0213
0031
##quino
traveler
##763
##shof
lexi
051
7228
##performance
biotechnolog
##216
adults
supersed
##678
##267
1334
##phone
##672
##8201
##hanna
##feas
##tography
##72
##lig
lander
##591
##026
##sphere
##277
survivors
##397
##azin
mobilis
##10022
libelant
##cato
pornograph
gather
stephens
promptness
##597
##62
076
solan
mbh
##encia
modest
##875
##ores
##564
rotat
recapture
relator
##463
abbreviations
ghan
##0801
digest
reconstruct
##434
##kk
1014
alpin
031
gallu
2401
bsc
##trich
##989
policyholder
comma
payoff
1833
##inc
cage
delphi
spoken
##274
mip
1015
##cus
##lat
davidson
##0306
spec
6211
assistants
##135
##686
##779
accusations
##flat
mah
existent
wan
##oka
##iglio
poi
guatemala
##trust
hil
##ergan
blame
diversifi
abrogate
##taca
cinci
pil
jur
##bone
inactive
1225
towns
exercis
##erman
founding
bau
##atten
peril
##links
##cas
##root
coll
knife
casadevall
accede
##phis
##160
realisation
##815
harbour
deceive
##594
subtitle
##mit
tange
demonstrabl
##bag
##291
comunidad
censor
##auli
##reliable
##lian
cassa
slack
##holz
identities
detract
##0008
guides
091
##betting
mach
drums
salvador
lrc
zona
vivo
liberaliz
##dec
pem
bijl
##chrom
prize
5212
santia
malle
##556
mohammad
carlos
##136
surgeon
##235
analyzing
overdraft
##idad
cashier
eeg
##mart
herbicide
nuo
reuters
##hagen
jump
anonym
arg
stanford
unqualified
##baum
##kinetic
synchron
##364
##229
stockholm
##pie
##phosphate
##gia
dat
##sjo
##88
##048
leach
niss
##sea
1200
##379
##erner
nineteen
refunding
pcr
##lite
##068
3665
##lier
##690
jeweller
##224
041
invoic
##253
cdf
israeli
##arines
##jar
##chodni
##tesor
halli
nev
##ijn
##gic
##635
hog
##588
crossed
modifie
##watt
##607
1129
044
##enie
1921
##772
##915
sieve
1904
pob
communist
##next
##roche
reinforcement
chris
racis
##tetra
lynn
zw
##agi
##nza
##059
depo
039
##tha
##ail
##lev
campus
5402
dorot
shark
##ower
expelle
buckle
throughput
surprise
##win
chips
1040
##028
##lled
##ipr
lubricant
trespass
detergent
offend
##eka
phil
##weiler
1031
jacob
##ejo
##677
indexes
##weight
##iev
cmc
##154
##enstein
##ducing
negligently
ira
##ads
##096
legatee
##nitz
##owitz
##towed
##gear
##287
##jv
lubricat
##244
arseni
##163
lem
##848
##tner
finger
incarceration
corrosive
##261
roque
##655
infringer
bundesver
056
meadow
##375
focuse
beau
##myin
guan
##hurst
##tone
##329
leo
##stem
##699
architects
halt
ilo
concurrence
##613
issuances
widen
3002
rou
##tana
greene
hof
##danmark
##meyer
##electric
incl
gemeinde
##0307
##alen
zwischen
stuart
unpatent
##0330
##agra
##iques
##0714
federally
##clined
##747
##hereon
cuba
1008
prim
rodent
estoppe
chemo
##233
meg
##148
##aga
jenkins
presumptions
##sma
##587
villagers
misinterpret
##aisse
##icular
tray
##cina
##iston
061
italic
##elia
##oxi
1311
moham
vend
##bloc
##701
rarely
sustaining
##number
convene
unwarranted
basel
##kle
##imeter
telling
##767
##avas
##pos
anomal
distinguishe
##730
##ock
gec
viewpoint
kurt
energie
##bishi
##santo
constell
##metho
wade
##mberg
##gold
amy
leu
iranian
##nom
##erorden
##078
mapp
bern
embryo
1013
marina
##nitro
##curing
salin
logistical
revok
##680
trimming
vino
northeast
basil
mose
trousers
##599
turpitud
##lata
##etter
##562
intrusion
##dependence
##514
suprem
##ogle
sage
natura
npa
##octa
atmospheric
conve
##azi
##lang
combi
rap
continual
mud
dals
dro
comptroller
straightforward
##azar
##lta
##rbc
vita
##sufficiency
diversion
optimal
##wage
##776
yards
##eft
##aba
tek
burt
##naca
##part
##535
##enedi
##ltitude
fag
mars
hale
slab
saxon
032
##shev
##lant
conspire
stationer
##paid
vit
imputable
broaden
stot
constructing
litig
misle
experienc
cassette
##185
monitors
traction
volodymyr
disinfect
malic
##etre
societa
inhabitants
##mbo
attenuat
##169
nanc
theatre
marco
##othi
unsuccessfully
2921
copenha
tsy
##enyl
##ivo
gardner
##ieri
libo
recast
mog
##0240
burger
zacho
##ody
vale
##maker
patron
##etz
finality
episode
##yes
decorat
##broke
steve
departement
scho
interconnect
##298
influenc
twist
##eter
evolve
079
1078
trauma
inhalation
beroep
pome
##expired
blanc
inspectorate
fined
##851
dra
##with
reclassifie
csi
cleanup
fertilizers
##0420
legitimac
conception
phi
padd
amicabl
##jarvi
joy
##duction
##ccion
##931
suffices
insight
047
##227
##731
wur
empire
##sim
dependant
acquiesce
laundr
##0500
genes
1073
concede
onerous
garlic
1300
biphenyl
loire
phar
##site
##528
1210
968
##640
gur
logbook
##bruch
1069
##537
knock
##nzhen
##reported
##rit
##bfr
gsm
classifi
shw
##016
##decan
baxalta
##nell
drog
belge
##259
##alia
necessitated
##azz
##440
viz
##1978
##area
micron
occupying
##536
##380
dicta
scann
##share
##fold
rifle
##hydr
##764
##ture
usp
easter
1502
cognizable
misappropriate
##0540
##heid
goi
##stand
excellent
donetsk
##rte
##286
flats
078
##78
##797
##cela
moderniz
inferior
##972
pulled
##derma
grubb
hook
marin
##voc
##792
##145
##288
autres
##248
##owe
071
haye
studio
##316
##uter
appurtenance
##nsk
##iman
opted
mcn
##790
##545
serra
064
##451
lima
kato
kum
##valero
##390
roz
unalter
bush
vaccinat
avt
targa
castell
obtainable
guiding
##284
angel
pear
stra
##441
##kou
##470
brink
mcgra
stefan
##entry
088
##7200
demographic
nazion
pharmaci
serp
priv
dong
062
chick
floren
##mic
##437
purse
indulgence
barcelo
##arge
##pha
##family
##clinical
divisional
intimidation
myself
##886
delaying
rebuttal
patrici
metering
pole
icd
##dri
castel
pressed
emolument
quiet
##owa
##going
bonne
##tographic
reallocate
aeronautica
pitt
4202
neighbor
2241
relian
##152
1207
##647
##794
bod
chat
protracted
welcome
cnp
##5211
cran
neil
evaporat
solomon
crisp
replicate
##aragon
mohammed
reexamination
pais
pinto
##ezer
1922
##revocabl
font
##758
##ple
##040
islam
##pek
outgoing
stoppage
094
acoustic
lockout
reno
0105
##kina
injustice
##training
corru
keller
##dello
kot
##eve
##aron
dissuasi
##gabe
kits
willis
equat
##143
republika
cham
##burto
##iski
vie
slice
acceded
wadd
predetermined
obey
madam
##uff
prayer
launching
##rde
1305
##nexu
043
winning
listen
arb
##lagen
reactive
##kur
099
##voltai
2371
harmonize
scotts
##715
surveyor
##impson
##tage
sus
rush
##370
##250
##mittel
##night
homo
##elec
##gns
nucle
##ragon
##897
bavaria
maxim
##383
##avit
##ubi
##utter
##uca
##228
bien
##tom
directory
##eiro
antwerp
potter
089
detecting
valeri
##sek
046
##666
##305
ballistic
##878
##span
##571
##765
##ghi
paulo
wilkins
vein
assessor
dz
suck
##gnie
sev
##amido
##ega
creditworth
veracity
##jur
song
jenni
##tur
fictitious
##ders
garnishment
hint
##238
##erated
##old
situ
##twine
##richtung
##600
##scher
##marsa
prolong
westl
surprising
studied
##emia
##374
1332
##arl
kah
slag
antille
csr
lent
##449
##197
kern
##admission
##969
##tow
##wana
commingle
##illy
##initio
lov
##fina
reserv
rwanda
##afe
##808
##ione
##357
##osta
095
1125
bron
deer
1923
shirts
vilnius
##554
tak
##acle
neal
malone
##lium
differed
encephalo
verifiabl
georgian
##029
constraint
culp
072
routing
##426
##485
transmitter
##ardi
secretaria
carro
comuni
5205
subchapter
##iod
##496
jacket
##phony
0034
##rines
leuk
##mab
##mini
milwauk
giorgi
##chard
##vil
armor
##metsa
benze
cucumber
fhlbank
disinfection
##luk
elementary
kid
##bria
##emption
##819
implicate
##nego
##347
routinely
safekeep
##amin
##idem
mgm
042
infinit
testimonies
surely
burke
1430
equitabl
##graphic
7211
##432
##487
##iska
##382
##uba
unfavorabl
antibiotics
forbid
##lex
gala
categorie
##399
biscuit
bart
##435
1509
##727
chargeback
mykolay
##pond
067
neighbours
gunde
1211
tuls
offeree
stre
searching
glad
##pool
prun
##0015
cpc
##tino
bir
glue
discontinuation
##itte
##245
##source
##4000
nicholas
##easa
crowd
owens
##173
convince
overlook
davit
##iferous
locking
capp
##395
christma
pegas
##anguish
##lai
fiduciari
engel
produk
tubing
##izer
##3990
##ilia
##eal
4001
##tain
##9500
descendant
##bio
##81
outright
##other
##terie
##bund
##pex
##362
##rrell
inventors
peach
assimilate
titr
shear
##anga
##oros
##6301
##759
##avail
##ques
##641
misdemeanor
##straat
bul
##kha
suppose
entailing
##586
##179
handcuffed
1302
092
feg
extradite
##hansa
##633
watche
1201
compositions
adjourn
##reit
##butan
fruct
paints
##427
##eugene
shal
##azul
##gher
tul
##ffusion
kilo
weave
fun
bishop
##899
fabrication
hypothesis
subtenant
##fir
##671
suf
bowen
shrink
##bell
ascertainable
understandable
##heimer
##cides
##578
fountain
flan
1313
maturit
mainstream
accusation
affords
expatriat
highland
randall
angio
financier
republican
##166
##nham
##nautica
gamble
##7216
monroe
##pac
msg
##ichting
herman
archives
cushion
disperse
qi
##vey
##faction
##69
jane
ramir
masse
##meth
sequential
meteorolog
##rig
liberia
retrospectively
nieder
cere
carryover
eisen
##349
##377
##leigh
##nrg
penalise
##vaara
##ibo
preempti
advanc
pseudo
vermont
##0011
077
##939
##553
perfume
##358
cali
toxicolog
##oking
cyto
thoms
##pping
##equitable
##bst
laborer
hoch
antidumping
salaried
indigen
##issau
grim
sponsorship
##cycle
disapproval
##erin
bits
mezz
pharm
intimate
deflection
##usque
divulge
##skog
jerry
recht
extortion
##jel
lino
marque
tang
##loy
thuring
##irming
##262
kovler
3719
##392
medi
##igi
##567
##aza
oleksandr
intense
##662
1292
##comp
##inau
dial
streets
grad
collegi
hormone
##rta
##eks
##1050
undeniabl
##sheet
##atus
elaborate
fletcher
messenger
batche
##492
##0017
5000
separating
legib
equip
elicit
##735
##rata
cher
##uberg
##0036
##plus
##methane
##child
linkage
audi
albuquerque
alleviate
flori
##rvi
##cfc
1099
hawk
bosch
##wag
corre
lumin
##ammoni
endorser
mce
##zat
##iii
deepen
##cit
##381
emanat
3000
##park
##plate
hierarchy
thanks
##clos
obliges
##683
##165
zhu
##pertur
infusion
chin
buch
049
mindful
arthro
rex
##judgment
##may
##rwa
##pas
##lop
##452
##ogy
##zna
inaccurac
harold
##236
socket
aiding
##gro
##665
##ogo
framed
##981
##344
undercut
feelings
##encumbered
##licher
##0250
##arc
10019
##ohn
##520
##semble
desert
manne
##ips
vela
##ohl
##rological
stro
petr
##mol
##imus
##edited
nonpublic
wednesday
##tax
eli
newton
##hair
reich
##epi
wester
##quer
poison
##098
rrd
assays
6103
zar
hither
curtailment
##dir
##168
acquaint
1043
##rach
##769
2027
teva
##oul
hun
schwe
##zin
Shu
##hita
##yama
##827
ceded
##kiej
##tions
##584
##gine
dramatic
bratislava
daimler
1051
1114
##832
##644
##illin
##824
irr
editor
bucket
##892
##566
##ange
##637
##aris
indonesian
##bden
solitary
##ucht
##erne
##dicia
wants
##ering
##789
##gerichtshof
misc
writs
##atum
glaz
corsica
##iano
christi
falsely
genuinely
kk
akin
##ardo
appl
##laga
##mide
##777
##orous
##176
pharmacist
##zide
##ulic
huf
##iden
##817
bres
deterren
##1252
invert
##load
demurrer
##activity
rai
jell
autopsy
##asts
kernel
##lupe
hetero
powerful
##anase
alphabetical
problematic
##77
##realized
1442
##fals
welde
##046
##420
tuesday
rivers
precede
##odine
##499
##anna
##dent
blum
##805
cathod
formulat
peri
##616
##bol
bianc
##akis
##rou
vibration
emphasise
bain
##orial
upset
folgen
##viral
##70
interpretive
##367
sounding
5516
dismantl
##795
apc
grounded
##boat
emerges
##achi
mozambi
hajiyev
##800
##650
##473
##ibis
sour
pcp
##vinyl
##491
##wind
1310
scientist
##pet
ade
##settlement
meda
curiae
excerpt
##sian
##818
photocopy
drilled
##marca
mora
##695
cluster
socially
##dotti
##493
conf
sergey
##685
5206
##0014
##619
desist
unified
##roc
groat
mega
1244
##edel
authoritative
petit
0035
uganda
incitement
barrister
##502
##rab
##essa
##escu
##utton
forego
##wski
urus
armour
##870
inertia
chad
releasor
##zek
##354
##0610
supermarket
##nek
##343
8504
rasp
regulates
retr
skrzy
##3040
##anni
##gerald
##marc
##erm
1009
wavelength
053
punkt
riga
##acin
repetitio
##73
##855
propeller
mike
##756
dealership
##234
weekend
##266
quantify
educ
##ican
1798
##omega
##esta
##737
2539
##tified
##sight
demise
##296
##788
wals
##188
##038
bigg
##548
##816
heir
guerra
##hel
##hab
##pam
speculate
##ifica
ruh
subservic
modul
retard
tpg
thinking
##706
##ree
brenna
amp
reader
##847
refrigerator
##til
##loyd
pupils
##tab
revolution
inspire
cascade
##rda
liberties
persistence
optimu
##itch
##inary
rumina
impost
##euser
##mun
soto
##anova
##366
fabricate
cleaner
##misunderstanding
##mati
##ahr
##parag
confiscated
##ways
thyssen
maximize
lig
indebted
frost
##emitting
##7210
##gado
koch
##753
##fera
##ethan
##jack
##7212
fiat
collaborate
##pir
conduc
##739
lenz
lech
6110
inhibitor
##443
hercule
##757
brush
##hland
tran
judet
alb
##say
funeral
1004
##xx
mckinne
##diene
##ucl
imprisoned
asphalt
##658
##7306
shin
##lick
##varnish
##loch
argo
##702
cryo
##acia
##171
gabriel
##francoise
pasture
tetrahydro
utter
##rith
ivanov
##911
mik
##0802
ful
##ylin
##0103
##aribas
subset
##460
##iner
1162
##734
mmbtu
##trin
##ometric
##60000
layoff
iro
##logist
pods
fry
##uni
palo
henri
##awa
robber
equate
nitri
##ayeva
1325
##rochemical
wend
##476
##vod
##package
2026
##axes
materialmen
polla
khin
##iek
giant
cpr
kategori
cornerstone
spong
ladder
1322
##cla
097
##290
bug
grenad
poz
overlooked
repack
##countersignature
univ
dispens
##symy
##656
##egy
##396
nathan
complementar
##98
afternoon
##enic
##1040
##employment
##391
##8000
covert
proffer
##uary
opine
bruises
embodie
monomer
ruth
##bou
##761
##0049
diso
##716
anthra
##964
##edpa
##ngos
tipp
implant
presumptive
pastor
##kis
unsafe
##386
##620
069
quantit
##flug
##enia
tau
2202
zh
cdc
##74
valde
isle
solo
##trieb
##anca
##dea
automati
1348
uspq
##aradigm
kost
##oman
##912
##0130
refractor
##ister
basing
9200
##649
##bremen
##ecker
##rane
dort
earl
##822
adjudicating
aeros
leh
##rera
##rena
spontaneous
1911
methan
##mil
##cic
klaus
##mma
delineate
##hose
##fare
1326
refraining
pent
##lox
polit
##yuk
tankers
##tsch
fergus
dominica
##276
criticisms
alternat
##lak
lil
wrist
##nnus
##743
merk
hondura
##therm
vulnerability
5702
2101
insecticide
glas
##emost
celery
affirmation
fam
1367
##satz
articul
##rical
yuan
##eden
vajic
##trac
##abotage
##wfo
##ubco
needle
##40040
##thi
naturalization
tunisian
navarr
blueprint
blake
##dong
overturn
preside
2024
##rup
##fund
##syl
valentin
##0300
##vada
##pri
##rri
tanz
##access
veil
##839
##ades
##489
clawback
trim
##elio
##mpra
##950
sponte
##rem
unquestionabl
##557
##ullah
1513
cambodia
##707
##ifice
S
signer
1202
##trex
1020
##burger
##owania
##bourne
##osu
tara
cappe
##639
moss
2915
##chia
##ady
##246
amenable
officio
##nch
##ksi
giro
##comune
##imento
##dma
bic
stark
##opho
satis
mak
##425
##wice
electron
##hawk
##aci
##hir
##uje
carnation
##huan
booth
##schutz
specialis
higgins
##nzie
##dell
strap
##friend
depress
troops
capita
slope
##astella
sund
##218
peoples
##illes
seas
5209
antar
gatherer
##blad
connectiv
cardio
northwester
demir
literally
##835
stearn
##skins
##dino
##967
##missed
announc
millimetre
cou
corroborate
massive
spine
industria
##dro
##kka
##real
##608
##nant
##publique
##icos
conc
##fluor
ceg
1371
sweep
##ility
##942
diode
matt
##958
##pan
bots
alienation
conserve
shirt
velocit
campo
1030
##egan
##853
seizures
levin
##hren
turk
cleans
stud
vulgar
salz
##arn
dansk
huge
inert
1110
zupancic
specif
##663
##evolving
##ndesgericht
nave
seaman
##alph
##numeric
##etus
locus
1900
senegal
genocid
transplant
tulkens
summon
norris
sourc
##3100
deserve
nervous
##359
preservati
##146
inhibit
##775
coerce
constar
physic
##witz
##odo
waited
##logic
##444
odj
##bek
chan
2934
074
##tata
00001
##ako
araci
##bps
##ghan
jew
##nard
##grand
graves
##ersen
peco
click
incubat
medallion
amer
litigat
andorra
sui
kod
reassign
heightened
##448
##0979
##rez
pensioners
fatos
quit
##402
princip
seize
##horst
scient
##fluent
mast
dogs
alga
horto
4407
##trinsic
gott
##888
glut
gdansk
averag
dilute
predominate
tlie
dyn
1024
banne
##ddy
resumption
##rico
condo
departed
##bureau
economical
lucen
##pletion
catholic
sends
##dham
hurt
apprehension
##sign
quantifie
svi
##nite
mccarthy
titan
cavit
##445
christin
frig
##lynn
singer
smelter
pharmacop
bonn
temple
suspens
ima
##emi
##anchov
##ethers
streams
csf
collectors
##693
notebook
equityholder
##gren
blm
1704
stair
1400
##346
guess
##bai
advertiser
##fayette
kaya
##0054
##659
##niej
rendition
sib
bitter
##itzer
esta
##781
##971
bij
##826
1050
##cra
contraband
##ivalve
##stedt
##636
regain
wallo
pai
rovd
##0630
bai
dab
collo
indisputabl
##glio
remarket
recoup
compress
##249
retrieve
##stayed
rechtsanwalt
##2100
##oca
##722
holy
##ime
##api
gsc
erosion
##1354
corners
kapp
##elijke
tile
##bouw
1016
crab
##igo
spielmann
mcr
1765
solubili
##andem
##rabo
1404
##682
##bri
translations
##trile
chestnut
##960
hicks
friction
gau
##356
##338
keen
climb
##ovsky
##effectiveness
##placed
estimat
concentra
##liberation
xin
##technik
bam
##cultural
##amente
##917
lep
##lab
micheli
mcca
##avia
##discriminatory
dominan
colonia
##994
gri
##rap
##rabie
##hampton
holt
wilhelm
garlicki
##ried
##dol
kras
brent
##scomb
##7318
stec
##nfl
amortiz
dedication
quantification
linde
##blo
0036
liber
destina
xxvii
compos
cyp
defenders
##198
banque
##marin
kat
##stvo
1906
##76
residenc
##ikos
arrondi
##torp
vil
2771
exam
##yard
##esto
elisabet
singh
battle
3917
##rms
##ebu
fol
##odor
##thal
reconcil
##omo
##placement
manifestation
##tress
##881
##ikon
##osse
##idis
boe
##aus
gst
##983
hinge
archiv
reconstitute
fuente
##fix
##writers
##642
##864
ljubljana
cros
muslim
##ersk
##398
invit
##rev
##ienne
##697
##gol
##550
wheelchair
1012
reid
##farm
agar
##tricht
dominate
##osha
reluctant
guid
recalculated
harmonise
outweigh
verte
schi
##ache
1059
##ewe
delo
##tore
##9101
##980
shap
mobilization
gland
badge
##723
sag
lesson
##nol
hodge
homeland
christ
##576
##ogram
outweighed
##869
statutor
7225
patch
##lms
##bsp
forgery
mull
notarial
vapor
##otto
##width
helm
##ipe
vigorously
alfred
rotor
1677
##effe
##596
heck
osce
##525
ambassador
artists
##court
##trade
##oun
##raz
##867
accessed
jeff
flores
excel
1258
laf
uncontested
##lesias
stroke
gir
##meter
##forfeitable
##823
##emitted
##idor
superflu
##pec
trichloro
##mund
overturned
distant
curb
##pending
sirs
##lavi
pyro
veto
vegetati
##sanguine
bedroom
duss
carcinogenic
##loi
cru
fal
##monte
castro
##0055
scher
maha
schwarz
margari
1141
spac
##bru
elk
##vascular
abrasive
ltc
##rant
##lts
##myl
compil
lut
##551
pru
insolubl
##bun
##rano
ambitio
hbi
epidemic
brotherhood
omaha
swi
##ingham
##tors
##abi
##pal
##iam
plantation
##dant
##dade
belle
otto
irrigat
permissi
##lize
maximise
##nych
guer
nyl
autonom
##structuring
##ebr
##buck
raz
kyrgyzstan
##year
policemen
medina
##829
##tam
idle
sce
arresting
fluorescen
##852
scha
veni
##pai
feld
convenien
merced
pant
##1801
##ohr
##jarve
gravel
##894
modell
tale
##surface
premiss
##526
controllers
dann
amalgamate
##rique
dom
goodwin
##chim
jann
cdi
##kovic
##dressed
centrifuge
##ffrey
muller
##dip
mec
0710
##0320
1503
##illon
drastic
breit
tortured
clinton
embark
mcneil
##eldor
oligo
addicti
annuit
3808
##defined
##681
retroactivity
##agnie
mond
esop
lessen
oost
##iron
##khanov
fighter
##atti
bunker
orlando
##8536
invertebrate
rehabilitat
##arlyle
concentrat
##batim
kuwait
guyan
##lore
hla
mrk
nozzle
2918
##udo
##sheim
##821
ensue
##928
##strob
aqua
accomplice
1055
azo
unsound
##bow
aeg
prescrib
##enu
##vac
injure
##jani
##emer
##tograph
##965
##tland
nbc
##eye
##hydroxy
1221
1800
lorry
tensi
##aut
##acted
catalog
##lichen
##592
enzo
##799
##orific
##quet
##8703
##vented
##30210
##buch
##921
paso
##nnett
precursor
##kya
mdl
##unie
validate
fay
##979
flue
adresse
burst
lens
1105
provincia
1516
gaz
6002
##mata
##907
collapse
1422
##eben
##rona
credential
expedition
congesti
##brew
partie
##zet
organisers
clara
harden
##eger
singfam
##gara
translator
##smith
unwind
duti
##havn
insulate
capo
washer
confessed
##ephthal
##474
##abelle
terre
##454
commentar
##902
##aeus
haemo
iraqi
cmr
1346
##atie
niger
ranks
9503
##684
##neva
##inia
##icide
mica
##itric
maz
diabetes
papst
##base
##tun
possessor
tmcc
grab
##cek
ple
##bos
inequality
##zell
##kbr
bgn
serbian
contemplat
ppd
##570
##new
metz
compens
incarcerate
keeper
fertilizer
2932
optim
lode
1868
##connected
kpmg
sino
pervasive
kend
interconnected
marcu
schmidt
2571
nolo
flagrant
##ciu
cedar
emea
##vos
##507
##sterol
boots
##668
##reach
##zeni
focal
4056
##vertrag
talked
ingot
##uder
##sjon
kup
stomach
census
coalition
##cooked
##onoma
hammer
##tropic
##0600
##3333
promis
factories
kob
magomed
elevation
hobb
##773
leone
##624
corroborat
deductibles
lund
##peris
flint
##986
##nicolas
##019
jacque
delimit
graft
fertilis
dome
##trial
##efi
practic
dass
peninsula
melan
##gnp
daniels
##782
argu
fico
##pot
nay
##8529
1774
##zit
schlum
##lise
1396
kou
##iena
##eir
pale
##cess
##dnio
gemeinschaft
##tongue
##957
vag
inpatient
sarl
looks
##kki
##970
convincingly
##tane
##ams
spell
destin
##rbit
plo
cdp
##992
##world
##stahl
penalize
##idade
##mura
##cut
obligat
##dim
##8413
##plica
confessions
##industri
prome
##0059
kelley
##obi
##cine
##ators
##teri
armenian
##688
decades
wz
1223
##860
perkins
detached
##adia
##jak
holste
alberto
##olus
3102
politic
sibling
##gau
kerr
limin
optionholder
##lace
##nja
regi
feathers
illusory
arrests
organo
pana
hygienic
politically
##nym
confess
##gus
acer
barn
##618
##515
brasil
cube
reciproc
filtr
##umb
salad
hartman
##930
1117
##558
##956
##verly
rays
alca
bry
##casa
kala
##505
##roni
mcle
katte
##eras
##eko
reminder
##96
pierr
##ffer
##earned
negro
##two
##caf
##fast
veba
##hograph
joel
lense
wyn
clif
kont
##lada
alive
coli
appurtenan
bala
huh
palestinian
irritation
##rated
2176
proscribed
hoga
##nata
##noic
vla
compass
dag
csm
frustrate
mili
harmonious
##498
encrypt
kaiser
##5514
##94
sometime
voc
##anger
##runner
##carbonate
##834
saic
##tay
##ffi
##etic
elevate
compute
##vas
##zow
##insky
nlg
grocer
##war
##auror
fenc
chlorine
##bruck
##telia
##5513
parks
##onato
##622
##boron
polygon
##tima
hundredth
yam
##etsi
7202
plovdiv
##00010
quarry
wonder
filtering
3105
opc
##345
posterior
windfall
offic
cyan
##aja
##phor
##ination
physiolog
##885
adhesion
disfavor
emas
1342
##ove
##741
##phosph
##alike
stu
##necessarily
##oles
acced
insurrection
gould
jcc
##ajac
barrett
merrit
vista
populat
##bur
prin
##993
##784
margaret
abdullah
wels
##endi
crypto
##384
##lova
##cri
##0904
##spar
brace
##cola
consol
lough
lefevre
centum
politician
##rian
##person
steamer
##pipe
lav
1471
tekm
microbi
1908
##mov
zenit
eff
latha
##376
##hca
confi
trout
gon
cardholder
sera
##kovac
intoxicat
1247
##leven
happens
absurd
accelerat
mobilise
##0708
lom
diem
orbit
1343
sard
##aldo
skal
##670
##rti
cucu
csp
##schap
onset
bauer
tapp
geometric
vari
##dah
##varez
##sorpti
obligee
##fang
minebea
baldwin
1883
bast
##484
##ncy
1698
2799
predator
carls
##3050
alp
##anning
overcrowd
contender
fuse
nederlands
ufr
##solicit
##trag
##691
gua
irrig
##wlett
##vra
1010
reiterate
##eze
warranting
slid
##onal
##prost
cpl
##uja
fum
feared
1725
##sible
##apa
mccan
kli
##carba
##vier
##955
advoca
##zeichn
##hafe
alkali
##lberg
##standing
##732
##itta
##zak
uzbek
enumeration
rebuild
1504
pesc
coru
##488
participa
##divi
##eler
##uze
ribbon
metall
##rep
##978
##glo
rival
ethiopia
hag
propelle
2922
##rpo
##esca
wojewodz
1154
reclaim
interact
mcf
haqq
dave
stalk
spd
gastro
##communication
embroider
##598
feldman
4000
busch
vall
##riad
##osten
0037
libellant
worm
steamship
##naphth
##jes
personae
##dynamic
##cino
gibb
cheap
extraneous
gera
millenni
reunification
stabilise
alley
##ppo
##esso
##674
kaz
##asia
##arco
stea
separator
1206
novelty
teamster
droga
moh
propi
##olen
##627
##837
gaza
entrepreneurs
##own
##shaw
##iet
propaganda
scri
cabra
duff
retraction
samsung
##891
##spun
mira
colli
sapp
pardon
jerz
strat
lorr
hack
##lpg
tehran
##20030
##rix
odd
3907
##erp
miscarriage
discredit
2707
0042
##app
ernest
tide
##754
1418
##393
##erty
##points
junction
##ader
##634
##nice
##ledge
toxin
##list
##lewa
##douane
somehow
persh
##0057
##fire
7222
cul
perpendicular
sleeve
intermedi
hencefor
prerequisites
##elf
nyc
##1302
impractical
neighborhood
seafood
##icke
mikhail
prosecutions
quell
##858
##cene
hirsch
pedestrian
##dek
##kop
drift
##791
##579
hopkins
impress
whale
pens
shan
toled
##systems
##580
##11000
##673
##574
##gac
##rbed
koll
sioux
disappear
##tending
rog
transverse
##imco
##party
##toria
zak
##clone
1866
laure
medicament
##rcio
##ordnung
gab
0038
##798
koin
nih
##proof
##akov
coca
##906
##838
koni
##tsuka
##ionic
braun
kurdish
pathway
sind
1208
##rpa
abi
curi
##oce
##rati
5210
reus
bridges
##vit
kamp
##1316
bib
##orian
differentiat
philipp
exco
progen
##lza
renounce
##yuan
tentative
##phin
lat
##rbi
stabilize
##609
reprimand
efflu
##radi
##orio
nitr
1113
canteen
luci
1914
blocker
accumulate
1441
vertebra
##erz
##698
##otti
##shout
##jected
phillip
wai
proponent
##495
laurent
##nita
9001
siege
cardo
rol
##ringer
interplead
evacuation
divergent
##utt
repudiate
##2030
##richt
imagine
##0018
##gly
zin
##961
##nate
harb
##elman
##deca
transp
##merica
conscientious
##fibr
reinvested
##asso
comport
rug
##nets
styl
##bie
gris
juni
##lob
certifi
endure
stain
recurrent
##fee
##0703
remunerated
gutte
peu
##lactic
##zov
packs
##429
##trine
##lfi
confident
deporte
##20010
##iberia
prediction
##riet
blending
vulcan
sgi
##opter
syndrome
cousin
altmar
##stal
##hey
##walk
unintentional
chronological
##555
##locks
zaw
##ify
##avier
##tiere
developmental
##0140
##924
##robic
##774
##ccc
##997
harness
##ritz
trad
tongue
feeling
adria
##sensitis
insult
##nhof
hospitalization
0040
zam
##tiko
multiplic
1145
##sworth
homicide
##ativa
2302
##tele
##3796
##erland
##dig
damp
##iles
impunity
tooth
iri
hasan
##omed
##pic
probate
##626
##577
emba
##constitution
2711
##khan
##ckett
##cology
1903
hostage
lumbar
capsule
rationalization
ferri
annull
pruden
cognizan
homeowner
gav
killings
##hout
tactical
gip
scra
snyd
mint
##825
##ponder
reoffend
##ologie
coarse
accomplishment
##2200
##zig
uniforms
##aldi
##science
reintegrati
##aps
cologne
latent
gendarmes
##allo
heal
sak
##ccp
shifted
1268
checklist
##468
##otoxic
##922
##mou
accords
1910
##grund
##chet
kharkiv
bioscience
gian
knox
1402
##izz
scour
reliably
conservative
1036
goldberg
2988
fca
##0700
##lement
##lade
##liege
##gress
fdc
##725
coral
##alus
zv
microphone
alkalin
luxury
##872
smell
ellen
5603
odour
marble
marko
cigar
##km
simulate
##724
repetitive
mende
##ishay
mori
lib
hams
grill
3004
haut
sina
nipp
spas
##ficiency
talon
##843
##sgesetz
labita
##stine
cartridge
##hun
groove
##sheng
##rai
salm
kali
##gola
manning
##rung
##uits
foreigners
sausage
impres
clarke
quantifi
##obac
##cer
deere
oyster
liras
housed
##laura
hooks
##712
amro
moz
##dermot
favourably
##416
unwork
##368
resilien
disparag
##742
voir
slo
##det
aslan
##remedied
instantaneous
unsuspect
nicolas
coaches
circulat
##dze
wetland
abdom
##odification
##887
##dust
##giano
##ouni
##lim
camouflage
##gging
substantiat
##ulenc
##lah
smi
presentence
sauce
expectanc
aqui
schin
substation
##nese
##waren
##ilor
salam
albi
##785
recruiting
jap
##microbi
##0208
jamaica
emu
nonconform
cyano
schulz
kings
relax
##coes
##erei
gabon
exclusionary
towel
##rot
zab
##america
##ullen
bookkeeping
1131
cbc
1916
##fhb
nac
kho
##skie
qual
namibia
transmissibl
submittal
##348
cele
nato
ballast
##hard
prive
bacill
##utu
2500
##poli
meso
sko
##enda
comparator
##before
clip
##novated
refill
##2600
##675
##mag
##rva
##890
helium
1028
incrimination
##tka
obstructing
##996
##7214
ferrar
darm
password
wiretap
##arin
1071
corona
conspicuous
##vener
kemp
##0061
brod
slogan
##pag
##erb
boh
pleur
##vna
mop
nephew
haynes
europeen
reschedul
##compensation
##ertz
huff
luke
##871
##bov
##ffb
dispersion
fleming
swe
favored
carp
kickback
##offer
##eryl
ripen
##ieve
pencil
regrettabl
dew
1273
##eja
fein
drafter
##0026
##hman
##628
cdo
##medical
denis
labs
maruste
tull
##last
0044
##tario
denk
1126
##chiu
##comb
##serv
litter
##595
##4028
bottl
munch
articulate
##itel
##undesgerichtshof
alpe
scc
##acher
##zeit
##regola
childhood
sardi
lunch
##rij
##951
scarcely
##751
crank
##modic
##emol
##ographic
izmir
##6108
##pods
yen
##luit
neom
lars
##749
sumito
gratuit
cdr
rhoad
stigma
ordination
##project
##eche
disturbing
moran
2930
##uden
kkr
fatigue
nurses
##asque
##eba
##oten
2510
##654
##financial
hierarchical
reclassify
lenient
2042
affirmance
##waz
disrupted
contagious
##648
##synov
halo
##953
inequalit
##right
##skin
dough
colle
##bold
jungwiert
##696
1466
foul
republik
##506
jmc
##268
hahn
sajo
paradigm
julia
elaboration
##food
1134
##room
candle
##reb
##748
##pit
##nco
angelo
dogan
##saturate
##rato
##imer
##habi
rfm
##lga
hanson
script
bowl
##chow
debat
zem
tarta
pedro
massi
##rios
##wig
bih
##91
##augh
##ril
fertil
##632
detachable
dokument
prawn
##643
1212
bulb
ow
dul
tended
##7300
##epa
1079
##876
##auro
franco
##mutation
thun
##rain
lombardi
##tier
##568
##0056
##0813
##atta
barring
##750
repo
##549
braz
boss
##jon
dys
caterpillar
##trop
##uces
bati
touching
##lind
averred
inject
##ules
##stick
relinquishe
cancell
##wein
##849
##monitor
roh
capacitor
compresse
eyewitness
##basi
1912
deteriorate
emerald
emptive
eras
owen
urgently
##arz
handcuffs
##zzi
##ignite
homosexual
##member
interpose
bldg
chiefly
##2924
dredg
##841
##62000
##ncr
justifications
##filtrate
##dung
##ept
##504
bock
pelag
##hap
1112
##865
sprinkler
norte
##tau
##552
streamline
1577
##yli
##kun
optimis
1395
imped
steal
##oxan
flam
pulmon
sophisticat
mum
bah
##901
expropriate
##976
ppg
typ
mom
##rts
##ttes
1115
##otis
##2007
niko
hutchins
sherr
zie
earner
##reco
billings
##niche
##amy
##959
nick
colloqu
1159
commer
alma
##kett
queens
enlist
##horti
dhs
##frey
instructor
soldier
##etr
##uhr
athletic
gecc
carol
##565
kane
##olie
##idu
##stre
gesetz
##stru
##erno
##feng
##itate
rubin
recollection
##771
##ccam
berro
##aktien
2784
mcm
##tano
georgio
6201
silica
##brom
heller
##mak
##koop
##titu
resemble
##energy
7019
##emont
northstar
pps
##grant
lymph
renov
mails
karel
elapse
heavier
marry
cutter
amortize
memorie
##plated
##eaf
jaw
1081
sba
##ueva
jaeger
##gge
jure
##rst
##alue
heel
cui
##celeration
brix
##ticultural
levine
hendri
pena
uninsur
thorn
##uction
1191
reiterating
teeth
##quist
indica
##0160
schoone
koln
fragil
##thus
troy
##2801
1518
edit
loa
manoeuvre
##quest
villiger
1314
retirees
##726
sally
##rhein
##kayev
mic
1164
wounds
weav
##954
1320
##nning
##holdings
rayon
cfd
##morph
##rop
pollut
##rba
odds
1227
##graf
salem
cull
chel
##ollagen
##digo
compromis
romano
##ftc
2343
##pyr
1692
shake
##kala
indeterminate
affixing
##twa
usin
0050
##914
##odex
gerard
##gun
##unha
1239
##erg
##rova
##762
stam
##agon
##1977
##aceti
doj
2182
##eek
cart
##877
##lyle
1259
betting
##rtl
##sandra
dune
##elas
##spring
##kta
##roach
##lache
musca
##3200
##973
##coat
tep
arena
archi
abraham
1039
##802
cheek
1370
##845
alber
forge
yun
##vir
cle
##687
eradicate
bulkhead
complication
screens
oberl
parson
surina
##991
biolog
coexistence
muc
militate
icp
##842
crystallin
##health
##teyn
##lable
cress
yar
dishe
gardens
arret
arco
##valu
##638
masks
plugg
##pentan
macedonian
humiliation
flux
##sonic
##teria
tuft
##lati
##913
##nich
steward
##896
1897
bris
purifie
morale
1046
1431
nicaragua
##mea
##sulfa
janet
ema
##record
isolate
1361
##tty
exacerbate
##prise
dispers
kanoni
##lch
precipitate
##ortiz
kalk
##sated
jama
referencing
gallo
##orte
gesellschaft
##909
fires
##908
##amines
mandatori
hur
korn
ariz
stimulat
##985
kut
stimul
landmark
reintroduce
crc
forcibl
ccr
hepatitis
1507
decoration
##nden
coverages
gamm
##etho
##929
luck
organiser
robb
occupie
tib
##gut
##magyar
1271
collateralize
klu
1027
1176
##adas
##isk
counters
transdniestria
corollar
verno
##anili
##ovskiy
directorship
2917
##ologia
tyle
cris
##icolo
##vasive
##leu
##0025
dispensed
enamel
##409
rile
##947
reconsidered
tunc
##ectors
provoke
##opr
trimme
##lix
inflate
##roa
bypass
##vid
tack
##slav
intrusive
##tud
1130
hq
1041
snap
osm
ketone
repatriati
feeder
##4010
##kunde
##998
limon
slave
1109
##elsen
karls
##structure
##geographical
1274
slander
##asti
direc
jeffer
incapacitate
revis
##saic
##elet
##czyk
##inskiy
anton
##serve
kale
uncle
##lho
dps
immuni
##administration
##mack
williamson
##fuhr
ampl
##iuli
milano
cumul
unpersuasive
cunning
hom
##cke
##pposite
concise
##995
igor
3919
refrigerati
##dlich
fled
paraguay
resentencing
shutdown
leur
mcka
struggle
1085
1341
7701
militia
3204
sous
##stin
##orni
##863
##0602
##charge
achievements
garr
##nau
msr
romer
##880
propellant
neglected
santan
0120
bayern
hrvatsk
pride
##etu
compulsor
##0712
1094
bahra
ente
slovensk
moines
##936
##regulated
complicit
##stil
##rath
kana
##0150
redeliver
nicola
##worm
##assi
metabol
##iff
##nost
##dige
thursday
barto
##dik
cgmp
crash
blower
##lston
1029
##7222
nig
##vali
##pur
navigab
##handling
rfp
jense
receptor
##pati
samo
##14000
##substantial
circumscribe
gerecht
##bain
kath
##uza
blaz
##zoo
millet
chester
##prov
##12000
poles
renegotiate
vicarious
##ogi
sydney
intrastate
clin
##rein
##ifiable
##into
writer
##heart
kad
belli
##eniche
##peat
elast
perpetrated
##720
taci
nex
stitch
robin
audibl
##ature
##nelli
unanim
6112
ounce
accommodated
koh
##bic
##8481
acceler
##glp
##hardt
##zole
engle
ahl
##iecki
brock
1517
constr
sinc
separable
tick
ventilat
1347
##844
##taine
regenc
brus
##0407
appertain
deplore
arbeits
terti
aroma
##tsus
##infestation
contrari
pul
2036
meritorious
scor
olt
##capital
##itu
needles
enunciated
3301
##pes
augment
##pino
capr
1121
entrapment
garrison
ahmet
env
##559
propell
##oden
##0530
1183
fortis
osman
1890
##vara
debri
kapl
##guin
urine
1447
##flor
rau
marr
##itan
glu
##kra
presse
baku
##bay
##0807
##hassan
##hange
shav
bulbs
baum
##ews
##652
##erome
##0213
##profe
##cken
cri
##bread
##terra
##afford
superficial
1119
sigma
##lucia
pendent
query
##none
##umab
##ssile
expel
hank
1623
##epr
wirtschaft
swear
##uru
deplete
usda
nonresident
2100
##utane
6202
##sboro
elaborated
bolivia
1019
overhaul
reflector
1235
wanton
abel
basement
ahmad
cov
dcp
sword
1203
disinfectant
broom
##gent
lynd
altisource
grease
##muhl
##stead
monster
##lett
##gaz
fms
##2006
mattresses
##emo
##20040
floc
icon
iba
outpatient
commun
1123
objector
brigade
##walder
##nera
##inghouse
abate
##guri
donation
falsity
##opyr
##josep
##tfe
1177
##rita
nobel
##odore
trait
verbally
nicot
raja
goodman
cautious
thrift
qep
assaulted
mango
fries
lithograph
##sub
##pli
unacknowledged
outrageous
##fur
dauber
trainer
##hui
##enoge
standi
dredge
##kill
sims
interventi
##obstructed
##lumina
##4302
pivotal
overrule
tilt
underpinning
charity
##graphs
##pil
holz
##stitut
endocrin
prat
kei
##hammad
##ramie
##1100
##assignability
##uve
porcel
3632
##uber
1153
##chey
kis
thinks
##selves
reim
podlask
##omoto
avvocat
coup
bedrijfs
rosema
pensioner
tread
mclau
##hipp
avers
##966
1581
spindle
##riding
boni
7207
charle
##0340
##898
1484
##gci
calcin
1312
lorenz
##geot
realiz
1722
##lit
chave
shah
##539
##hol
##hch
##ajin
##trate
acco
decade
##amon
aga
##tants
abundant
rif
##933
##zni
##ermet
##iku
##874
##inde
grie
haiti
##neck
##anus
##adden
ramos
jurist
##trix
thessalonik
##bit
1169
cannon
##foli
##import
##enland
opera
dorman
abbreviation
cardia
majest
unconscionab
averment
fro
phas
dedov
##0024
delegat
##rustic
courthouse
##anie
##ight
##dane
lard
eritrea
##tang
republike
##epl
##enheim
##gran
##tett
##943
cogent
1133
jou
##brandt
##738
##ppel
##uton
##935
##inwright
sulfur
##styr
cameroon
pasteur
shand
##ulet
1267
curricul
connell
hannover
##ilio
1080
disqualify
pedi
cea
##0383
lesion
mez
1250
hoh
contigu
tay
huntingto
##836
##hire
xerox
##dna
##miti
kathl
recon
##erton
walt
##biological
1062
##ebay
1697
regener
rechts
##versicherungs
commute
methodological
lege
##linz
hindrance
schematic
##mort
sublett
5801
##aph
telefon
includ
duba
consummat
##argo
meri
encroach
mathi
##rance
##ffel
1700
hines
##christos
inquest
##olga
learnt
grd
##cible
##quinone
deferential
##papier
##770
proclaim
##apache
realities
##design
hess
##ivida
##has
1219
herba
lazarov
hospitalisation
##ilent
##ulis
pett
Su
schul
##joni
trinidad
shotgun
decent
cutler
2730
packer
##lingua
xxxx
revealing
prefect
##imation
##alone
##rity
conserv
burner
##651
##2092
repossess
manio
##rzeug
##pmp
##ftes
##south
##product
nonappea
dilut
##ulo
lyn
##version
1552
##0092
##chita
illustrat
cfp
lasers
baka
##tail
##7213
selm
##lau
sociedad
komi
##99999
winst
##bahn
##0035
attorn
stagger
##bard
mies
weil
##agna
##388
traumatic
##oleptic
rhi
locks
##hanie
##pils
##pus
stall
optimise
stutt
##icle
prophylactic
unenforced
##941
##opo
##wire
dext
##546
1222
##ook
roug
htm
1098
##otta
twombly
welch
##inte
1089
1365
##erge
chant
##977
nbs
##tein
elbow
bait
##zzard
##usta
##idene
weis
esse
##8443
##aric
stepp
medic
recalculation
wroclaw
tainted
mitten
zhong
##adel
1025
precarious
hispanic
artisan
revolutionar
flavi
bop
##term
##ldi
noteworthy
1231
1881
##flux
pluralism
##490
kata
##rji
##elv
##lava
tcp
culminat
lanca
extinguisher
acm
##lient
cava
intolerabl
ludwig
##ipac
##pul
##vert
##kg
##recorded
gema
matra
##wac
indemnifie
banner
##zol
zale
##755
jam
##iak
##litz
subco
doll
##robe
1415
##peri
bald
##intended
disagreements
##lji
##cione
marion
##olan
##ury
dance
oth
##laba
##tori
gaf
hell
mercantil
saddle
##east
gsp
lauder
camps
workload
oriental
1054
rationalis
spur
1120
1186
almond
colleague
1321
##vina
##umin
bathroom
worship
mustafa
francois
ruf
squi
minds
woodland
##mental
metavante
rostov
telekom
obscure
hemi
##tac
musa
peso
##859
anticipat
##lico
##enco
##ikke
poc
allergi
donations
##879
suitabl
benton
##ptc
##rait
##466
champion
biomet
##dev
overly
volt
burr
##place
bookrunner
##elu
1299
##hult
3600
##gui
##rmc
lite
##79
1033
##adler
##oler
##jie
somali
pavl
reeve
##0430
##antes
chiro
airplane
disconnect
##0064
##atton
##mita
1909
##jbi
##forcing
endow
##hatre
##dnie
##amel
##elis
obviate
transistor
underlie
##plane
outsource
7226
##rib
chim
##svp
##abad
fleisch
##lti
##egna
resh
##0154
stron
##2759
energi
##mur
odor
cim
3025
##pron
pyrotechnic
2253
evrop
dayton
twe
messag
delicate
vaz
bowma
##platz
##slan
##ionate
##mmel
1026
claren
##kava
stationed
2909
##stado
##0202
planes
anatoly
##monas
1606
1077
frustrated
1188
acca
univers
##observ
##formation
ventur
kyprianou
waist
##heil
worthless
amb
##ulia
demarc
awa
avia
schles
mykhayl
birthday
9700
feli
julian
##nnan
chal
lipo
hurricane
deceit
##tiana
hunts
edwi
flush
##hole
tarn
##fbr
##umes
##ains
attitudes
rigg
phy
##exel
chargor
##come
##attention
revive
3003
jorge
marte
lance
##noid
##acetam
##rail
naple
sublessee
cephal
tuc
rescu
0110
##asta
##uddin
##ilate
##nicus
##meier
##andria
suret
##uil
##uspic
bolster
##aggio
chalk
2844
##hic
sli
grenade
deskt
pali
##math
catal
##lini
##riva
manipulate
lop
fsi
##twie
gdr
accuse
suggestive
pala
platt
compr
##gues
convoy
sku
##862
1889
##erides
unif
roadway
##myr
stow
##jski
proto
suspensions
projector
##ream
##582
##pla
ride
gam
##opol
##enge
##salem
fest
syndicat
hos
monac
nime
violative
neg
suspicions
##oncentration
##2300
nau
cura
sikuta
camar
##nach
degrade
alka
2220
sacrament
##cheng
rosin
##upac
hung
radiologic
3901
amc
##766
##jia
shir
regula
castill
1309
afl
##yeva
##listing
impound
1338
candidature
dir
##entino
demarcate
##invest
cory
preexist
##lemish
headline
imper
insanit
##eq
##873
pino
##onou
##0079
##zea
caf
nassa
rewe
1265
##ikh
teach
blouse
##rises
reinhard
gaetano
redetermination
misapplication
compulsion
auri
trach
handbag
##932
euribor
##amic
sicil
brittan
##6307
carryback
##8333
1163
burial
kry
hugh
##kager
##accompanied
insulin
##tler
##olone
thirtie
##tight
arbiter
1324
stratu
##rest
##idos
georg
##lma
##mici
##kline
##atherin
##leg
photos
strive
tva
aptamer
qualifier
luch
breaker
6115
kitt
##ophil
batter
##alcoa
##borate
appr
##6030
##lance
pris
kaba
burdov
##zie
sidewalk
licens
comit
##5030
gile
arend
1899
dau
photocopie
popovic
##yang
##lage
##pea
##iken
muka
ssb
##hvac
##solicitation
giovann
unladen
museum
frere
##rogenic
##629
##plat
##istan
pbf
##mpl
##3701
rowe
inextricabl
##hain
pixel
##bian
flesh
##sider
slurr
1034
sang
abrasion
##baugh
##anjin
palma
##adien
reversion
##acid
persisted
europea
##ope
##rax
kiri
okl
starboard
##elen
jal
mcge
0048
bair
##alcon
vaccin
##utta
##nico
##mong
##loni
console
acquit
rossi
dodge
1282
santo
sozial
##ape
##tiv
##anski
tsx
imprint
patel
##mois
##eke
##0023
##ution
1148
##kind
suspensive
##olefin
egyptian
##fused
ucm
9400
consulate
##nge
hvd
vak
##ebel
##oxid
administrati
indiscriminate
##eph
2535
##oko
##siel
smelt
1023
grun
odo
dodd
pike
##lieb
vladimirovich
ava
officie
tria
##udre
1360
cala
3582
##scheid
##cial
nektar
vacat
interven
rhodes
8000
boeh
##bok
curd
##ishes
impulse
prostitution
fnb
##2778
##hom
3832
backlog
miasta
##corbi
inverse
##gist
jor
##1891
misch
##974
extinction
##main
escal
##pmc
biz
ispra
##toxin
##zug
##public
trajkovska
##opus
1383
##elho
##valence
##iatri
embodiments
dsu
mani
##som
##6050
##lera
##jah
subcategor
##pfand
##onovan
dragon
carlo
##ulus
##exim
##2222
##info
chancellor
prune
##tars
##staff
goos
happ
rite
casual
fingers
##gov
unred
##eisen
usco
##3201
auth
logging
2103
##4040
##landlord
##cado
knot
##1389
##7500
mccl
##4020
burma
##klo
##enk
2244
counselor
##dju
1194
##erste
##unit
joliet
##pent
3013
canyon
##assin
##ieu
##lemon
##rosa
##1501
##0303
opaci
advent
norther
kno
counteract
##ntr
pepsi
excavation
karakas
0046
##sik
lice
##rack
##inol
julie
##mona
partisan
##read
##enka
##solved
cave
##confidential
oster
descend
##agno
##tris
##devu
oblast
##typing
hoog
##ministerio
##elke
categorical
disadvantageous
granula
pope
supporters
concurre
##topic
vander
1304
laptop
addict
hmp
##ghli
loom
##zine
##szag
ascend
pok
endors
##lester
dmitry
##3302
##nikov
intens
studying
##884
##amela
##boy
##boa
charlesto
##facsimile
##phon
lum
##1514
isola
##phi
##dpa
krasno
##2914
centrifuga
touche
santos
inherited
huang
naismith
##0067
realis
octan
##union
races
1205
##bbi
1074
bang
intensify
intensifie
broadwa
ration
enshrines
urging
forgive
##chio
##barred
swa
smr
##eki
separatist
shade
zee
4804
dict
##kovo
##onica
loud
admiral
robbin
cgm
dash
videotape
handgun
shadow
pict
##lund
regressi
##alco
goss
##meta
##6667
protiv
2131
vasil
dirty
athen
##676
5911
##consolidated
##948
destructive
bayerische
surge
repossession
##grav
proclamation
saldu
##bbs
##ific
##sorted
##lfa
sabotage
1666
mobiliz
hyde
tiers
spectra
autori
2902
journalistic
##beda
cumming
grif
harv
discloser
##mitts
##sab
pia
reciprocat
##nisse
##988
cavi
drago
##10020
##activ
penny
##5310
gamb
persuasion
generous
##dresses
sahe
mcdo
##ander
alleg
3006
##0710
fung
peli
stepped
zoll
engagements
exaggerate
precinct
1198
##1976
##stim
##physical
##ition
##ipso
terror
##tova
epic
##trava
carni
##ruck
1453
krame
sirva
##stable
berec
##962
##mid
##ersal
##987
gins
##ignan
##chon
##mage
##cera
##0022
##100000
concomitant
shepherd
frazi
##ccoli
movie
##hort
##loid
qib
duma
skip
transatlanti
##rzy
harper
redesign
daw
##7020
deterr
##risto
boring
pane
##niia
##gfi
lata
pend
##him
spear
##blatt
dozen
gendarme
##opti
georges
##ghg
##gler
natal
##armament
##unga
##10017
boz
surrounded
##whereas
spinal
europaische
pratt
purposeful
##guard
egregious
beacon
##tzen
ncc
##calci
##ylo
##classified
thre
natur
##prid
manuscript
sacc
##erre
geron
##70000
illustrati
##profit
6001
lun
##430
2408
synta
immunog
zel
borrego
fulton
##egre
extrusion
##zhen
televis
przy
##4303
##guer
cassi
muhl
##0021
superi
anglo
opm
##447
posing
##renewal
prejudge
##isle
hrk
##2012
luna
mosel
##acht
wired
calm
##hus
syk
spectac
##schen
##crc
##atter
0051
##963
sace
##rla
genera
omar
dba
##ambol
1018
##0075
##lip
proactive
1287
giga
turkmenistan
##ansky
1067
##952
##rama
##shell
naviga
culpable
arbor
dyna
danu
framing
perpetu
##dva
suppos
##escent
##erium
1214
famou
##ethi
##5803
##frontier
clan
perforate
##mai
fugitive
vantage
4980
pisc
savo
abg
ornament
conv
##arhu
certificat
violet
blunt
3823
##def
##album
clair
interrelat
##ozzi
salman
yong
##triti
allegian
##sense
##steuer
binds
##igung
##lated
kbi
##alvo
elisa
mirjan
brut
centralise
reluctan
vaughn
##numer
jug
1204
##hept
##voer
##1401
gj
1053
skop
deferment
mooring
##motion
nondischarge
monoc
vom
##easing
prob
##echt
enro
adjudicator
juncture
bret
itemize
##0260
##lba
guar
##coal
lauren
verna
crescent
##boro
mino
musk
classroom
5607
kristin
watermark
marri
##vell
##couple
##982
shur
hasting
leslie
##phones
##ously
##omme
##ganna
cheng
installer
piano
migue
1837
kilometre
##committed
##imino
wiel
interrogate
##enna
3950
##toni
##857
examiners
1197
sah
##2101
verenig
##6110
1237
hazelnut
concessionaire
##mune
vial
##0209
meh
groupings
1068
1229
##vio
##nava
##material
##uffici
bologn
trinit
##treu
retracted
2901
robot
iata
stale
##anos
##796
depreciate
emboss
spreadsheet
1158
##eea
##aben
##bile
##otok
defease
##ction
falk
riots
##ilen
##rade
brandenburg
wilder
ricard
##ull
##tuition
pray
##dyne
diagnose
##raw
##tria
yurt
courtyard
##ilva
##2302
metallurg
categorised
##nunciation
##tado
##laki
##cumulated
##vora
##annon
##unification
##866
boom
artemi
##evic
shann
alon
##rjes
cobb
quant
respons
terc
fut
squa
##fri
environ
laur
##nero
##alnut
fij
westf
##icki
incriminate
kem
##nings
3887
##veld
1356
##eten
##ibi
##ningen
fatc
spat
##ough
cove
##tung
vitr
berke
fastening
rust
contravened
2205
##ocean
##determined
##nska
summariz
##ntin
##duane
invitee
matyushkin
##ijk
hoist
##meal
##waterhouse
##ehen
##cop
motel
##ennes
schock
##gow
magna
expos
2939
##eem
##niki
##dron
##etal
1357
##hav
##0623
osborn
mandat
pepp
##exeli
nemo
##hak
##ssements
##imf
##3801
##eleg
##7401
##arate
##villa
##hrung
insulting
##9401
seago
sulfa
jian
gradi
##8544
##arit
grat
microscope
mist
##tak
andras
##egis
##opco
resilient
coole
##984
##niu
##iforme
##saw
canne
bunk
hirvela
##felder
##iqb
##0034
decret
##komst
1423
uncontroll
1155
pech
condenser
1861
encod
##bod
##children
##rsk
tribun
##oker
stub
##508
##ritt
laguna
##khov
booklet
handler
##makers
##ussen
retrieva
sweeping
guil
winds
truncheon
##dora
1511
7013
##secure
elm
luka
##solving
2931
1070
##ossen
steadi
britt
##impaired
1248
harlan
##uka
irradiat
nag
##eading
##nberg
##lever
##ttle
##anise
##reci
cypr
##phase
concentr
##vity
##lems
##sack
1328
2261
reef
hate
1152
diagonal
##934
##895
attribut
##urre
##wel
##igh
instrumental
reliev
tighten
intimidate
burle
##2303
##taj
grew
##igu
debates
guada
enormous
unfettered
shuttle
8525
##cheque
##hatham
mier
glaze
1065
##nil
##leuc
einf
##slaughter
renne
arguendo
##kawa
dala
3017
3502
##4100
peni
unten
##heny
imprecise
zlotys
grandparent
frontal
##9302
##retrocessionaire
matrimon
juries
bras
priest
##entru
##tolo
##6306
##dice
##cam
##quit
guang
##filament
incompetence
##cite
elb
zaklad
##ranco
chew
##city
1092
organizer
lowe
##tani
lash
##etia
pdc
readers
isil
2868
##desk
designer
##owl
poorly
ankle
##eeches
cyanide
##complet
##8539
##ladder
##4050
1058
privatiz
kiel
falsification
discriminating
rams
shak
varna
##uori
letterhead
##8477
##shko
##laine
pietr
arct
suburban
opel
querie
1042
1038
widest
##0170
skat
msp
##adana
bamboo
stereotype
volum
meck
salv
##romyce
##trophic
hick
dgs
hanging
8701
dryer
##eil
##you
foli
commutation
##1667
1240
nullify
uncollect
##rci
##izi
##lander
burd
##tje
specialisation
zucker
delict
##iker
##agreement
##contract
##nig
1216
##0066
1253
kuris
vila
3702
elens
##uria
brag
kyrgyz
1072
##voy
1149
extens
1236
unrealistic
lombard
obes
orchard
centred
leonid
depose
nielsenchristos
1871
##raja
##fabricate
1144
deadly
##stok
favorabl
1382
stemmed
dvd
1172
##9110
mata
verein
schmit
##omite
1627
##mbre
hoof
##bad
2580
diane
3760
recess
##lift
klin
communal
##tame
1127
##cija
##lom
##eanu
barney
##rzec
##ovska
##igne
wip
ilinden
pizza
##frei
vogel
travi
mattress
evil
deadlock
vert
fiction
graded
goldstein
##guilla
1391
##aru
##uhl
##sauf
##auf
kiln
##finished
##rango
##xam
##maran
##eating
##hib
##0120
hypertensi
##help
2102
##1300
##eken
exonerate
##krtc
aden
stac
##yla
aptitude
##ovsk
##taught
1336
##cco
diluti
retainage
gambi
fractionation
refresh
avocat
1215
##idze
khad
ilc
handicaps
##2014
##meri
zwei
##6901
recitation
##ional
conceive
albanian
##plasm
inflict
##indo
crews
##first
steriliz
1339
accelerator
inscription
##enex
##conceivabl
##cash
posture
seeker
1663
##gean
appell
##zynsk
zap
##vain
##akayeva
shocks
##quari
mund
##orah
##tman
1075
activat
behave
laz
##ocular
1510
payload
forbear
##zui
##401
##ngus
halide
ceremon
nicolaou
##cetone
##sector
1022
symmetr
treble
##through
1491
provo
1821
##uar
##cil
zambia
1116
##vale
##otc
evad
##ciano
bunch
miast
##coated
carcinogen
wharf
embodiment
reborrow
##irurgi
vasyl
clamp
##uttle
##hlen
##cbp
##owska
##web
infraction
##iver
##iens
##erro
geh
amm
##yra
forename
slowdown
simul
##riou
##entegr
##enten
2777
pom
##hrc
tyr
untreat
garner
##anza
1213
eas
1097
##lateral
##provident
shank
##layer
barreto
tmc
##bac
2941
##refund
schultz
hamm
spel
overload
passos
ngp
1061
##rcf
maybe
diminishing
##yme
##uryl
folder
retract
heartland
flap
3811
##annu
amply
azerbaijani
cooke
##bond
schiff
##mercial
sauv
castillo
reap
6305
##rabi
bakers
jab
##chau
kang
##czy
absenti
wounded
##2900
##alko
vizca
##ennial
##arte
absorber
evict
bour
unfi
utilis
##phatic
1135
##ref
dispatcher
##mures
controvert
abductors
contemporar
##usti
1696
privit
##piracy
6402
##isti
2050
##enter
veronica
intercourse
##ushit
disruptive
protea
##lazio
walder
juveniles
##cier
geologic
##cisa
moreno
rosenberg
##1601
##zac
##bird
##veg
nonwoven
celj
unjustifiably
##czk
kuh
nordisk
stri
##rill
primer
trump
1166
borde
3505
##cik
##polska
characterise
##rau
##wal
##ldc
##schel
1344
##alais
lign
raj
##645
##olite
##ppen
##very
sgt
0053
##920
##ography
rivet
urina
accura
hau
##how
##salic
##gree
aydin
downgrad
falsifie
hurdle
##applicability
helve
alibi
##than
kep
##aking
##oste
strata
pca
itemised
##2011
hok
harley
bjorgvinsson
penultimate
##6040
##lux
##ossi
##milk
##0078
rodrigue
burundi
destabilis
##recognised
1330
##ierung
faec
osc
##vendi
steele
##plication
southwester
##eton
teas
bett
5408
##mira
##cki
##cati
mijovic
##oikeus
sticker
##ease
##declared
tym
hann
lj
##got
##0280
centimetre
##rries
copp
##szcz
bofa
##2040
2031
##udin
##bir
motorist
commend
retroce
##axon
psp
2400
##eich
neurological
##fah
prague
chao
loyal
##bili
repute
fili
philosoph
tactics
##hina
##ttawa
lulu
spoil
##erken
##rast
malv
sirna
1165
swim
cau
zimmerman
mole
ostensibl
dole
workstation
esm
1508
yaku
guz
##rito
backward
##bright
##ulsion
burnett
livelihood
##proximately
##maki
##rong
doua
2712
clari
southerly
evi
evidential
bahama
1350
fedor
1896
##1512
okla
##5101
##aduro
##rendi
reprisal
dhc
hallmark
##hone
deliberat
##arrett
##937
##gil
jia
yoursel
imm
ciu
##john
sacrifice
larcen
##0068
5703
1420
##cari
##arini
1167
werke
1256
akt
##inalis
1875
lingu
##most
dart
hond
cloak
##gfish
nursery
isaac
##ogenic
##bush
##chou
yildi
phono
fem
##naiss
saga
bianku
irrational
consume
##hri
##wore
##lied
1052
##hafi
##vice
peremptory
passion
##alan
mrp
##923
1185
##bride
##train
##follett
qata
vau
##9506
distributorship
garne
kj
accent
##enol
argentine
manipulat
afraid
##aven
naz
mullah
##1701
##trett
weinberg
stirr
juli
arson
categorically
##pak
11957
haz
replying
##3120
categorisation
##3750
grupo
##ykh
trento
deco
dehydrat
##advisable
##hrad
dumm
dimo
##elijk
1066
steep
huls
bequest
riz
##embre
defa
##scope
##kat
##1070
bigger
##vena
regierungs
##ppl
cerv
##ronic
##scheduled
##hipa
mona
shapi
feder
scholarship
##gis
seab
whi
##coke
1296
##ruff
referendum
parma
fid
##barment
##olle
skar
##atio
wett
1355
marseille
##zola
##0180
##bane
##623
inconclusive
##raj
##amen
##hut
##jarn
beech
silic
archer
hunger
##schedule
dahl
##tik
btu
structurally
resorted
3330
##alken
vivint
##4201
##negotiation
richter
##skov
##sorb
##abo
extremist
##succin
dolle
##ecki
scandinavia
surrogate
servitude
indivisibl
rupe
##yck
##iag
##ncl
alvar
wedge
##ibu
gratuitous
0060
apprais
1362
##tches
bruno
cdn
southeaster
griffith
unsettled
##dwest
cav
##allow
##dorot
##ugi
interdependenc
monit
##ologi
emb
yak
##leaf
manch
drought
##stjan
sante
##metal
yanke
##ackling
trifl
frog
vad
1178
5007
unmarried
unconverted
cynthia
##inov
elen
renumber
1687
samp
##fiche
##each
megye
kell
##icata
erga
prefecture
sift
gore
actuar
kenm
##ndon
##chat
##jeu
##shed
potable
##446
overstate
2700
##bend
galler
reschedule
sando
quint
kess
##arson
##laxo
cbr
promulgati
##ecte
hermetic
##keep
##927
##einigung
profound
cannabi
tusk
##chip
##oki
zm
##utz
lamin
lodz
seam
valen
##gence
##3101
condi
##9031
postmark
##sions
taper
1118
1446
1226
pivot
##odes
##kammer
oleg
culver
correlate
itinera
##uffle
##xiang
1090
clift
metallurgical
##deling
winn
carniv
##cula
schwab
##foot
1452
moto
protesters
accret
##auto
affiant
mathews
2501
2320
##inco
1454
kraj
convicting
##mpm
joll
peda
pela
gest
lecture
holli
##1451
federat
deli
##gno
sicilia
fahr
intestin
receiptholder
##ococc
lifestyle
odysse
##made
persecuted
1546
mentor
##tika
ministr
levi
##allocated
2342
##muth
##phyt
##leek
larsen
##edere
agre
##shov
taf
hail
extrajudicial
slovenij
##5400
adher
dien
roland
donate
flor
##adilla
##owie
##ggle
crem
khali
optimiz
##0083
koc
##ectin
aggravation
1319
varga
vos
2111
##5303
cram
ipse
1358
kurdis
fcr
gunshot
galli
3820
##kasse
warp
embrac
redistributi
chop
##esser
sebast
##kker
##estre
##uran
##alza
monne
1180
##emy
##1140
pills
viewers
pcf
bleeding
chine
##erber
vindicate
##sgesellschaft
1056
universita
##tilla
1136
##izen
dair
moy
teller
##sistence
indeli
##zyn
barnett
grip
emery
emilia
##arbado
2075
approx
##5200
##mill
##inced
chrono
##7201
1128
##keeping
abat
decker
obscene
tyson
vovd
lire
prai
##uot
##idian
conten
##ruther
##gios
##terni
locat
hoop
##kirchen
intermittent
##ungulate
1263
1817
tah
stipulat
ordre
bottler
mov
outlin
##huang
redirect
channell
mihai
cfi
portray
cruci
genco
mice
##orak
##daw
##aught
prest
##jra
##langer
denounce
##erba
gok
##inker
##illi
##flo
panto
##egal
##uyev
##zic
##3921
irreconcilabl
boycott
##lumi
boot
##hora
adjournments
##eismi
zah
finanze
sperm
radiator
sheath
hamlin
2825
##odon
inseminat
polk
1874
##scribe
kni
koi
##osine
##0089
absorben
archive
##byte
##dtag
normativ
##logg
vexatious
asthma
fpa
suther
##tschap
stressing
edmond
##olly
##branch
haas
stag
##skab
petri
democrat
eve
##uzzi
recipe
haji
mmc
sill
##zana
##asure
consul
##cipient
##arus
affinit
1315
##poly
##inta
ripa
cind
smo
1064
##0106
##inoid
##renal
bueno
##range
##868
##avu
kadi
##pneumo
##glass
fru
geometr
##ufa
kant
redact
##verre
wallet
purs
vendee
compte
1839
##phosphor
christians
perme
##eker
##anja
##berman
1703
1295
##ccia
abid
##accia
##6020
##aust
##amp
dense
maple
underscore
##kim
1199
rhythm
##egress
1245
##0112
3759
##740
conspiring
salzburg
2041
##752
railcar
##zlo
##6772
eyewitnesse
##tical
##dow
##0511
##adol
##0081
##kets
clove
##shine
##grupp
##combe
##anen
1555
4002
reacquire
##kontakt
##piece
##hay
##equen
##ograph
1045
##501
antecedent
wreck
##3800
fait
krono
##kte
drake
buc
##labo
cler
underestimate
##rwe
##velle
##dence
flare
##nski
##rite
##ought
marvi
##lasting
jebens
##jian
##rox
oko
##auna
farmout
##nika
schwa
##vita
3500
thwart
##ligt
1048
exposition
yasa
hermes
nerve
alimon
pleasant
orhan
stip
##bode
##had
##pass
##taking
##axa
henne
legislate
yuriy
impe
swelling
##lucke
##mbe
tarr
##road
##acker
##5302
krakow
forging
tortfeasor
dall
##textual
##ificacion
##0190
##elong
##iller
1673
daylight
constituenc
##arnell
leigh
##klar
##owiec
##pter
##uva
brea
##rdi
wor
##psk
##leic
halle
yea
synthe
##collectible
reson
##rrent
##irs
groundless
trm
mrg
1327
##modified
newsprin
##szk
akdivar
nussberger
##etin
quesada
restart
hostess
##rybnik
devisee
mok
##oelectric
##stav
rochester
attacking
notions
##allah
1228
wiper
##statutory
lange
vicker
##metres
##anes
zal
##subordinated
illogical
tsotsoria
hyatt
illegitimate
refurbishment
invariabl
##0038
2028
##match
characteriz
##laan
##izzi
##4701
laugh
hopper
##lbert
##visible
##0082
##2016
kama
filler
##recoverable
##calabri
sided
0603
pork
##olic
survived
osh
1084
##mination
seg
dover
##gri
##ateur
##mot
mig
biologic
cinn
unappeal
ccpa
enrol
##neill
meyers
calamit
##judging
##steam
##aerts
1294
##nze
1381
1266
##900
##eetc
buoy
##fabri
##luca
1057
##llus
whistleblower
##tarie
yog
##utc
1217
##hala
##orted
savi
##wisher
##438
##celera
avert
##anka
compost
quad
rename
##liquid
##china
kcs
##enson
##bergen
broc
##onnais
prolonging
##moco
1161
##isson
##rasen
##dorsed
##ettin
tune
unify
schuma
zay
##fjord
fisk
1386
##woj
unum
arca
1147
levit
distil
transco
##ovita
##kro
proced
immu
pyjama
clutch
##erwin
radian
caller
##flex
##asca
benefici
##raven
##lari
amphi
hoy
tennis
##ndre
##strum
mcmill
1082
constituti
##hton
##aster
1591
ministri
sawyer
##ammer
##nelle
reimburs
##sir
##0069
##ulfo
underpin
homeless
##rani
##navel
##erus
##31000
clas
##6404
reinvest
stiff
navigate
orthodox
defensive
xyle
poznan
dispersal
1160
milto
koro
equipp
figue
anatoliy
##issi
2306
pils
dissuade
sevastopo
servicio
capitation
liik
lady
##reich
##hood
1173
ulc
##aque
oktyabrskiy
kaufman
amenit
##urin
bullion
recur
msm
##race
parol
##ussi
##uaw
##rud
##szam
##lustration
palacio
##chel
intertwin
##quel
##furt
##nesia
demurr
cspr
##graphy
1047
##bud
polluter
mahoney
ginge
##niz
3813
bates
justin
hara
unsol
zheng
clarifie
escaped
##lmc
##langen
riv
esch
arouse
nodes
inflammat
koy
##lme
timmer
rework
##rapp
nikola
textual
##olu
fah
##jun
##uxi
nuvi
1293
gogo
arro
arraign
vucinic
##reese
privatise
terrace
##bakh
gaug
gong
6111
mech
johannes
##wanted
##5401
0106
sverige
cyt
1238
investe
scanner
##mez
##busch
dragg
kaunas
swallow
##0073
yolk
techno
kiss
agua
clon
##pressive
makh
##tema
##blast
##iente
lauri
##onov
burie
paw
valu
transient
##reli
genital
##uir
needless
scrubbe
1230
allude
immigrant
2040
alerted
aft
beauty
##itrate
deteriorat
##5111
amuse
##liano
##sari
##bvi
##1060
##erick
mila
##etik
burgo
##0076
##halon
croi
gaines
##bcp
##icz
celsi
bpp
##ochem
chateau
kandah
berylli
sock
##tuk
1279
mour
##lden
##adena
##skk
appraisement
##nad
##tarif
devon
ocd
coroner
##5501
##evp
##onta
##3900
##yala
mouse
##zha
##hari
##around
##listed
##giu
summonse
signify
0062
##6102
1285
##ammen
summarise
java
mauric
stru
assessors
##chrys
qad
1488
##egi
1181
1278
1345
fluctuat
##0093
dissolving
##termination
##keli
yeda
intoxication
##randy
##dani
##torn
##mpe
collectible
##1972
tej
lugansk
##omic
##hoven
yal
6301
##ntl
##monell
##discharged
##rovi
##4401
1887
##common
1403
##huis
enure
##lomer
1760
boar
tarif
aldri
sublimi
mirant
##2201
##atoire
##eps
preston
##angelika
##eroe
boa
constable
lockh
##8473
##amination
##illard
##trip
phonetic
##icin
accu
nug
##isko
envision
bacteri
##lita
##entine
##10010
##brugge
##uche
humiliating
uncontrover
##kman
cheape
saunders
1865
1521
##hfr
##0400
sili
macau
banca
##1250
osteo
##alta
perquisit
simplicity
##lease
##pensa
##change
meng
##7303
##2008
##sati
juris
kimberl
moon
jac
6107
##loral
ingushetia
ananyev
1096
##iecia
alvin
lipid
puc
cpp
madde
rho
gron
nicole
serge
##6100
##718
spiral
##0212
1439
yudkivska
##4444
##0044
##processor
suk
kimber
consonant
mammadov
mccormick
pula
unrebutt
cata
eaj
##0705
##ossa
##pole
##andal
centuri
unsc
##8407
1595
1276
brandy
empirical
unprecedented
##arb
cpu
concordant
##dona
##thyr
##nger
3906
implausib
##rave
loma
throat
kear
ziemele
mace
##broad
icm
bridg
assenov
snack
acquaintance
##same
##heide
1091
educate
mott
pathe
durch
1895
wrap
schle
##different
##activation
kolo
##buta
kuri
settlor
##dison
tala
##houn
stripe
##emar
1351
sympath
atypical
algeme
silo
1335
qat
naka
##walt
rita
##904
##irm
##yran
4104
##chte
##pold
grandmother
fmv
liq
abrams
abridge
##inka
pell
gilles
outweighs
campos
touched
##lauf
##kay
##vsar
1495
careless
##bul
##irg
##mhc
##1399
obliging
##nary
##granat
1407
##tim
##iran
##ryland
curt
1628
clemenc
otter
1498
carre
ditch
##nement
rightful
##angzhou
2187
##nnen
##ktor
##rigo
##chik
scrutinize
##anto
##emeenschappelijk
conspirac
meme
##lascu
misapplie
##metri
##0278
upload
chor
3904
dissenter
paivi
taur
##chuck
mccullo
##teile
simil
effectuat
##iros
affaire
entice
##copa
1719
amerine
hassel
mixer
trent
dura
unexplained
##verzekering
##standard
selectively
cornel
intranet
submerge
lighthouse
incorporator
aceto
##found
##liv
1146
mosse
3926
rodin
conjecture
##ulous
##ustic
##erich
eich
commentator
challenger
demo
forgotten
silicate
odes
hazel
calabr
ccg
##bina
disciplined
##nitsa
nagy
condensate
##alloy
##nicka
behring
##icky
symmetrical
##missibility
##biet
##icco
jociene
orthopaedic
##finite
##ocal
fern
##chin
##information
##rgi
##2290
bingham
hov
##onox
vasili
##tir
mathe
kast
dormitory
avionic
addend
##isner
inhibition
##valle
1681
##avila
##asserted
1337
##ilov
arter
passer
lara
##5020
##mish
##otin
dcs
##inox
bundled
edmund
amministra
guad
4802
2742
gunn
##nucleotide
cemetery
##stowed
pretty
##opathi
prayed
##2338
westphal
##1111
##mian
##transmission
boris
nicht
##nap
##kalo
zagrebelsky
grigg
1156
communi
revisit
integr
corneliu
1894
straus
1860
##koi
rubb
1553
##aws
yve
workflow
picker
6101
bernhard
##apote
##nev
inclination
lyondell
spawn
1475
erase
##veden
##aggi
spike
leipzig
werde
##ernam
##pki
##denature
nazi
gew
bui
##plausibilit
reformation
sidel
##tip
poster
hesitate
##0099
3001
baton
##balance
##813
1353
##0520
##simo
decor
0058
motivating
1870
##cision
##ugu
christens
1892
nps
unconvincing
applica
##dismissed
berne
grasp
1140
##okay
9011
##nheim
##cusa
magellan
tumor
##direkti
turmen
##plex
##ivens
##854
communica
bowers
##3763
greet
##nyk
1124
##owicz
##kyy
##burgh
scatter
unofficial
##guan
1384
swimm
##check
dismantle
3577
##arez
##holtz
lorrain
cuff
##tents
##ench
boo
##texaco
recit
7217
inefficient
1269
basse
##peer
mortar
mccoy
1087
bari
##lough
zagor
##tries
##imp
##9015
##segregation
schloss
##cazion
oslo
##ouses
montan
##self
##llage
bier
kran
lublin
##plastic
radiolog
##glut
travers
##ctus
proteg
2403
verm
leninskiy
redevelopment
peck
2511
##vox
altu
willfulness
invocation
##yte
chk
gpo
rott
pnm
##1275
glossar
##ssert
ruc
minim
1261
##emper
##cle
spor
gramm
profil
##nty
##print
sequo
totalled
hayd
##roble
##inium
merrimac
##rinse
##ochemical
##rating
##oux
derecho
overcoat
##schrift
punched
muld
slit
##6401
##3601
##zina
psychiatrists
nij
##respon
##oderma
##producer
##2015
abbreviate
athlete
##bron
1184
##processing
##laval
subclass
##raft
##0290
parasit
##molecular
##ilage
##sparta
##gyi
doubtless
##stec
instructive
callaha
##iban
1372
dishwasher
##ediy
##company
footprint
feather
##gay
##01000
makar
stare
uaz
##tenn
##eszow
rende
elector
strange
1262
##0086
##igno
recommence
##lado
##pina
polling
beside
##13000
##estri
2907
##meg
3923
lavator
1174
nonmember
##occhi
langu
huber
##ebi
##forest
raimondi
crate
##lsac
url
overcharge
##igel
1277
reis
##nette
osterreich
chandler
aruba
1143
##lact
simm
wig
##isha
dippe
krone
handcuff
vlas
##0111
stadium
khal
##gitter
##schein
##icity
##00000000000
elite
imput
matte
##nunc
cache
diffuse
decont
##1901
stove
##6813
otm
impinge
##0706
1373
##gett
##umbe
auxili
scordino
luxemburg
carita
##unset
##enser
##iteit
bruise
##mara
##moyl
4411
brigad
abundan
##vencion
readjust
##qian
##lyde
1195
ocp
defray
##spiration
mante
maes
##rouse
##idio
remedi
##poo
##hoses
brande
##wij
exonerati
##gem
aplt
##chini
##commitment
paz
duna
2800
##dme
##face
##pad
impropriet
replenish
##eyance
chef
##brucke
##speed
##brug
##okh
seym
##0270
##4101
lucer
##adze
##uab
##edmont
##crib
gdy
humiliate
manifold
improbabl
1298
annotation
1359
tiger
##hme
waar
xiao
##tilis
recordkeep
##terman
astra
##auld
warrantor
##eiche
butkev
empresa
disprove
mendoz
1157
morse
cultivat
1570
melli
winner
##nsp
##traite
##rip
##trium
4011
3401
##wort
##becca
##onna
##stig
##store
henkel
cumber
konto
##logy
##ival
roo
##bati
##itic
trev
pots
##oop
zim
dixie
cervical
##plicate
rijk
imagin
dining
1170
##etch
novi
shali
drunk
raid
tenancies
rhodi
indigent
##tava
latvija
##leman
reckon
##cort
donna
carv
savage
##unct
##ccidental
bergen
##robi
terrain
sokol
doug
spott
zg
##unse
gpa
vill
adjuster
##tasa
haircut
schroe
kalaydjieva
stereo
solder
##gora
##sau
quan
spous
2206
botan
dispel
raf
chun
##delijke
##vitz
##malm
biotech
escheat
##tional
chairmen
butcher
##awson
##specific
sebastia
servie
deferr
nari
##rahova
disqualifying
##roto
##mbrus
##quelle
purv
hob
zuc
castan
##ylan
##enfeld
##oster
topical
##2400
##tango
1406
slov
##ingbo
2937
factfinder
hemo
##hte
##throp
karp
##prot
##eep
##guye
geb
lordship
milch
escap
radial
nune
cree
##onnie
fragrance
cadastr
##ekt
wrapper
viking
insisting
##quibb
dipp
chipp
##elde
wca
nud
1196
##bmi
wiggin
##chees
1044
##activate
hame
##angemann
1138
fernand
rouss
Shen
wacke
##agent
##grow
##hale
##1443
derogator
2283
##acqua
cochran
##kart
##explor
capitol
pax
gz
secular
header
ciba
huk
##0214
hala
schon
chf
1886
emit
2402
1283
dispenser
arrearage
##relli
##daniel
##ponent
ignit
##9900
##arcelo
hatcher
niet
##boundar
trilli
subsist
conner
deva
##miska
##myri
transcription
##moc
##puz
2179
##ijo
therapist
ivanovich
bravo
ambition
joaqui
##zom
##3889
1522
##piel
##cheva
##viol
expedienc
##bacteri
ayers
pomp
verso
##scr
##reka
##mcor
##sativ
##assets
remittal
##lebo
ferm
pledg
1467
##9603
torr
steen
recombin
sahin
calf
aspiration
boll
1639
1281
##voting
##vende
ramsey
tmus
bratzaregistrar
colt
##iyeva
nevi
##tice
##7056
2936
kris
##vej
1280
##dahl
##azza
fluctuate
regina
experi
##einer
catheter
tbilisi
umpire
angular
##wol
erasure
winch
##arqu
michele
associat
##diox
##nici
1076
supercede
##onomi
logistic
##mission
buckey
preparer
hanse
starter
##terpe
1289
##remitting
3405
##separable
brin
unanswer
kosice
witte
##adium
survivorship
##dijk
##ranch
##announced
pellee
raki
villar
##ringen
##ebro
gravi
demotion
##fond
wad
##bble
##limitation
brett
spiro
pinc
mazow
litto
meritless
sergiy
##enden
pits
kats
##morpho
monarch
overruling
tallinn
1317
genoa
##8303
baca
2082
comprehensibl
##0153
##rafts
##ennings
loucaides
emergent
##ydex
jong
ebi
##satisfaction
pate
##kron
##thic
maar
##panola
6303
lori
viti
##00020
##miento
##ouchar
1352
linden
7220
##jima
penden
scratch
##etai
##fam
##tenberg
##ducer
##2701
##rank
##ovit
##8466
preferen
exorbitant
recidivis
collusive
exploring
##ssische
##ucar
slom
##anticipated
##composition
repose
quater
3208
memorialize
##gami
kirsch
2135
##costa
##kem
##copy
paediatric
3290
maatschapp
jaderblom
sensible
burk
switchboard
##gior
##monetary
immobili
##ckel
paol
coop
maur
##risco
##grass
2105
myco
alz
modem
stepan
arbeit
prote
eesti
legg
hafer
syng
##institu
##commissi
##tacion
##eryth
ltte
##0155
monet
sabr
##pito
4412
pavement
1179
kuk
extrapolati
ruslan
bethle
montag
##unij
##3401
1349
2032
jeopardized
##ophyl
zentral
reviv
##elie
##ecti
khar
##osin
##7312
##ulos
immigrants
taint
##verfahren
humphrey
##liden
coincident
##ruhe
##carp
##ussg
##edge
ctb
krupp
##diana
zoni
grub
##51000
##rawler
##lbi
handwriting
gora
skid
cfm
kesk
gob
##fiscal
##0113
1405
##medi
halve
reassure
shovel
1630
kreml
##6010
rhin
##erea
royce
##ljub
##irens
##niac
contrat
1375
##oye
gypsy
dlj
autre
1192
##mpu
sterilisation
paperwork
##akos
octy
##jem
##baba
machin
##lope
ramon
3501
##2112
sketch
extrapolate
azienda
##grev
##kauf
talent
##3305
##zw
decod
##natal
karim
discourag
2701
characteris
dzi
##tracy
##ommer
lod
##0299
lenti
shutter
mediate
##wym
##hwa
1137
##ravan
##1528
##200000
##icher
helmet
contour
1323
##0072
simulator
##9350
remediate
##alignment
mea
##obs
debtholder
helper
##urbi
##3110
modernise
##physi
##teg
veron
##elmer
cherokee
electrolytic
draught
##ewing
##tius
mccor
balm
##cephal
##velt
##allet
##7224
##mico
hsh
disappoint
handkerchief
snake
##vall
5512
amtra
##chol
##ubc
##guo
##cxl
encroachments
##pants
gesch
mock
stabb
rivier
##voi
uten
##12010
##angus
##simmon
##jou
##sap
##modulator
firefighter
##hdr
erdo
##otter
northeaster
##62288
generi
##arp
nephrop
mckee
garz
vigo
xanth
##arching
##lyzed
voluntari
informer
##holding
5608
##lamar
caucasus
##lude
##grim
3448
##otec
cursor
##discrimination
saadi
##enau
comprehend
##ozen
repudiati
axial
##linda
sass
##3090
grana
##arella
bnpp
##luent
delimited
kalashnikov
malinverni
##skoog
##continent
##toxicit
##loro
shawn
recount
cocc
##azim
##amed
penetrate
1525
centra
##tinen
distribu
scrutinise
4810
##beek
##auska
locust
##senat
rupture
##ondo
slipper
##fair
##dish
trash
plausibl
aeronautic
evan
##rial
smc
cohn
cwi
##rbo
##maggio
preliminari
loudspeaker
belgrad
aeroport
finalize
3815
1540
familia
strictest
##wyn
##metha
hutto
skag
prevalen
categoria
proctor
##926
lujan
##disciplinary
levo
##hja
##bacter
##mittal
##3831
marro
##roda
##disk
1592
##ostoj
testator
diverge
##turi
##enel
##diaphragm
scintilla
minima
##4601
##naco
##werb
##partner
pawn
##formative
##shaft
##mala
shaba
meshe
pyrr
tradename
kab
##high
##notice
1086
##hit
##3611
##isource
seneca
thigh
##tizza
##meer
##nim
##ophan
##medica
##rcus
glasse
paralegal
rearrangement
prestig
jesus
shellfish
##xxxxxxxxx
##elco
mussel
deserv
##rvo
##arps
merchandis
jura
##0085
exculpati
##iasi
dzh
wies
uncon
leap
4403
grune
gim
corroborati
1189
wampach
unnamed
photocopies
##isuu
rehire
treb
maxima
##liz
##yere
yuko
magic
##iola
##agan
##ulent
##measure
##0091
norma
2517
##dyma
1876
##ellen
formalis
##0107
##llas
##justifiably
##azan
##notes
stran
burga
##iodo
antique
malik
emanate
hmo
##nato
voiced
medio
joa
##redi
##pubblica
obr
##xxxxx
1329
gour
prism
##gibbon
2794
##length
##enso
##jska
derivation
##etro
3809
bnym
solemn
##meccani
1286
##caffe
1288
curv
##rophy
printout
##2060
##anovo
##iello
jonas
sweat
##tube
sidetrack
gazi
absolve
3402
nikolova
##ssement
exigen
##matsu
##from
menge
keel
trustworth
cleav
verlag
lll
##ikat
exigenc
ponte
sheeh
##blue
##vii
latch
abortions
##gnos
painter
squeeze
windstorm
##vot
##icol
bulls
8411
conway
kec
thru
prejudg
1193
plough
##rcra
##dzie
elephant
pulle
vire
##chal
##ministeriet
drawer
##cerebr
##koy
##eska
##roep
##2950
moye
perio
nolan
tires
jav
nebojsa
##gust
##scient
storer
deleg
couche
bruis
cabo
##646
##0556
##7305
##sprit
arla
##rali
panasonic
##comed
cession
yacht
schol
##bred
1241
##bart
invade
minimiz
adrian
##quie
wah
sero
##5112
##effectual
seafo
##pape
##arno
stabilizer
##atori
##onfedera
##3818
##anska
deform
slic
##heer
##apex
appointee
##atov
##ubo
purch
nmc
##banc
##etten
##eligibility
2789
brenda
##conference
sax
##oligo
cricket
##lato
cellmate
2620
##iscus
giulia
##ipolar
##usia
##partit
##atrical
voronezh
disobey
birch
##anders
1558
##recession
1859
1063
##bear
1297
guild
therapie
aksoy
suomi
fgd
##nquist
emblem
##rni
1218
1190
##aku
##imin
##1974
mpc
sandis
##acity
proteo
##6389
##markt
refurbish
chevrol
sapo
##tzel
##timony
1717
##0323
landscap
alice
1877
advis
thermometer
pouch
vigorous
##niemi
marit
bva
aesthetic
sommer
##investment
##tomac
annotat
pigeon
bombardi
immunologic
mika
kibb
##oski
dzial
liberalise
4408
##ocia
##taneous
##gfa
2518
punchlist
accusing
##sassi
russo
shre
##8202
4043
oxidiz
##export
petti
##claf
mariner
expansive
5403
##imon
##bando
techni
sophi
triad
syringe
##rugs
##rui
lipp
##verke
subless
quai
constantin
##terran
bartlett
5810
fhlb
##izar
1220
judit
sieg
prioritis
##oesch
1142
birsan
##deemed
##erda
bremer
##urig
revalue
##4080
satur
##1873
##skar
##opoulou
wolfe
apprehend
##gla
trab
##kalb
##annah
sheer
##ivka
palladi
##toir
##urance
##penta
##ferring
##enac
##amba
2412
canta
acronym
laffranque
hammond
2833
razor
reuni
##mpo
##chment
##ducts
##teur
2362
foreclos
##gyro
##amone
canvass
behaved
tagg
scarce
##zlau
caesar
##arbeit
##mbac
colombo
3508
##5210
alker
conrad
##assu
emphasiz
##fett
##orrow
##vento
frit
calif
##tsov
2286
##3060
##cedent
diversify
##erdo
##azep
##apo
antagonist
canning
1171
##ibor
prefix
##corse
##kommen
##aille
escalate
1175
2328
couch
##phene
1232
casualt
imputation
plaque
##tzman
camo
premeditated
vault
crist
dmitri
2080
##quera
koninklijk
ocalan
cogniti
##pelag
filip
##vari
kic
doubl
##novo
nutri
##7778
baghdad
trivial
infirm
##0095
##tayev
determinant
pico
qp
##chino
alamo
residu
##ulan
##hst
##kontroll
candid
##wight
elucidate
pushing
1364
##joki
dresd
palestin
interlink
##ellin
##zeb
squad
pow
##tige
##bola
##verted
##vera
knit
##gert
##barbit
buyout
translat
##toire
##ksandr
silencer
discomfort
djibouti
gtx
privat
##2401
##0131
seame
konstantin
##encor
relitigat
##koff
##omet
##peka
##0624
##mahon
brac
##tribu
1575
configure
afforest
bushe
##phyl
##risk
erythro
##hofe
##edia
spelling
##clare
1409
##tories
##forward
nauti
planet
##lana
alti
marcel
braid
##mitte
##roving
##2009
1676
##vious
##mise
oberste
##loure
spre
elektro
##ewes
novgorod
beaver
bott
informatic
sultan
##yton
##voz
alten
##genomic
denot
schmid
brenne
terri
lda
##titi
gemeinsam
indecent
##hurt
##erta
ericks
##ddr
elai
##vanta
##flora
##bock
1414
typewrite
menu
hesitation
discernible
##buro
##direktor
##ftung
##medicin
##ulla
cova
strepto
##fron
##aquila
argent
subgroup
##vam
##5556
xen
sachse
sporadic
bax
hitting
mykola
1472
formalistic
kbc
##dox
2321
##inic
##execution
##fect
sung
1233
grate
dcf
codefendant
glute
##ods
##albo
##orient
ocul
##gua
sizeable
employe
##ambro
##germa
usca
gasco
##silver
regio
##inyl
expunge
##isen
trooper
ccm
1168
##inkle
##5601
##8502
##czyn
##llp
kopp
axel
beteiligung
propensit
despatch
oppressive
##violet
valt
semiannual
1603
hutchi
unesco
rags
##loren
##hutte
1855
calder
analyte
fade
compu
##inburg
biode
evaporati
##feit
##station
##4722
##llocation
zij
##0108
##heryl
##tega
converg
##renne
1369
fibers
##anowski
mim
7010
jehova
poppy
graphical
higgin
compania
##proc
##square
##coopers
rsv
gry
bip
##ovski
kuc
previ
##cross
diplomat
##frem
policing
##nahme
##street
##ikt
calvi
deut
chernob
##peut
harp
1789
##thos
##yay
encroachment
sanctioning
##istors
1242
##deutsche
##priority
1805
##0031
##ulage
rodgers
hwy
3912
##caine
joan
##arro
##hmi
2064
1527
shelby
##2150
##0094
##allard
barron
##glia
circumferen
mccall
##okhor
kall
oligop
##kari
##abet
1750
2811
##adin
##0097
##resol
##ngde
##kata
incentivi
##andro
2078
##testate
##zung
##ampton
##uela
talis
##ugo
##watch
hohen
##secretari
bfe
##ourgeois
##12040
sandwich
ozka
funk
boch
4418
##joi
sensiti
##weed
##roz
gant
undevelop
##kaj
##1461
##0313
natali
vap
##scana
##ashvil
eac
bache
##quiring
1737
luo
mla
ostra
shortcoming
##0048
##rasi
##zule
misconstrue
infest
1318
6304
##6207
stir
1363
surre
prose
bifurcate
##alava
##foul
##odu
ribb
##oza
##endo
1867
burglar
##bora
anaco
##12030
sway
opin
lok
##izo
##geste
##rho
kabul
reyn
##inti
gemeen
##dalen
##4030
overfish
tila
brau
##tiva
##demir
kca
2894
whittaker
##nigra
palmi
3911
ostr
##2501
##4070
##treated
1379
kyle
lili
stalling
9006
2252
meer
alimentar
suz
altri
##pena
unbundl
pretense
##1103
##mode
chl
evince
##9444
##gina
springer
kidnappe
smoker
rulemaking
##vez
##extraterritorial
xenophobi
hollo
##lermo
hardin
##luj
##ltro
brant
1880
##armi
1878
##curran
penne
1368
pim
trammel
pathological
##otech
##thias
popov
##wil
##846
cellar
##alda
performer
##alim
##idney
##kaln
##boats
##9722
1569
##oys
usurp
##9910
##umwa
##home
grau
##mpkin
insulator
pill
##ggett
##recognition
##avy
libert
##gorz
cmp
newcomer
##dyk
##einst
##copi
sedentar
1608
distraction
prognos
pdp
##ogue
##ischen
1505
komp
##8112
3821
anatolia
leary
subse
##evin
##ulum
modular
commissari
wat
sylv
aleri
infirmit
##erio
##ufer
mug
aguila
##faz
##turia
##801
nasa
##chine
##loci
##zte
##equivalent
##georgi
parade
##tachio
varda
frederik
reformulate
submarine
engender
budd
##oney
##phu
##ecke
##otro
##4501
##8425
##vili
##0096
bats
##uranti
##7218
imperfect
dci
trolley
impute
tbs
##andra
##surmount
aven
##hasse
##leverag
bilb
publishe
2160
##assen
##enni
2920
zdravk
##minant
sicilianos
bestuur
reproach
bahr
swep
##0114
##forma
tinne
negotiator
##ammar
##renova
##iego
1863
locker
montal
##kok
##snip
##itaria
chiropract
stripping
biopharma
##calcul
##ousse
##middel
anima
##0088
##alej
##uglia
2033
##scout
oliv
1474
forrest
pci
##populat
fior
gorge
weyer
##nez
prioritise
2836
##abine
##strumentalities
seaport
hesse
##subscribed
##racor
##preg
yara
##4167
##gama
kiv
brat
##ocken
crom
acce
##fdc
##distribute
hutche
gast
##perg
##raza
extremit
1531
##2250
##stry
restat
##demeanor
macdonald
guangzhou
##adura
quitclaim
relaxation
bgc
redaction
clai
radiat
mash
sven
##guardia
##oscar
##finance
commercializ
reper
testimonial
##nterior
sparse
qq
mdt
##poieti
##0115
##arid
slavi
embar
##gorod
2207
roos
##ejd
##buster
##zym
stranger
estop
##poi
##vms
administrat
##steel
##fact
2925
##welling
##osman
contr
##ullo
##aiki
disbursing
supposition
trajector
##kee
##925
##licia
##terne
##cambi
##tropi
motif
alternately
settler
davies
boer
4203
##focus
seasoning
laptev
straf
##yah
marlin
kreuz
##eject
medica
##teris
grec
chord
##nji
brev
devis
##ielle
choi
merca
##malco
2681
##nsey
buchan
boden
2553
landwirtschaft
1246
2804
##ligent
mange
##plast
##odzi
insignia
hizb
##ethic
monopolize
##loupe
pfl
baha
talla
##arina
tamar
salus
hig
##icj
jamb
sorrent
petrov
diminishes
yerevan
promulgate
subadvisor
luther
bender
necro
##gir
tailing
##2037
##laj
ergo
multiplex
##371
bombing
mkt
3903
baran
##kri
2826
##issu
2827
justicia
fasci
##lentz
##xler
doln
##ipi
##raff
autorite
unclea
##ndell
kera
##mangan
jerem
##edonia
##2329
##eez
lube
grabbed
lacuna
baron
tusca
crete
##cyl
violator
financie
5905
karn
baie
assailant
##laz
##dactyl
##olac
shedd
##pton
##zko
fontan
##ection
##turk
##ronco
sequen
palatinate
parenthetical
warszaw
cosm
fdi
##miasto
##anje
##embro
claw
unpredictabl
##taire
##llate
dorsey
##ntage
##distinguishable
kate
##pcc
##koz
##cult
##bbv
endless
schie
tref
##5300
adjective
childbirth
unlicens
##vai
eksp
##ranko
##shima
##ctile
##voir
##iety
wolver
##damage
peders
clipp
1340
pavlovs
##trache
##ljana
##appa
blu
oik
bubble
nuevo
wam
honol
##6106
sofi
daly
sjc
koval
1768
1576
6006
6005
kuna
1487
joiner
##ourage
saul
bronch
1390
rockwell
promo
##setting
1538
##rtg
boca
schlu
##lazo
##0087
##applied
kunst
##enox
descript
quaker
##pyra
moos
##iteration
1374
##bam
thermosta
##fontaine
##coff
##mylo
##chlo
1885
creden
conced
##halo
##deniz
jeopardis
3161
sainte
cervi
mammo
tunis
##ufung
##zei
trevi
schreib
prac
mald
##novate
nonjudicial
allonge
necessitat
##etel
##3300
gegen
stara
muslims
trick
##connell
##egu
utl
coworker
##stoffe
petru
oddz
fitzpatrick
##hyp
tabulat
hensle
##bernet
##eugen
2029
##chert
deflat
##thano
##9310
immersi
2038
liff
##ikova
1761
disaggregat
adolescent
##0219
5602
##nitri
xxv
sheri
misappropriat
extrem
bonit
franke
drip
myla
nikolayevich
##color
##vaart
simulat
permeate
engrav
##yana
adulter
silvi
bialo
##tzer
##shot
##phili
veri
##0135
kork
bielsk
schizophreni
##rfish
##3056
soften
veh
2305
##species
##8522
efficienc
refuge
halogen
rhod
fabr
##5100
##20070
##stokes
##0286
##bask
mhr
1803
##ember
##egion
1836
mola
taft
##ladas
accompanie
manit
##leben
##rocca
##ichi
popul
##sieur
birk
tren
##computer
gavil
##dalis
##uski
##lantic
shc
##purchase
baptist
recounted
##andrei
##cole
##hke
schaef
giulian
##ullman
3589
fent
##54000
apsa
enquire
##ptan
sublet
##cellulo
bluff
##mora
##togen
##ckie
##grabe
conne
##liga
1830
vog
##dlock
ambros
##ksen
##12020
1888
##cacia
4106
crux
##fiance
##00030
flatten
boon
battalion
##ivision
##track
combinat
1884
graduati
vitiate
##hner
silico
##touch
aunt
##jeka
posit
##mph
##fract
##eaded
##geis
concentrati
1270
1243
cabal
precipitation
##rogen
##llows
##1463
predominan
punishing
lef
tamari
signifie
ribo
##ewicz
deplet
##0533
furman
##0179
safa
##nucle
advert
ccb
##ewal
ostro
paramedic
turp
1432
##0171
freeport
projectile
##ovali
cooler
##opan
kort
conti
1519
8158
disposi
##icio
pretend
robins
##ensa
chemin
ostre
##ollie
##hugin
1535
##alic
##pelo
1638
mif
##6303
##garden
microfilm
clover
2908
saska
##raffi
##hauer
rebel
dbs
##astra
##pita
bucuresti
sweeney
##0507
imperfection
##ije
bernste
##crest
suitcase
##illan
##1080
orientat
ekin
##trell
##jezi
##5505
##scripts
resubmit
##venti
##ufj
##0175
##emic
##vais
dund
jesse
##atur
psychotherap
##kilda
metropoli
##eisel
##ffield
##olate
muh
##zki
coul
##itten
etablissement
orthopedic
cottage
driveway
noel
uneven
##zno
conjugate
counterbalanc
##eqr
syd
1284
kommun
cask
clashe
corpora
abru
pazar
##uju
mckin
unlock
##auk
potocki
##bsi
ncm
frau
desirous
2842
maiden
cordon
##mbia
##orzi
##skate
##21000
##iejs
##chek
ulcer
##ocephal
tankage
traja
litch
##korp
dimitrov
jimenez
proizvod
##posa
##organism
##direction
arthriti
keef
vsl
##rent
katy
##karta
##arillo
##1550
##grove
wyso
ustav
stabe
aggressi
kaliningrad
##movant
##remise
konze
substantiati
schad
zub
eddy
enzym
##0098
##ogan
##gade
##rizo
##pride
restitu
##staw
scotch
roberto
##gregor
##tolerance
##2005
recharge
coron
barnhar
##werte
comme
1388
##reserva
##1973
shaker
useless
##ould
colin
chahal
##odka
##symmetric
1864
##mision
1433
geva
thicken
##printed
##ithi
##hosi
##galo
##imir
##interest
farmor
serviceman
mcguire
pediatric
##hour
##enone
bump
blackwel
mule
##enger
roja
hamlet
##cide
bscm
tatar
varian
unprofitable
2392
ulm
##nzo
admonition
hage
##algar
pupil
##equity
dalton
wicker
##held
dawn
##2050
1726
##0205
tributari
juno
gif
##toral
analytic
##word
schaf
arri
##ppar
mateo
##itri
##cyp
1547
2904
##0123
materialise
##withstanding
austral
spheri
groot
scp
bmc
fresno
papu
aliquot
##ethy
paula
##owner
##asis
elias
##etich
##nagh
loco
##2923
##ivus
3183
2456
##20050
##stich
##purchased
1264
purge
clash
kash
grum
4805
##echa
##ndra
##mpton
uprav
##9167
##ental
##mechanical
faso
avr
johan
customiz
##kton
2203
##rija
parrot
##fael
##andise
oscillat
ramz
mav
diabetic
huseyin
##3972
goldsmith
duplex
zhao
##1879
nip
7001
##string
twi
##porto
##mania
##teresa
vinc
crystalliz
dife
##eater
gyulumyan
refrigerant
1651
##3224
##racht
schole
acr
munt
brune
marcell
3061
2805
##laski
##izzo
##0604
gilli
guam
##akko
acquitt
isaacs
##rocod
##epso
1464
tjo
serotype
##bid
sketche
preform
##virus
##broek
exertion
##assou
##oxe
zara
##jevo
1822
nyu
1377
##selling
##5212
##bbie
##rader
fhlmc
biochemical
##count
interregional
##overcollateraliz
arrestee
##yongy
##sensitive
panic
wilbur
cyn
##schra
agrar
##3210
cornea
centerline
iberi
##0117
zubay
##inck
lobe
retriev
##atrice
bisca
propagati
melvi
##garde
##5402
almu
feta
##ccu
##3925
##0037
serr
nikolay
##cool
bbc
##arithm
trw
zieg
##wax
cartage
6011
##ojan
emma
transsexual
molo
pyramid
##teck
##lette
radom
##riu
1869
##fume
##centrale
##imera
##tomy
##ogde
##3070
tenet
protector
delineati
detonator
##centra
##ndia
calibr
##programme
scab
##ynex
##0133
maru
##0124
ligu
1853
##berna
disavow
##0156
##jev
##0148
3207
##ixi
schoen
##alga
##district
##atura
alienated
##grammatical
videoconferenc
##xxxxxx
boi
dyke
##tsev
pall
##ikin
##ergen
espino
##kahn
##acca
demos
##khoy
upright
75201
##retore
unwillingness
##lib
pascal
thro
##sicherheit
afresh
yilmaz
spiegel
photography
##pyraz
oppress
volks
frag
rectifi
3713
impass
##rurgi
2929
anode
##1303
##contradicted
##accord
1563
##4001
1411
##ulli
tjhe
helms
##lora
1857
##klan
petrovic
ltm
##icka
##strained
salien
##iji
##regulation
afg
##0109
bumper
whip
evaluator
entreprise
blanche
bulg
##eaters
##hough
kanal
expedit
##omeric
roan
##afo
oceanic
##licant
1872
dorn
fink
##sibil
accustom
grievous
nizhniy
dubious
##general
enclave
##5278
##ermin
ismail
##abil
headaches
expo
cheat
##lavin
##emming
blockade
propri
##chison
revere
corporal
centru
perpetrat
lira
##nchuk
venire
engra
tense
galvan
##verse
##mpina
##xel
streamlin
abdel
giusepp
dorothy
optimistic
##oude
##nito
chong
##vanpa
##nui
diplom
##definition
busy
joann
nhs
##tong
dara
##omp
##lieu
##iphenyl
##orski
##dzha
rudd
corpse
offtake
contours
##yseg
##hrer
##2055
##2901
tamm
mcel
2057
##1444
##aceta
##0222
dominic
##forth
nontransfer
2935
2113
##innat
shamo
##imet
##verenig
antibiotic
agia
cognisance
prone
anhalt
##hma
##center
stur
demps
##yron
##4320
##dicke
##rond
bono
##itre
duran
nagel
##0121
##alkyl
##gged
spoon
##ameda
verli
##kci
##empori
ministre
##1980
upbringing
##ntero
neurologist
dpp
##4823
glori
2447
skinner
topograph
textil
##lepi
unfold
mandel
##ranta
##ambo
abusing
izv
##uration
##adjusted
assad
kinder
##diction
##elaine
wun
##ritter
grod
chung
##vaj
rami
walto
mazur
biomedic
predate
cnb
##carpa
##tically
##elates
cholest
undist
ohm
wolasiew
gown
councillor
##20080
##argin
##sabel
##itter
observato
##0166
innovat
##glas
##curricula
##chk
1862
effet
3206
evangeli
conta
2515
##0126
1490
##tours
intelligibl
##hana
##slag
vanguard
##4901
krist
gebr
1788
occupier
reflex
svetl
rohr
##icda
divulged
##eviciu
claire
yel
1706
usaid
##agonist
usci
2104
1559
##stair
##elder
assortment
##ivsky
rok
gull
xxvi
3143
kz
##embarkation
##8424
devolve
ceb
haar
fiduci
salesmen
##lij
cdm
##cette
fennell
##1104
relet
##rasov
piercing
rearward
insular
intimidat
malo
teic
matric
johann
1417
##itin
##elter
##gressive
##ghl
##schriften
skippe
grozd
molten
##tskiy
##play
multiplicit
accretion
ultrason
##osti
cashflow
##osso
lienholder
tabac
amplify
salar
##8056
dirt
##mut
##4801
swede
medico
garbage
lemmens
counterbalance
earlynicolas
##1088
recalculate
##ewk
##biotic
nieuw
##asted
##broile
##piper
brutal
##rzek
creativ
##tseva
##verine
schee
##umov
continu
##5833
waterproof
##fission
##mrda
##ambu
##oku
##social
tamil
legge
##bull
##nfi
fastene
reggi
##32030
caravans
##tsgericht
2530
dilator
nike
6210
##drij
ferrer
##8506
bins
##uitt
##nieder
##ssie
##axial
kuzm
roster
cwa
schwei
##claim
ryab
bpa
tarp
##quid
1544
##lumet
guc
commingling
boulder
holistic
##ouvr
##2358
enclose
##tut
##tinct
congole
1791
accommodat
##54063
7117
notarize
##usten
##leva
##pata
1421
##undling
cramp
posters
jasmin
gupt
aachen
statue
1825
moul
2926
addis
##zir
##position
unconscious
brill
drydock
##acio
beckman
##ffey
sixtie
regiment
##mieni
##erling
rosso
##kinci
##termine
khaki
##wha
actini
##kinson
##mpression
##mienia
pillow
##2169
1562
1610
vester
##jek
##agliari
##mphas
##inella
celan
scholar
##uki
paes
##dore
caravan
hubert
##tello
##vro
equivalenc
garanti
##oderm
##iniu
sepa
2275
samb
dove
anxious
stockpile
##wright
##amina
3094
##erlen
marjo
exec
##tidine
util
chaus
bailment
logge
alphabet
##raud
##lefin
instigated
forklift
##ijus
##0122
dots
6105
avg
1378
##toli
sfry
mehr
##arski
##innen
crust
##anilla
palom
misbrand
##nction
1489
omne
##mosse
##cost
wolff
##sbo
2843
dorsa
##grafo
##belt
##termin
segur
lbs
##bursa
marth
polygraph
##erina
ioniz
reload
koehl
1393
rash
gustav
##indler
lapp
##planned
##quart
gory
khat
##vertebrate
lup
1718
drach
tsirli
confining
8521
shreve
##fac
rabbi
##alente
symbolic
##kowa
##pyrr
chr
##orda
##5503
dni
##donna
##basa
padure
refoulement
reissuance
scream
excavator
unbundle
kmart
##kranken
##brough
cerc
paraph
starr
headquarter
##8537
7607
##uben
1387
##priv
neuman
##important
kub
##0625
molina
brou
allgemeine
longshoremen
pathology
##illac
##5050
##erung
##kriv
##3080
bord
##31010
monk
##acchi
1376
##cement
##0132
embra
##ilja
expound
##33000
dnipropetrovs
materiel
##00003
maximu
cyst
##roth
##adkin
##elez
##zier
##ectoral
##ziu
##uste
culminated
##1770
danut
plau
##ustin
weir
##kking
##unti
dinner
blindfold
immobiliare
##rtu
##search
##ueck
##urate
##zyc
tav
##cloth
##hach
overton
hoo
##oyer
##stellung
##alien
absentee
cecil
scrubb
##bort
##kse
stol
cracker
##bitz
excursion
tsatsa
nyp
##etra
##steine
hitch
prohibitive
outlaw
manor
##auter
1549
##lusive
##enisa
##stancia
4818
1707
keh
handset
##gestellt
##scopic
chromosome
allegiance
##anlage
4016
##safety
##cmc
1625
##idge
##dolan
6212
##miner
prejudic
mako
2119
loizidou
magomadov
maladie
##8906
saver
knapp
khi
##mpr
embargoe
##damia
1633
##thorp
pelvi
2869
zb
##veny
steinberg
##nais
2409
##urgeon
cosme
##niva
##zaca
nikolovska
##enzi
##assay
impot
lipto
ministerie
gila
##imica
monic
##hoek
coffey
##enske
##ilan
glid
##ijs
##struct
##ocyt
##scribed
sava
tangent
belv
ebit
3905
midwives
intervento
emin
##ratt
##duz
##umbo
stump
deutsch
collectibility
ucs
1573
1366
##debra
curle
##imida
dcm
yell
##riton
2533
biel
##tened
##omar
##bereich
##ersol
embarrass
circumspect
interdependent
repatriate
##cji
##kiewicz
##weise
##quita
##0128
forsyth
##eaves
raul
##quarter
flie
antoni
##2430
##nomina
tiss
##vergne
bobb
##anovic
talc
##ordi
##iglia
akhmadov
morbid
rive
unprotect
##3001
4107
##bade
##lido
bogdan
burgess
##bourg
taw
##rfo
reconfirm
##kiu
precept
##kang
2849
saif
magnus
lenn
##maat
##asci
relocat
##ensee
everett
disgorgement
subsume
crani
##zzett
sodisc
##jall
##ehle
ravi
##ocul
##11100
2819
7004
jade
##zaru
##ambre
treatise
##fitter
##blanc
##zhe
jeep
necess
##free
##inska
##zepa
succ
##spect
infiltrat
##9400
tanner
picking
moro
1683
##ductive
9406
##moto
pellonpaa
charbonn
noodle
##notic
slim
##rews
1622
slat
##8305
schro
powiatow
##hetti
##soc
repric
##0165
##ctuall
adj
##kontor
denise
kuhn
##tesla
##0424
##cima
rooke
2841
altercation
##uitvoer
refinement
moder
##moy
##dith
centrifug
##elektr
schla
1437
iulia
##olano
enclos
bogi
2568
outlay
albe
statu
##0152
schne
lez
lgbt
sistema
censure
refr
##airie
fellowship
abrupt
##erida
##0157
eugeni
##good
3902
##onka
##mbri
devaluation
hussein
unjustifiable
##ithin
##carole
detonat
##konak
##hts
##7206
##roca
mizu
##hudi
unseaworth
obstetric
neuropath
marialena
rnk
##rolo
broni
##khora
##shooting
##eister
hawthorn
##egid
##2550
##level
##uhan
##0134
##ggia
##8101
##2750
##cilli
scandal
##nehme
##anian
respublik
##opper
##even
##loom
arriva
zor
committal
##nkr
hoeve
##cited
##sido
##buyer
##meric
guise
##bny
raisi
patras
##dato
tigerstedt
yusuf
shepard
##merci
1450
stab
##zate
salih
##passing
dysfunction
##shop
1440
##four
extremis
contriv
##inaire
##wang
sched
##oxim
vehic
quar
granad
keene
catastrophic
##bois
tubercul
1641
selva
3033
##bene
donne
enlarg
##igkeit
##recurring
##evre
herald
##oshi
turin
##scence
poma
5604
insane
##niti
arbi
##chni
##arius
volcan
##ndum
iru
nondis
##07000
##adine
kui
roch
##anthrop
##cdf
montagu
1858
##etan
6802
##treatment
##1650
ghen
##piers
##ergamo
##bitt
##0118
sank
salah
baci
wojtyczek
kapital
roadblock
jihad
##tua
bernardi
##france
diverg
9024
teache
schweiz
inadverten
skad
resettle
modulate
##them
##0164
##ogne
##jol
##rology
##elanco
##4420
##9025
gail
sliven
##recipient
vassili
trott
liberate
##yrac
venu
##personal
##6055
##900000
##5305
##0314
disconnected
coconspirator
lubarda
manfred
sada
##0163
technische
stevedore
##fuelling
##wart
##attie
quay
##6501
1852
##alven
goth
qin
##qia
scheu
claus
append
abbe
kott
pamphlet
silber
tanri
##valst
navigat
burling
bram
##agog
##utan
dima
##profession
stoll
merz
##0423
stanislav
servizi
##ibb
mdf
kather
##limit
dalia
##jector
moda
##unicate
classifie
##odin
svensk
geral
kyr
##production
##oxime
##naf
marma
2185
skein
##mni
decentraliz
##tonia
##8801
mccra
##guid
biec
alsto
##rancho
##verkehrs
clem
lille
blau
mosk
samoa
##price
mullin
kontrol
sensu
##1032
newsletter
incubator
lbh
knowle
##zolin
##gested
##layev
##aji
melit
spano
##agco
##infringement
kinsh
attraction
derrick
resemblance
##verg
##kula
##siac
##0305
capex
marx
##berti
unrest
scol
##wai
gub
1582
merid
##6070
##consult
##tanton
2813
##availability
##olesta
##0143
postponing
stephan
##trask
2671
##tribute
vlad
milo
shul
##eik
##ilane
##brunn
cough
barracks
resembl
##8432
friendship
intelli
mailbox
chimeri
##tita
koen
deze
##0308
##arne
3286
pronounce
donau
1473
##0169
##nesta
quadri
##vement
hubb
painful
testifie
unreserved
usufruct
burch
##unnel
mesure
murad
##haney
negat
##kley
naic
##schri
sultana
luce
##summation
##0129
##ivre
##jib
8429
##ochen
glea
disso
unca
jaun
##anyan
##gazd
clam
##baek
##olistic
mccart
ulste
urb
yonk
schwarze
##fico
##cchi
##psy
##region
bertra
##garten
##lderman
waistcoat
atlantique
scali
##approved
foetus
##chinen
4820
##atore
##antine
categorize
rachel
pectin
##avir
##loan
##morphou
pfeif
##0173
##onio
ordinate
##zonder
separa
ophthalm
##azu
1425
provocation
##abilite
preface
##ntrations
provin
velk
verh
##otor
##pani
1799
warders
##yatt
4088
##boc
vegeta
goff
##resz
##kell
##pfe
##anhandle
radis
galle
##cert
immoral
ripple
osterreichische
##akti
##wiese
widower
constructor
##3411
##arret
##erified
##potam
grygor
disobedien
##gwi
##stoff
##rink
##erke
interpolate
##vista
##ncm
##niew
dewe
overstepp
8448
conven
stunn
##topo
##building
categoriz
gilt
subcu
##imped
##raine
##3501
histopatholog
dietetic
greer
##ntiac
paradis
##arba
##wheat
##michael
##zburg
2906
##ocar
##erill
##taja
nile
neste
##eiske
##volt
kraus
##incidence
1854
poit
##connect
turkovic
redistrict
valentyn
##tike
izda
deactivat
gait
##0046
rocc
benedict
enrique
##delib
marne
quarrie
anniversar
##neric
##0145
##7901
##kko
##aberde
##kraft
##amer
##anamo
knau
stave
minera
##kav
featur
1429
##vign
satc
elkin
visitation
semantic
##recherche
1567
##4500
lear
negation
falc
##raha
1769
sunk
renre
wvs
##7204
psycholog
##colm
##5201
sunny
bhc
singul
gillett
multitude
newborn
##angelica
realistically
denne
##true
1470
obje
##acquisition
maximis
##arta
cdl
##2291
federativ
##iopharmaceutical
lecl
1802
2211
admonish
disaffirm
psychiatry
mahmut
1675
cogs
mastic
wfs
szczecin
##mique
piggy
rsfs
anatoli
##address
##utin
fabbri
vandalis
renter
nabi
okres
##brze
newfound
nontransferabl
murat
vei
##opene
bourgo
detachment
instigation
##hound
bullock
##integra
##incoterm
grigor
##ravat
stellar
7007
tardi
##30040
habe
nullifie
irrita
##omeno
cognac
zdrav
humbl
##3909
purify
##8306
citron
##bauer
denny
##gauz
##0167
##0371
2166
nuco
alekseyev
zaytsev
##vocation
lavor
campion
9004
stockton
##0312
##maz
##resor
##lapa
##gewe
worrie
##bkc
##0042
##cron
gravely
loos
donahue
krzysztof
pneumoconio
##cello
##helan
##registre
##udad
aziz
circulator
##rizzo
shaver
##holme
maze
palla
##ancing
##okit
##0142
alder
##shvil
##ptl
prosthes
inescapabl
nevmerzhytsk
fortnight
emphatic
inciting
oldenburg
mcque
murcia
##giou
##disi
##oben
misma
1775
cardoz
##phel
##uke
1738
##ebt
domingue
pragmatic
alfons
cumbersome
emor
##ecall
bystander
##crypt
##naria
medicate
1469
shouting
chass
##akia
implicat
##0603
kach
permanen
graff
kst
##elka
tannin
##erle
caza
##vka
cohabit
subtle
dormitories
travaux
disenroll
gesamt
blatant
##karov
##bata
##boile
redistribute
##eiten
##gnu
##roder
##8430
##xygen
miniat
##etsk
##stall
zala
rubi
scop
##nosti
2552
##8460
2814
##meritor
tartu
##iske
pheno
##renzen
2781
##uert
capti
galin
##kush
##fitting
4811
##uvo
mamm
criticis
2268
haematoma
##ttori
alienate
##class
1506
##diyev
midwife
tattoo
understatement
3203
##0191
##iati
##6405
koko
##randa
##nari
sugarbeet
roeme
##beau
tup
##rase
kettle
##uig
##2673
##ovame
##ktar
##isso
spir
4055
groom
middleto
mallor
##republik
##steen
visibl
##venno
##tien
orchestra
##uzu
zil
bestimmt
wildhaber
inculpat
resolute
5804
overadvance
dickson
sabe
##finger
##16000
1526
##ferra
sich
##hatter
archite
irene
mismanage
robers
##artus
policymaker
##event
legion
coffin
viola
sliv
casse
maribor
muffle
##agus
epit
##eringen
##ciolo
##introduction
azur
taver
torch
seldo
3731
##amendment
##subordination
##egro
##ucus
##6200
##inrich
craiova
inaccessible
bristle
propound
##warf
sple
josef
plunge
##bilt
implantation
disembark
krato
wach
##merger
retrocession
##surf
##alter
forwarder
##asag
ancient
hedigan
uhn
##10030
maure
##gusta
perpetuate
peng
kcp
##agri
dcc
##rnado
afore
hurd
proscribe
##ovani
finch
burnt
sonder
latt
oficial
susceptibilit
##verwaltung
restitutio
##loop
##nieku
##bcm
##mandi
##udine
##tati
pmo
##koda
##ggr
strait
##wold
##0228
##1594
celebr
optimize
##tuz
overestimate
##lbo
kalli
soud
##ausse
##kirch
summarising
##quan
##erbe
valeriy
3730
##target
cardiolog
##ochu
##ulda
##lopp
##6111
##erij
syll
##eval
##ogramm
canister
carac
lindh
graber
frate
##custodian
sverdlovsk
tetyana
loz
ellip
philosophical
##wosc
kirov
##forening
##isig
##oscope
##urant
darb
##rucker
##conditionally
7704
##restri
##regierung
simferopol
cartilage
##2967
canvas
##nade
##hear
##rzew
ioanni
##1670
damper
sylvan
vagina
##siia
##phoric
##4200
microscop
targ
unethical
##revisi
##workers
piling
##ylace
##second
##tanto
##terol
mutant
seger
flyer
##otten
viet
apolog
condone
##pike
brez
tryp
balsa
rebellion
worcester
snail
nashiri
biomarin
##wash
recuse
launcher
##horse
1609
##0149
##orium
3583
##frost
9607
##rogan
bedien
##decen
##khei
rationaliz
##6990
##assemble
reappraisement
costume
chemotherap
volp
3059
gripp
baia
##ntelo
lokal
##dash
1781
2229
##clid
##toxic
constat
bundessozial
##cyjn
shouted
##amentary
synthesize
##strata
dream
##understood
simi
hagan
westward
cush
5308
pegg
##osene
repairer
killer
7227
##darko
##ruh
unchallenge
##strand
mckenn
schre
##registration
##saare
##omrade
##ddle
##thele
calderon
sentiment
pugli
##alves
##aceu
kef
multiply
##rema
1796
2997
##raco
##quilla
genome
##disturbed
##twc
##herson
##8802
##vira
##asem
##lime
##ernali
##industrie
##nock
##arolyn
##phae
##goza
cakici
tangential
naac
fws
mccoll
gesture
##arska
stagn
##grated
##zott
##cchio
harrel
##exchange
kole
jasper
lietuv
jord
expressive
##0174
##adeus
##cilla
thumb
shelve
##ocell
oppenheimer
scaffold
remodel
assimilation
ipcc
1842
##0339
ignorant
osob
##distribution
##manta
##0211
##orti
domini
##eyer
##minist
8515
##0840
2446
schna
##hambre
##chot
osak
patche
optimized
##halb
talbot
##dzhik
##1331
##elmi
commut
bluemont
leba
modus
debase
##hologic
##1810
##business
##nitrate
##tiki
##3492
##0127
neutralize
risp
irretrievabl
ferreira
##adore
sahara
harlow
adduc
##6109
zimmer
##mande
3166
rafa
2508
doris
eile
specializ
##registered
9999
##vicer
##buco
garda
##artan
nazar
##clean
##0137
1579
envoy
blago
morpholog
##eiko
##phyr
##aoui
##pril
reemploy
##accrued
##guia
##discount
4042
3699
straighten
##jorn
testament
kozlo
appalachia
brumarescu
1438
##hiyev
dobb
##bah
##reight
futur
stati
##against
distri
##agre
blot
##okane
1598
##lesnic
##0830
bogg
##aban
emili
crystallis
mazz
##leaded
1565
forestall
homosexuality
##41000
3707
##zecin
luh
petra
##cero
simone
compassion
whart
steelworker
amministrativ
##oresko
smirnov
##xcel
serif
##0189
##khu
##6117
postmaster
##rzan
##zogen
5902
##hael
zair
##abayev
nuv
##0176
##3579
scant
tumour
backdrop
##holt
verme
championship
##mila
##ianz
##aune
##1944
polymerization
##escence
cuban
handic
lineup
##fahrt
sops
##shield
unrealis
##ephe
arbeids
##gemeinschaft
kii
recusal
intuitive
##0177
inexplicabl
luko
##olta
##lassi
utm
locator
##capto
##amse
##series
##cake
inferiority
swain
zambr
##shkin
salut
##0172
##adrill
##aviv
narodn
##nicki
sute
##orri
##representation
whirl
gallego
bobbin
##7606
##1499
oestr
##arbe
##igene
##lgari
##strati
bergman
##advisor
temper
##consolidation
jill
##4136
wager
##8108
##roton
knott
dilemma
hypotheses
##6060
hypercom
skull
mauri
##ereo
##3202
##punkt
hormon
##ibri
rump
##licens
ecole
queue
2348
popla
suffrag
garnishee
rheu
lantern
troph
##rologis
mosque
##tween
penetrat
fake
zlat
##ehler
valor
3212
##rebe
##odni
flaming
##fassungsgericht
horvath
utrecht
archaeologi
##ilka
hanga
depiction
allot
##leag
1813
##32005
##ngda
##bestimmung
mcfarlan
confederate
carbohydrate
pavel
epd
##disc
trave
innoc
gym
##therapeutic
##timo
transcribe
bezirks
##below
1468
##arga
daewo
probabilit
borden
situate
cupr
##aglia
barre
bvr
siebe
##lap
##longation
danon
##cordo
jilava
pardalos
calculator
steadfast
dudley
lesbian
auctioneer
liaise
5508
pueblo
##eleon
##tsiia
##astro
##vcp
##aquin
emil
purvi
hamb
##8211
risc
willow
##2190
##noxious
3742
##chemi
maldon
gorg
guillo
dubo
finalise
joke
ribeir
2802
##rbate
##zahl
zhytomyr
constitu
celik
##6250
##akova
sega
##tember
##7801
kazak
##urk
##iaz
jeanne
##barb
##levant
affair
##beni
##2850
##crystallin
##minb
invidious
protestor
##2223
dissociate
##credible
replev
olsen
##innell
criticiz
shun
2375
##arza
yag
##0599
1539
##politi
##reise
succinct
##9504
savoi
##tractive
##gesundheit
otcbb
##heden
gentiva
saffi
speeches
##angela
crackdown
compliment
##tscha
##ondin
breastfe
kowal
##echter
##enje
retarded
anonim
##0223
fraser
##0141
##nigan
##zeta
krav
neutralise
##1900
3626
tahsin
##ggins
jiu
bike
##umie
salim
##aule
masco
judicia
##6304
5309
tragic
ingeni
koel
##alpi
pecan
vibrat
taz
##lju
##lgia
##mmons
franchis
swab
2790
##raf
02110
##asser
trench
avon
##khor
##eava
crep
##cycl
##yhte
dissipate
gennadiy
##3215
##assurance
plato
##cardia
##tska
##ffert
xxxi
##elsi
##navide
##ventive
##6701
##etamine
##1963
##pido
##9029
cetin
##tingen
tribut
##preciabl
pomer
haber
##buchen
forgiven
##rawling
stuck
bowle
unrecover
dsp
bauman
3913
especial
negr
flavor
##lgi
inordinate
##hcf
draper
publicize
##agua
##employee
jobber
##3371
urad
##nacional
##rector
medal
salvato
##strep
##ripe
disincentive
juridical
sisak
mularoni
purple
uneconomic
lebens
ackerman
##2090
##transfer
circus
##ashes
yaz
denunciation
##fried
##clavi
##cune
galat
decode
lager
##adiz
elev
caud
##9801
##condition
##orland
confiscat
finis
##0188
caveat
##ecause
##tora
cherno
##anma
anastasi
ponce
kalama
##0221
##telos
spher
##atya
##owan
evacuate
hove
##icola
sawmill
3825
##dzim
##lahti
##expensive
##torso
##0513
geograph
##inverter
kamen
##ugia
voyt
scrutin
##ifici
bakirci
wrongdoer
schlicht
necessities
reconveyance
coincid
##conferenc
##wirtschaftliche
glean
nationalities
stray
chapel
##silicon
cutback
##rido
dispell
thornburg
kirb
##lmaz
sfc
##5040
##0146
##grel
stens
aberration
polackova
scrupulous
recreate
siedl
stomat
##zolo
##ikko
##permet
janic
##2013
##wirtschaft
##kredit
dios
inherit
##atlantic
galve
##elva
##telecom
##arti
##checo
vigilant
enzon
securitiz
disassemble
airfield
congregation
kiskun
grin
pickle
##ptly
recondition
3805
dispensation
##matting
##apillar
##lenia
##perone
lankan
##camp
##utch
##delivery
rollins
initiator
##ogado
##drin
ffc
##igle
##quoi
9150
tournament
##9100
reenact
shuff
##ijen
verita
25444
##keit
wak
##ooga
##zuri
##ectra
##about
regularise
strana
##parasit
##0450
##4900
##0139
##vente
podo
wipe
fama
##micro
vasco
oleksiy
sponge
belarusian
mello
##ophi
theater
##efe
indict
frederic
yol
rahman
##ostea
damian
hyperlink
##2603
##4742
##mmit
2846
##militar
##riya
schor
hanger
[...]
